<unk>	0
<s>	0
</s>	0
▁t	-0
▁a	-1
he	-2
in	-3
▁.	-4
▁w	-5
▁s	-6
▁I	-7
re	-8
▁the	-9
▁m	-10
▁,	-11
er	-12
▁o	-13
is	-14
▁c	-15
▁to	-16
▁b	-17
en	-18
an	-19
▁f	-20
at	-21
it	-22
ou	-23
on	-24
ing	-25
or	-26
▁h	-27
▁p	-28
es	-29
nd	-30
▁d	-31
ed	-32
▁l	-33
▁n	-34
▁th	-35
ar	-36
▁in	-37
as	-38
ll	-39
▁and	-40
om	-41
▁of	-42
ve	-43
▁g	-44
ic	-45
le	-46
▁is	-47
ay	-48
▁be	-49
us	-50
▁e	-51
▁T	-52
ot	-53
ent	-54
▁ha	-55
ow	-56
ut	-57
al	-58
ver	-59
▁re	-60
▁'	-61
▁my	-62
ion	-63
▁y	-64
im	-65
et	-66
ld	-67
▁it	-68
▁for	-69
▁st	-70
ch	-71
▁that	-72
ly	-73
▁on	-74
st	-75
oo	-76
▁we	-77
ct	-78
id	-79
ke	-80
▁he	-81
▁A	-82
am	-83
▁was	-84
op	-85
ri	-86
▁S	-87
▁have	-88
ce	-89
▁you	-90
gh	-91
▁me	-92
▁wh	-93
ro	-94
ir	-95
ad	-96
▁li	-97
ur	-98
ore	-99
ter	-100
▁so	-101
ill	-102
▁The	-103
all	-104
ith	-105
her	-106
se	-107
▁E	-108
ap	-109
▁do	-110
ome	-111
▁with	-112
ish	-113
very	-114
▁are	-115
ation	-116
ant	-117
't	-118
un	-119
▁`	-120
▁n't	-121
end	-122
use	-123
ould	-124
▁!	-125
▁not	-126
▁'s	-127
▁``	-128
▁ne	-129
▁B	-130
▁M	-131
▁as	-132
▁an	-133
▁at	-134
▁W	-135
▁this	-136
if	-137
gl	-138
▁ab	-139
▁H	-140
▁wor	-141
glish	-142
▁but	-143
▁can	-144
ul	-145
out	-146
▁sh	-147
ear	-148
▁k	-149
▁go	-150
▁ex	-151
▁En	-152
▁J	-153
day	-154
ime	-155
ra	-156
ge	-157
ca	-158
▁al	-159
▁se	-160
▁It	-161
ght	-162
ud	-163
▁will	-164
rom	-165
▁English	-166
▁con	-167
ally	-168
th	-169
▁j	-170
▁su	-171
▁time	-172
cause	-173
▁sp	-174
▁like	-175
ak	-176
ac	-177
▁very	-178
▁ch	-179
nt	-180
il	-181
ood	-182
▁-	-183
▁from	-184
▁de	-185
apan	-186
▁com	-187
ess	-188
▁en	-189
▁about	-190
▁pro	-191
fe	-192
est	-193
▁pe	-194
▁C	-195
ort	-196
hen	-197
ink	-198
▁te	-199
ople	-200
ake	-201
▁or	-202
ol	-203
▁Japan	-204
▁)	-205
▁?	-206
art	-207
ment	-208
ate	-209
pp	-210
ble	-211
▁people	-212
ers	-213
ust	-214
ry	-215
▁pl	-216
▁because	-217
el	-218
▁F	-219
ure	-220
and	-221
▁u	-222
▁stud	-223
▁some	-224
ig	-225
ity	-226
▁want	-227
▁'m	-228
ast	-229
one	-230
▁by	-231
▁2	-232
ite	-233
▁Th	-234
▁day	-235
▁(	-236
any	-237
riend	-238
ook	-239
▁there	-240
now	-241
ist	-242
▁am	-243
▁think	-244
ain	-245
▁they	-246
ost	-247
ard	-248
▁had	-249
▁more	-250
ich	-251
▁friend	-252
ong	-253
ive	-254
ther	-255
▁v	-256
▁O	-257
▁N	-258
▁work	-259
ese	-260
▁us	-261
▁In	-262
▁one	-263
os	-264
▁know	-265
▁all	-266
ci	-267
ind	-268
▁im	-269
▁wr	-270
▁r	-271
ame	-272
▁P	-273
▁fe	-274
▁cl	-275
qu	-276
our	-277
▁good	-278
▁:	-279
▁D	-280
are	-281
ice	-282
▁But	-283
▁which	-284
ang	-285
▁1	-286
ie	-287
ies	-288
▁sa	-289
▁year	-290
um	-291
▁them	-292
▁ag	-293
▁when	-294
00	-295
▁who	-296
ous	-297
▁many	-298
▁R	-299
▁other	-300
▁has	-301
▁L	-302
▁their	-303
so	-304
▁imp	-305
ough	-306
irst	-307
res	-308
▁comp	-309
fter	-310
ool	-311
▁To	-312
em	-313
ep	-314
▁get	-315
▁would	-316
▁int	-317
▁could	-318
ob	-319
▁up	-320
ount	-321
ide	-322
ight	-323
uc	-324
▁un	-325
act	-326
ary	-327
ven	-328
▁So	-329
▁exp	-330
▁every	-331
age	-332
ult	-333
ound	-334
og	-335
ass	-336
▁Japanese	-337
ine	-338
▁if	-339
ag	-340
▁My	-341
▁spe	-342
▁her	-343
▁We	-344
way	-345
▁new	-346
▁study	-347
▁too	-348
▁also	-349
▁she	-350
▁now	-351
iv	-352
▁went	-353
▁ar	-354
▁our	-355
oy	-356
uch	-357
red	-358
▁were	-359
od	-360
ase	-361
omet	-362
▁than	-363
vel	-364
▁been	-365
▁ca	-366
ack	-367
▁gr	-368
ning	-369
▁what	-370
▁Y	-371
▁should	-372
▁ad	-373
▁le	-374
▁dif	-375
▁your	-376
▁make	-377
chool	-378
▁first	-379
▁G	-380
▁lot	-381
ance	-382
▁out	-383
ov	-384
cc	-385
▁did	-386
▁This	-387
▁co	-388
▁just	-389
▁school	-390
▁any	-391
▁wat	-392
▁thing	-393
▁lear	-394
alk	-395
▁K	-396
▁much	-397
ect	-398
▁feel	-399
▁tr	-400
▁his	-401
▁dis	-402
▁only	-403
ach	-404
fore	-405
ans	-406
▁friends	-407
▁How	-408
▁today	-409
ign	-410
itt	-411
▁use	-412
ever	-413
▁need	-414
ace	-415
▁hel	-416
▁really	-417
ue	-418
ove	-419
▁count	-420
ence	-421
able	-422
ond	-423
▁how	-424
▁200	-425
▁And	-426
ought	-427
▁help	-428
▁He	-429
▁somet	-430
lf	-431
▁There	-432
ek	-433
▁no	-434
▁U	-435
▁read	-436
ily	-437
mer	-438
other	-439
▁tra	-440
▁after	-441
▁look	-442
▁happ	-443
ub	-444
▁di	-445
▁way	-446
▁part	-447
▁res	-448
▁fam	-449
▁pre	-450
▁play	-451
▁life	-452
hing	-453
ents	-454
fic	-455
ree	-456
vers	-457
▁qu	-458
ated	-459
iz	-460
ren	-461
ild	-462
▁see	-463
▁start	-464
▁tw	-465
▁speak	-466
ress	-467
▁long	-468
hed	-469
ab	-470
▁week	-471
xt	-472
ition	-473
▁take	-474
▁years	-475
ade	-476
▁home	-477
▁Today	-478
▁cont	-479
▁got	-480
ope	-481
eri	-482
ck	-483
ving	-484
▁bet	-485
▁If	-486
▁write	-487
▁Ch	-488
▁pr	-489
▁say	-490
▁going	-491
lic	-492
▁last	-493
igh	-494
ince	-495
▁When	-496
ne	-497
ical	-498
olog	-499
nder	-500
▁said	-501
▁bu	-502
ose	-503
ile	-504
▁exam	-505
▁well	-506
▁most	-507
orm	-508
ber	-509
▁him	-510
iting	-511
reat	-512
▁even	-513
▁talk	-514
▁such	-515
▁However	-516
imes	-517
pe	-518
ved	-519
▁learn	-520
▁3	-521
▁ro	-522
lear	-523
▁Wh	-524
▁hard	-525
ways	-526
ually	-527
▁fin	-528
▁book	-529
▁rec	-530
blem	-531
▁under	-532
pt	-533
▁act	-534
▁problem	-535
▁mov	-536
▁Be	-537
▁class	-538
▁job	-539
ere	-540
here	-541
▁back	-542
▁may	-543
▁two	-544
▁always	-545
▁lang	-546
▁old	-547
si	-548
▁car	-549
ester	-550
▁inc	-551
ory	-552
ason	-553
du	-554
▁bec	-555
▁sk	-556
ple	-557
▁mon	-558
ick	-559
▁dec	-560
▁dr	-561
rent	-562
ions	-563
▁days	-564
av	-565
chn	-566
ful	-567
▁made	-568
▁world	-569
row	-570
▁des	-571
▁over	-572
ouse	-573
▁pers	-574
ip	-575
joy	-576
▁bus	-577
▁ke	-578
▁app	-579
oin	-580
▁these	-581
▁hope	-582
▁enjoy	-583
ces	-584
ting	-585
▁sm	-586
ittle	-587
per	-588
▁high	-589
▁before	-590
▁things	-591
ise	-592
▁ra	-593
▁ph	-594
▁diffe	-595
▁kind	-596
▁"	-597
▁country	-598
▁'ve	-599
▁something	-600
oney	-601
erest	-602
▁little	-603
▁try	-604
▁rel	-605
ors	-606
▁love	-607
▁acc	-608
uclear	-609
ather	-610
▁interest	-611
▁person	-612
esterday	-613
velop	-614
ations	-615
ail	-616
ict	-617
▁show	-618
▁still	-619
tern	-620
▁here	-621
▁money	-622
▁off	-623
▁'ll	-624
▁8	-625
▁/	-626
▁since	-627
▁watch	-628
▁langu	-629
▁techn	-630
▁As	-631
ange	-632
ff	-633
ology	-634
▁import	-635
▁next	-636
▁thought	-637
▁ear	-638
▁find	-639
▁child	-640
cial	-641
▁eat	-642
we	-643
fect	-644
▁They	-645
▁shop	-646
▁gen	-647
form	-648
▁sc	-649
▁come	-650
▁After	-651
ark	-652
self	-653
▁develop	-654
▁man	-655
ivers	-656
pl	-657
▁Al	-658
▁month	-659
▁sur	-660
ens	-661
▁She	-662
▁impro	-663
▁then	-664
ently	-665
wn	-666
tt	-667
rect	-668
get	-669
▁call	-670
ower	-671
▁bl	-672
▁br	-673
cess	-674
▁big	-675
ert	-676
▁again	-677
▁fl	-678
▁ask	-679
▁family	-680
▁underst	-681
▁conc	-682
▁better	-683
▁word	-684
▁che	-685
be	-686
▁str	-687
▁live	-688
▁used	-689
ia	-690
ny	-691
ract	-692
akes	-693
oc	-694
ited	-695
▁tri	-696
▁list	-697
▁mus	-698
▁per	-699
▁house	-700
▁happy	-701
own	-702
▁fore	-703
▁important	-704
▁att	-705
▁best	-706
▁same	-707
▁comm	-708
▁diffic	-709
▁ent	-710
▁why	-711
▁For	-712
▁pub	-713
iversity	-714
▁difficult	-715
▁english	-716
ave	-717
▁gu	-718
▁food	-719
▁Because	-720
▁cor	-721
▁diary	-722
▁test	-723
▁eas	-724
▁pop	-725
port	-726
▁V	-727
▁care	-728
▁never	-729
▁rest	-730
▁understand	-731
▁into	-732
lease	-733
ety	-734
▁Chin	-735
ord	-736
▁place	-737
ious	-738
ody	-739
vent	-740
▁keep	-741
▁pos	-742
▁great	-743
▁fun	-744
▁spend	-745
alth	-746
▁Now	-747
▁different	-748
▁mor	-749
acher	-750
▁meet	-751
▁Re	-752
▁reason	-753
hes	-754
ities	-755
aking	-756
▁sle	-757
▁must	-758
▁fu	-759
▁found	-760
ries	-761
ky	-762
▁where	-763
gy	-764
gr	-765
▁writing	-766
▁language	-767
▁teacher	-768
te	-769
lder	-770
▁listen	-771
▁ago	-772
vern	-773
▁sec	-774
ten	-775
▁tell	-776
▁ri	-777
▁buy	-778
ual	-779
▁bel	-780
les	-781
▁night	-782
▁movie	-783
▁nuclear	-784
thing	-785
vernment	-786
lect	-787
▁public	-788
▁bad	-789
▁mat	-790
ire	-791
▁real	-792
▁came	-793
▁4	-794
▁5	-795
oint	-796
uring	-797
ours	-798
▁morning	-799
▁popul	-800
▁students	-801
ward	-802
▁sum	-803
ank	-804
▁cons	-805
▁trans	-806
▁around	-807
▁em	-808
uture	-809
mor	-810
▁took	-811
▁started	-812
▁give	-813
▁improve	-814
▁What	-815
con	-816
▁able	-817
▁op	-818
▁less	-819
▁sy	-820
▁fact	-821
cially	-822
duct	-823
▁its	-824
▁stay	-825
ves	-826
▁hand	-827
ru	-828
▁On	-829
▁vis	-830
▁government	-831
ied	-832
▁company	-833
▁let	-834
▁ind	-835
▁future	-836
ergy	-837
read	-838
▁sleep	-839
▁each	-840
▁That	-841
ics	-842
▁elder	-843
ng	-844
▁rem	-845
arent	-846
▁supp	-847
ature	-848
▁plan	-849
▁health	-850
▁da	-851
dition	-852
▁2009	-853
▁technology	-854
ttp	-855
▁//	-856
ork	-857
▁http	-858
ative	-859
▁met	-860
▁skill	-861
▁inst	-862
urn	-863
▁yesterday	-864
oll	-865
ired	-866
▁few	-867
▁working	-868
▁20	-869
▁correct	-870
▁university	-871
▁seem	-872
▁does	-873
ian	-874
▁gir	-875
▁foreign	-876
▁cour	-877
▁hot	-878
als	-879
ft	-880
iday	-881
▁another	-882
elt	-883
ided	-884
▁result	-885
▁children	-886
▁myself	-887
▁pass	-888
▁You	-889
▁student	-890
▁while	-891
▁without	-892
ident	-893
▁train	-894
▁coll	-895
oth	-896
▁example	-897
ner	-898
▁At	-899
ility	-900
though	-901
stem	-902
▁music	-903
▁felt	-904
▁cost	-905
pecially	-906
▁experi	-907
ping	-908
aut	-909
▁power	-910
▁sent	-911
▁end	-912
▁though	-913
▁Ne	-914
▁min	-915
▁design	-916
ai	-917
▁Amer	-918
iew	-919
▁elderly	-920
▁Americ	-921
▁adv	-922
▁right	-923
▁disc	-924
▁;	-925
ream	-926
ational	-927
▁ef	-928
▁Do	-929
▁react	-930
arch	-931
▁summer	-932
▁reg	-933
ately	-934
ering	-935
▁Kore	-936
▁rain	-937
▁course	-938
ages	-939
▁looking	-940
most	-941
▁told	-942
conom	-943
▁city	-944
gin	-945
iness	-946
▁room	-947
▁beaut	-948
▁soon	-949
▁ser	-950
▁name	-951
▁ord	-952
▁First	-953
▁One	-954
▁inform	-955
▁become	-956
▁being	-957
▁studying	-958
▁gl	-959
▁down	-960
pr	-961
▁parent	-962
▁put	-963
▁gener	-964
▁countries	-965
▁art	-966
▁pol	-967
▁es	-968
▁pract	-969
▁often	-970
▁process	-971
▁energy	-972
▁called	-973
▁Then	-974
▁St	-975
▁hum	-976
rough	-977
▁wa	-978
az	-979
▁system	-980
erm	-981
▁sol	-982
▁pres	-983
▁wond	-984
▁sit	-985
ok	-986
▁own	-987
sible	-988
▁ide	-989
▁words	-990
▁Un	-991
ject	-992
iss	-993
▁fav	-994
▁young	-995
ater	-996
ieve	-997
ments	-998
▁cold	-999
▁girl	-1000
▁incre	-1001
arm	-1002
▁sometimes	-1003
▁saw	-1004
▁nice	-1005
▁sub	-1006
ember	-1007
ric	-1008
▁someone	-1009
iful	-1010
ortun	-1011
▁three	-1012
▁econom	-1013
▁travel	-1014
▁might	-1015
▁reading	-1016
▁interesting	-1017
ates	-1018
▁near	-1019
enc	-1020
▁during	-1021
ised	-1022
ial	-1023
ating	-1024
▁those	-1025
cept	-1026
ock	-1027
▁enough	-1028
▁TV	-1029
▁run	-1030
ched	-1031
▁med	-1032
▁learning	-1033
morrow	-1034
▁bought	-1035
ute	-1036
▁drink	-1037
▁parents	-1038
▁^	-1039
kyo	-1040
▁wanted	-1041
▁change	-1042
▁almost	-1043
ingap	-1044
▁mean	-1045
▁product	-1046
ternet	-1047
▁through	-1048
▁rese	-1049
▁using	-1050
ingapore	-1051
ug	-1052
▁6	-1053
aur	-1054
▁Se	-1055
▁tomorrow	-1056
gine	-1057
▁site	-1058
oon	-1059
▁main	-1060
ys	-1061
▁small	-1062
▁song	-1063
gram	-1064
▁dep	-1065
▁ed	-1066
ures	-1067
ont	-1068
ished	-1069
ings	-1070
▁problems	-1071
▁walk	-1072
▁web	-1073
▁beautiful	-1074
▁hol	-1075
▁mem	-1076
ize	-1077
▁elect	-1078
▁books	-1079
▁chang	-1080
ried	-1081
ell	-1082
▁news	-1083
ugh	-1084
▁Lang	-1085
▁Tokyo	-1086
▁decided	-1087
▁game	-1088
ath	-1089
▁happen	-1090
ready	-1091
▁free	-1092
▁inv	-1093
▁commun	-1094
▁times	-1095
▁10	-1096
ient	-1097
aurant	-1098
▁May	-1099
▁point	-1100
▁pict	-1101
▁mother	-1102
▁already	-1103
ared	-1104
▁Singapore	-1105
ern	-1106
▁19	-1107
▁exc	-1108
▁holiday	-1109
▁ac	-1110
▁development	-1111
ween	-1112
▁asked	-1113
w.	-1114
▁story	-1115
hi	-1116
over	-1117
aw	-1118
ww.	-1119
▁restaurant	-1120
▁between	-1121
▁program	-1122
▁unt	-1123
com	-1124
▁forward	-1125
▁sim	-1126
▁Chinese	-1127
▁//w	-1128
▁water	-1129
▁cr	-1130
▁Some	-1131
▁especially	-1132
▁hours	-1133
▁prep	-1134
▁famous	-1135
ax	-1136
▁quest	-1137
▁hear	-1138
uation	-1139
▁information	-1140
▁//www.	-1141
duce	-1142
▁age	-1143
▁Therefore	-1144
▁heard	-1145
oor	-1146
led	-1147
▁means	-1148
ier	-1149
▁shopping	-1150
▁sport	-1151
duc	-1152
▁getting	-1153
ific	-1154
▁air	-1155
▁experience	-1156
▁second	-1157
ote	-1158
▁grad	-1159
▁mind	-1160
▁please	-1161
▁conf	-1162
pect	-1163
▁living	-1164
ene	-1165
anc	-1166
▁colle	-1167
work	-1168
▁inter	-1169
▁comput	-1170
▁engine	-1171
ues	-1172
▁stop	-1173
▁ret	-1174
▁dream	-1175
gan	-1176
ull	-1177
ness	-1178
▁fr	-1179
▁Any	-1180
▁order	-1181
its	-1182
oup	-1183
ph	-1184
▁pri	-1185
▁party	-1186
▁Although	-1187
▁'d	-1188
▁tired	-1189
▁favor	-1190
ball	-1191
atur	-1192
oss	-1193
▁usually	-1194
▁doing	-1195
▁Sh	-1196
▁wonder	-1197
rie	-1198
▁makes	-1199
▁sw	-1200
▁bit	-1201
▁wom	-1202
▁~	-1203
▁educ	-1204
▁soci	-1205
ann	-1206
▁aged	-1207
br	-1208
new	-1209
▁sl	-1210
unch	-1211
▁bas	-1212
ger	-1213
▁An	-1214
▁cook	-1215
▁sure	-1216
▁believe	-1217
▁win	-1218
▁trip	-1219
▁sing	-1220
etic	-1221
▁cult	-1222
▁easy	-1223
osed	-1224
▁until	-1225
road	-1226
▁env	-1227
less	-1228
▁research	-1229
ets	-1230
up	-1231
▁ob	-1232
▁prov	-1233
▁human	-1234
▁ins	-1235
▁thinking	-1236
▁speaking	-1237
omm	-1238
iron	-1239
▁dri	-1240
fer	-1241
▁boy	-1242
app	-1243
▁%	-1244
▁possible	-1245
▁short	-1246
▁pain	-1247
▁ty	-1248
io	-1249
▁cur	-1250
▁af	-1251
ital	-1252
▁population	-1253
▁char	-1254
▁clot	-1255
▁cat	-1256
ized	-1257
ix	-1258
▁tem	-1259
▁opp	-1260
▁transport	-1261
▁build	-1262
▁teach	-1263
▁plant	-1264
▁japan	-1265
▁spending	-1266
▁present	-1267
ER	-1268
▁having	-1269
▁everyone	-1270
ife	-1271
aster	-1272
▁visit	-1273
ences	-1274
▁both	-1275
osp	-1276
▁contin	-1277
▁busy	-1278
▁watched	-1279
▁New	-1280
▁check	-1281
air	-1282
▁mom	-1283
▁expl	-1284
und	-1285
▁num	-1286
▁team	-1287
▁others	-1288
▁idea	-1289
▁expect	-1290
▁bo	-1291
▁office	-1292
▁face	-1293
▁Every	-1294
▁society	-1295
▁weather	-1296
hip	-1297
▁everyday	-1298
aper	-1299
▁7	-1300
IN	-1301
▁effect	-1302
▁watching	-1303
▁business	-1304
▁favorite	-1305
▁strong	-1306
lud	-1307
▁pay	-1308
▁By	-1309
ister	-1310
▁early	-1311
▁ma	-1312
▁bir	-1313
▁Yesterday	-1314
gether	-1315
▁ans	-1316
den	-1317
▁American	-1318
▁intro	-1319
▁support	-1320
▁Is	-1321
ution	-1322
ons	-1323
▁surpr	-1324
▁bor	-1325
▁din	-1326
▁grow	-1327
▁activ	-1328
▁communic	-1329
▁US	-1330
▁begin	-1331
▁together	-1332
utes	-1333
▁Act	-1334
▁whe	-1335
ironment	-1336
▁Ret	-1337
▁mist	-1338
▁Thank	-1339
▁clothes	-1340
▁tried	-1341
▁computer	-1342
▁vac	-1343
▁phone	-1344
amp	-1345
▁China	-1346
ives	-1347
ides	-1348
▁requ	-1349
▁finished	-1350
▁]	-1351
oke	-1352
▁writt	-1353
rieved	-1354
▁weekend	-1355
ered	-1356
▁seems	-1357
▁open	-1358
▁[	-1359
ead	-1360
▁Rec	-1361
ior	-1362
ency	-1363
▁=	-1364
old	-1365
ash	-1366
▁feeling	-1367
▁far	-1368
▁Anyway	-1369
body	-1370
▁aging	-1371
ars	-1372
▁sound	-1373
ention	-1374
▁interested	-1375
▁bre	-1376
▁practice	-1377
▁due	-1378
▁situation	-1379
ense	-1380
▁past	-1381
▁Please	-1382
▁top	-1383
▁everything	-1384
▁lunch	-1385
gest	-1386
rence	-1387
▁addition	-1388
▁wish	-1389
▁anything	-1390
▁environment	-1391
▁cle	-1392
vert	-1393
▁turn	-1394
▁maybe	-1395
▁special	-1396
▁Retrieved	-1397
▁recently	-1398
▁iss	-1399
ik	-1400
ination	-1401
▁Last	-1402
▁gave	-1403
▁thank	-1404
▁area	-1405
▁var	-1406
▁cent	-1407
▁season	-1408
ama	-1409
▁lim	-1410
▁opin	-1411
▁Since	-1412
▁30	-1413
▁body	-1414
▁dinner	-1415
cle	-1416
▁full	-1417
▁chance	-1418
▁fil	-1419
▁cou	-1420
▁mar	-1421
urther	-1422
▁left	-1423
▁mod	-1424
▁rep	-1425
▁Of	-1426
ists	-1427
oice	-1428
ollow	-1429
▁ext	-1430
▁months	-1431
▁became	-1432
▁snow	-1433
▁loc	-1434
▁away	-1435
▁ate	-1436
▁lead	-1437
▁serv	-1438
▁electric	-1439
▁av	-1440
▁making	-1441
ploy	-1442
▁earth	-1443
▁popular	-1444
ording	-1445
▁listening	-1446
ht	-1447
▁express	-1448
▁sal	-1449
▁sun	-1450
icle	-1451
ival	-1452
▁quite	-1453
▁prof	-1454
uk	-1455
ral	-1456
▁education	-1457
ular	-1458
▁All	-1459
▁yet	-1460
▁lar	-1461
▁taking	-1462
▁jour	-1463
▁These	-1464
ices	-1465
bers	-1466
view	-1467
▁includ	-1468
land	-1469
▁ever	-1470
ays	-1471
▁ass	-1472
fety	-1473
▁comple	-1474
▁follow	-1475
ret	-1476
▁group	-1477
▁store	-1478
▁Actually	-1479
ased	-1480
▁cool	-1481
ertain	-1482
▁playing	-1483
ases	-1484
▁bed	-1485
▁9	-1486
▁minutes	-1487
full	-1488
reen	-1489
▁sever	-1490
▁level	-1491
▁skills	-1492
uck	-1493
▁join	-1494
▁number	-1495
rib	-1496
▁pat	-1497
wer	-1498
▁mark	-1499
▁town	-1500
▁Recently	-1501
▁condition	-1502
▁fast	-1503
▁Maybe	-1504
▁Korean	-1505
ider	-1506
ium	-1507
▁coming	-1508
ike	-1509
ty	-1510
▁enjoyed	-1511
▁convers	-1512
▁done	-1513
▁choo	-1514
oto	-1515
▁Sec	-1516
▁bene	-1517
.com	-1518
▁seen	-1519
▁wrote	-1520
▁Also	-1521
▁genetic	-1522
▁several	-1523
▁once	-1524
▁arri	-1525
▁set	-1526
▁wear	-1527
▁expens	-1528
ring	-1529
▁talking	-1530
▁half	-1531
▁birth	-1532
▁wife	-1533
▁Fin	-1534
ird	-1535
▁clean	-1536
▁ref	-1537
▁rece	-1538
▁stand	-1539
▁vacation	-1540
▁ve	-1541
▁maj	-1542
▁wind	-1543
perature	-1544
▁det	-1545
▁sad	-1546
fort	-1547
ction	-1548
▁picture	-1549
me	-1550
▁i	-1551
used	-1552
▁inf	-1553
▁Can	-1554
▁TO	-1555
ughter	-1556
▁whole	-1557
▁fac	-1558
icy	-1559
ably	-1560
▁written	-1561
▁father	-1562
▁rad	-1563
▁social	-1564
more	-1565
▁Even	-1566
▁late	-1567
ivid	-1568
▁view	-1569
▁later	-1570
▁internet	-1571
▁Sep	-1572
▁lives	-1573
▁post	-1574
▁ey	-1575
▁case	-1576
estival	-1577
▁More	-1578
▁looked	-1579
▁add	-1580
▁knew	-1581
▁Korea	-1582
▁changed	-1583
▁talked	-1584
▁whether	-1585
▁abroad	-1586
▁aut	-1587
▁col	-1588
▁nothing	-1589
▁break	-1590
▁poor	-1591
▁culture	-1592
▁lots	-1593
▁letter	-1594
oot	-1595
▁opinion	-1596
▁mid	-1597
▁With	-1598
▁ter	-1599
oud	-1600
▁safety	-1601
▁Dear	-1602
▁played	-1603
▁daughter	-1604
▁webs	-1605
nal	-1606
TR	-1607
erious	-1608
▁major	-1609
sel	-1610
ames	-1611
▁Second	-1612
▁true	-1613
▁ten	-1614
▁bring	-1615
▁college	-1616
▁actually	-1617
▁inn	-1618
▁heart	-1619
▁tast	-1620
▁sci	-1621
▁finish	-1622
▁pur	-1623
▁head	-1624
▁miss	-1625
▁reactor	-1626
▁Many	-1627
sy	-1628
ortunately	-1629
anna	-1630
▁film	-1631
▁son	-1632
ha	-1633
htm	-1634
▁hair	-1635
ision	-1636
▁remember	-1637
▁def	-1638
ising	-1639
▁oper	-1640
ically	-1641
ery	-1642
▁concert	-1643
▁prop	-1644
▁move	-1645
ted	-1646
▁question	-1647
▁charact	-1648
by	-1649
▁dist	-1650
▁la	-1651
▁cre	-1652
ividual	-1653
▁weeks	-1654
▁park	-1655
▁Sept	-1656
▁Oct	-1657
▁club	-1658
▁priv	-1659
▁term	-1660
▁employ	-1661
▁known	-1662
ID	-1663
▁prom	-1664
side	-1665
yle	-1666
▁lost	-1667
▁partic	-1668
ustom	-1669
▁swim	-1670
▁wrong	-1671
▁Fr	-1672
book	-1673
▁hour	-1674
ines	-1675
▁ev	-1676
erv	-1677
▁least	-1678
▁individual	-1679
oh	-1680
▁aw	-1681
▁warm	-1682
▁reactors	-1683
▁VH	-1684
▁Acc	-1685
▁Gen	-1686
▁wanna	-1687
▁allow	-1688
▁current	-1689
▁cause	-1690
▁choose	-1691
usion	-1692
▁resp	-1693
▁needs	-1694
▁swe	-1695
▁wait	-1696
▁recomm	-1697
▁perform	-1698
ming	-1699
▁fall	-1700
ternational	-1701
▁VHTR	-1702
▁lesson	-1703
▁hosp	-1704
▁evening	-1705
▁benef	-1706
▁works	-1707
▁accident	-1708
fully	-1709
▁September	-1710
▁gradu	-1711
▁sign	-1712
ffe	-1713
▁amount	-1714
▁serious	-1715
▁answer	-1716
aly	-1717
▁spent	-1718
▁compet	-1719
asing	-1720
▁happened	-1721
▁japanese	-1722
lement	-1723
▁four	-1724
▁plac	-1725
cture	-1726
▁daily	-1727
artment	-1728
ctor	-1729
ught	-1730
▁lik	-1731
▁et	-1732
▁vide	-1733
▁organ	-1734
oun	-1735
▁Br	-1736
▁movies	-1737
▁tick	-1738
band	-1739
▁gram	-1740
g/	-1741
▁Somet	-1742
▁native	-1743
.com/	-1744
.htm	-1745
ality	-1746
▁price	-1747
▁event	-1748
aph	-1749
▁anim	-1750
▁succ	-1751
uly	-1752
▁expensive	-1753
▁increase	-1754
▁winter	-1755
▁consider	-1756
rain	-1757
▁sister	-1758
▁recommend	-1759
▁occ	-1760
▁form	-1761
line	-1762
▁fund	-1763
▁large	-1764
▁surprised	-1765
▁cut	-1766
▁innov	-1767
▁conversation	-1768
▁instead	-1769
▁website	-1770
▁sentence	-1771
▁studied	-1772
▁matter	-1773
▁activities	-1774
▁men	-1775
▁dog	-1776
▁dise	-1777
orry	-1778
▁hist	-1779
▁mail	-1780
▁De	-1781
▁low	-1782
▁sug	-1783
▁leave	-1784
rist	-1785
selves	-1786
▁easily	-1787
▁concern	-1788
▁members	-1789
▁attend	-1790
▁meeting	-1791
outh	-1792
fortable	-1793
▁&	-1794
▁learned	-1795
▁kid	-1796
ledge	-1797
ts	-1798
▁economic	-1799
aken	-1800
▁sports	-1801
udden	-1802
▁various	-1803
sib	-1804
▁success	-1805
where	-1806
▁advert	-1807
ffic	-1808
▁finally	-1809
ped	-1810
▁trou	-1811
ield	-1812
▁medical	-1813
▁send	-1814
▁light	-1815
▁bab	-1816
▁tre	-1817
▁relax	-1818
▁earthqu	-1819
▁Internet	-1820
▁cap	-1821
▁clear	-1822
▁however	-1823
▁contro	-1824
▁custom	-1825
▁mess	-1826
▁temperature	-1827
▁enc	-1828
▁Finally	-1829
ros	-1830
▁moment	-1831
▁Why	-1832
▁effic	-1833
▁generation	-1834
▁hus	-1835
▁prefer	-1836
▁woman	-1837
▁15	-1838
▁alone	-1839
ober	-1840
▁Aust	-1841
▁front	-1842
▁etc	-1843
duced	-1844
▁explain	-1845
▁opportun	-1846
▁Pe	-1847
▁Tai	-1848
▁ess	-1849
erc	-1850
▁delic	-1851
▁score	-1852
night	-1853
▁perfect	-1854
INK	-1855
itive	-1856
▁ann	-1857
▁dra	-1858
▁Moreover	-1859
▁hig	-1860
▁market	-1861
▁husband	-1862
PER	-1863
▁Ind	-1864
adays	-1865
sych	-1866
▁trad	-1867
reet	-1868
▁pot	-1869
▁Te	-1870
▁October	-1871
ging	-1872
▁fail	-1873
▁sat	-1874
▁const	-1875
▁entry	-1876
▁festival	-1877
uff	-1878
▁cars	-1879
▁HY	-1880
▁guess	-1881
▁necess	-1882
▁worked	-1883
▁service	-1884
▁mot	-1885
▁reasons	-1886
▁Pro	-1887
▁beh	-1888
lling	-1889
▁birthday	-1890
▁knowledge	-1891
med	-1892
PERL	-1893
PERLINK	-1894
▁journal	-1895
▁HYPERLINK	-1896
▁trying	-1897
▁}	-1898
▁forget	-1899
▁{	-1900
ional	-1901
▁fuel	-1902
▁waste	-1903
esides	-1904
▁side	-1905
iven	-1906
▁glad	-1907
FID	-1908
ism	-1909
▁ap	-1910
▁report	-1911
▁'re	-1912
▁eating	-1913
noon	-1914
▁From	-1915
▁five	-1916
▁_	-1917
ib	-1918
ush	-1919
ats	-1920
▁funny	-1921
▁disapp	-1922
▁America	-1923
▁Sp	-1924
▁languages	-1925
▁00	-1926
▁close	-1927
▁continue	-1928
ced	-1929
▁2008	-1930
▁products	-1931
lusion	-1932
▁brother	-1933
▁sky	-1934
▁compan	-1935
▁prevent	-1936
▁super	-1937
▁profess	-1938
uss	-1939
▁useful	-1940
▁Nuclear	-1941
▁ill	-1942
▁direct	-1943
▁places	-1944
▁natur	-1945
▁ability	-1946
▁areas	-1947
▁RFID	-1948
▁hospital	-1949
▁text	-1950
▁spring	-1951
▁engineering	-1952
▁station	-1953
▁technolog	-1954
▁depend	-1955
llo	-1956
▁common	-1957
raid	-1958
▁delicious	-1959
▁earthquake	-1960
iced	-1961
▁building	-1962
▁afternoon	-1963
▁heav	-1964
une	-1965
▁materi	-1966
ressed	-1967
ling	-1968
ondon	-1969
▁eff	-1970
▁No	-1971
▁bro	-1972
▁prepare	-1973
▁project	-1974
▁tot	-1975
▁article	-1976
ung	-1977
wan	-1978
vious	-1979
▁card	-1980
▁decide	-1981
▁*	-1982
▁fre	-1983
▁taken	-1984
ances	-1985
▁although	-1986
▁100	-1987
▁suggest	-1988
bably	-1989
▁chat	-1990
▁flu	-1991
▁foot	-1992
▁quick	-1993
▁held	-1994
▁arrived	-1995
▁dem	-1996
▁takes	-1997
▁imag	-1998
▁Austral	-1999
rible	-2000
▁outside	-2001
▁respon	-2002
ources	-2003
▁complete	-2004
▁effort	-2005
▁certain	-2006
uddenly	-2007
▁afraid	-2008
▁songs	-2009
▁sea	-2010
▁According	-2011
▁conclusion	-2012
ara	-2013
▁eyes	-2014
▁12	-2015
▁prot	-2016
▁wo	-2017
▁London	-2018
ged	-2019
▁Tom	-2020
▁ris	-2021
uge	-2022
▁worry	-2023
▁companies	-2024
▁tradition	-2025
orld	-2026
rences	-2027
anger	-2028
▁comes	-2029
▁economy	-2030
▁ple	-2031
aring	-2032
▁style	-2033
▁paper	-2034
▁bar	-2035
▁passed	-2036
▁meaning	-2037
▁University	-2038
▁Es	-2039
▁July	-2040
▁People	-2041
mar	-2042
▁Thus	-2043
▁radio	-2044
▁video	-2045
▁rather	-2046
▁Sometimes	-2047
▁self	-2048
earch	-2049
▁grand	-2050
▁looks	-2051
ze	-2052
care	-2053
oura	-2054
▁baby	-2055
▁step	-2056
friend	-2057
▁mag	-2058
▁sentences	-2059
▁val	-2060
▁waiting	-2061
▁Most	-2062
▁women	-2063
ilar	-2064
▁kinds	-2065
▁sorry	-2066
▁games	-2067
▁results	-2068
▁subject	-2069
iet	-2070
▁11	-2071
min	-2072
▁TOE	-2073
▁chin	-2074
ilities	-2075
▁pictures	-2076
▁ones	-2077
▁del	-2078
▁save	-2079
fortunately	-2080
▁wonderful	-2081
ffee	-2082
▁finan	-2083
▁return	-2084
ories	-2085
▁issue	-2086
▁treat	-2087
unk	-2088
▁tour	-2089
ential	-2090
▁arg	-2091
iction	-2092
ants	-2093
▁Well	-2094
▁exerc	-2095
▁older	-2096
▁excited	-2097
▁fire	-2098
▁rice	-2099
▁classes	-2100
▁questions	-2101
▁comfortable	-2102
▁tend	-2103
▁difference	-2104
ada	-2105
▁Christ	-2106
ears	-2107
▁becom	-2108
▁conven	-2109
ived	-2110
amed	-2111
▁mil	-2112
200	-2113
isf	-2114
ule	-2115
obal	-2116
▁transl	-2117
▁affect	-2118
ask	-2119
ins	-2120
▁cell	-2121
▁relations	-2122
mas	-2123
obile	-2124
aturday	-2125
▁ce	-2126
▁famil	-2127
▁lack	-2128
▁psych	-2129
▁strange	-2130
▁plants	-2131
▁attract	-2132
▁road	-2133
▁invest	-2134
man	-2135
▁forg	-2136
▁kill	-2137
▁communicate	-2138
▁hold	-2139
▁interview	-2140
▁electricity	-2141
▁Taiwan	-2142
IC	-2143
▁usual	-2144
▁provide	-2145
▁Ap	-2146
rely	-2147
▁dev	-2148
iving	-2149
dle	-2150
resh	-2151
▁ori	-2152
▁foods	-2153
aff	-2154
raph	-2155
▁norm	-2156
ands	-2157
ones	-2158
▁hur	-2159
▁above	-2160
▁introduce	-2161
▁necessary	-2162
▁Next	-2163
icies	-2164
▁huge	-2165
▁increasing	-2166
ah	-2167
gen	-2168
▁coffee	-2169
▁war	-2170
▁cra	-2171
▁201	-2172
▁running	-2173
aid	-2174
▁fine	-2175
urthermore	-2176
ee	-2177
acy	-2178
ril	-2179
ape	-2180
▁deal	-2181
▁history	-2182
tain	-2183
▁green	-2184
▁bur	-2185
▁pron	-2186
▁hotel	-2187
ciation	-2188
▁accept	-2189
▁exciting	-2190
▁field	-2191
▁lived	-2192
▁ach	-2193
▁invent	-2194
▁TH	-2195
▁cal	-2196
▁cam	-2197
▁higher	-2198
▁guy	-2199
▁ways	-2200
▁Ar	-2201
▁Hi	-2202
▁risk	-2203
ountain	-2204
▁workers	-2205
▁phot	-2206
▁advant	-2207
▁needed	-2208
allen	-2209
▁mistakes	-2210
▁nerv	-2211
▁voice	-2212
▁camp	-2213
▁defin	-2214
▁lov	-2215
▁surve	-2216
ron	-2217
ror	-2218
ible	-2219
▁stuff	-2220
▁natural	-2221
lu	-2222
▁er	-2223
ience	-2224
ding	-2225
▁anyone	-2226
▁Mon	-2227
▁teachers	-2228
▁realized	-2229
▁discuss	-2230
urs	-2231
▁simple	-2232
▁swimming	-2233
▁hob	-2234
atives	-2235
▁el	-2236
▁iP	-2237
▁Me	-2238
▁says	-2239
▁closed	-2240
ailable	-2241
▁character	-2242
▁equ	-2243
.or	-2244
oad	-2245
▁Besides	-2246
▁expected	-2247
▁among	-2248
▁against	-2249
ney	-2250
▁press	-2251
urity	-2252
time	-2253
▁tele	-2254
ony	-2255
ored	-2256
▁gone	-2257
tty	-2258
for	-2259
sia	-2260
ource	-2261
idents	-2262
▁clim	-2263
▁indust	-2264
▁encoura	-2265
▁stress	-2266
▁themselves	-2267
hod	-2268
▁nervous	-2269
▁safe	-2270
▁share	-2271
▁appre	-2272
▁contrib	-2273
▁testing	-2274
▁developed	-2275
brary	-2276
▁law	-2277
▁policies	-2278
▁advertise	-2279
▁Though	-2280
▁Furthermore	-2281
AN	-2282
▁limited	-2283
iding	-2284
illance	-2285
▁financial	-2286
▁heavy	-2287
▁except	-2288
▁pretty	-2289
▁X	-2290
▁solve	-2291
▁staff	-2292
sibility	-2293
ane	-2294
▁neg	-2295
▁agree	-2296
▁Ex	-2297
▁satisf	-2298
▁na	-2299
▁mach	-2300
▁weight	-2301
ator	-2302
▁reduce	-2303
▁mistake	-2304
ipp	-2305
▁Sund	-2306
▁Especially	-2307
▁relationship	-2308
▁suit	-2309
ON	-2310
ata	-2311
room	-2312
▁attention	-2313
▁creat	-2314
▁taste	-2315
oes	-2316
▁type	-2317
▁$	-2318
gress	-2319
▁exch	-2320
▁Com	-2321
▁given	-2322
▁method	-2323
▁training	-2324
▁seemed	-2325
▁boss	-2326
▁Eur	-2327
iter	-2328
▁Our	-2329
astic	-2330
▁Another	-2331
▁phys	-2332
▁purp	-2333
▁World	-2334
▁modern	-2335
▁2007	-2336
▁final	-2337
▁abs	-2338
▁deep	-2339
▁traditional	-2340
▁similar	-2341
iqu	-2342
▁memor	-2343
ude	-2344
▁foc	-2345
sian	-2346
icles	-2347
▁quickly	-2348
▁While	-2349
▁saying	-2350
▁protect	-2351
▁ta	-2352
▁goal	-2353
▁mobile	-2354
▁opportunity	-2355
▁six	-2356
▁walking	-2357
▁trouble	-2358
▁Secondly	-2359
▁IV	-2360
ying	-2361
eration	-2362
▁contact	-2363
▁Ph	-2364
▁cele	-2365
▁catch	-2366
ability	-2367
▁draw	-2368
▁kore	-2369
rench	-2370
ashion	-2371
▁red	-2372
▁line	-2373
▁pick	-2374
▁Sunday	-2375
▁mention	-2376
▁effective	-2377
▁vol	-2378
▁local	-2379
eriod	-2380
▁challen	-2381
▁mountain	-2382
.html	-2383
▁hate	-2384
▁Aug	-2385
ients	-2386
▁fish	-2387
▁kids	-2388
▁aff	-2389
▁regard	-2390
▁probably	-2391
▁hearing	-2392
▁won	-2393
▁boring	-2394
▁Firstly	-2395
▁disease	-2396
▁bath	-2397
.org/	-2398
▁born	-2399
▁vo	-2400
▁began	-2401
▁girls	-2402
▁amaz	-2403
▁compared	-2404
▁longer	-2405
▁blog	-2406
▁period	-2407
▁Ab	-2408
▁Ky	-2409
come	-2410
▁global	-2411
▁worried	-2412
rop	-2413
▁April	-2414
▁Yours	-2415
▁lose	-2416
ler	-2417
ined	-2418
▁Australia	-2419
▁track	-2420
▁forgot	-2421
▁helped	-2422
▁His	-2423
▁terrible	-2424
▁lab	-2425
▁ball	-2426
▁third	-2427
▁origin	-2428
▁account	-2429
▁suddenly	-2430
aka	-2431
▁dou	-2432
▁Hence	-2433
▁danger	-2434
▁slow	-2435
▁grammar	-2436
▁Before	-2437
▁middle	-2438
zy	-2439
▁PC	-2440
▁199	-2441
▁drinking	-2442
▁Z	-2443
▁deg	-2444
▁visited	-2445
▁engineers	-2446
▁choice	-2447
ma	-2448
▁state	-2449
▁street	-2450
▁homework	-2451
▁Saturday	-2452
▁Just	-2453
▁rainy	-2454
▁Europe	-2455
itiz	-2456
nis	-2457
orn	-2458
▁Germ	-2459
idence	-2460
▁including	-2461
▁cute	-2462
ots	-2463
▁boyfriend	-2464
▁appreci	-2465
▁communication	-2466
▁stayed	-2467
▁color	-2468
▁drama	-2469
▁manage	-2470
▁sick	-2471
illion	-2472
ization	-2473
▁Not	-2474
▁quality	-2475
▁fa	-2476
nect	-2477
▁speaker	-2478
▁international	-2479
sh	-2480
▁control	-2481
yd	-2482
▁national	-2483
▁available	-2484
ured	-2485
▁black	-2486
▁enter	-2487
▁doctor	-2488
ager	-2489
mb	-2490
▁base	-2491
▁sense	-2492
▁gas	-2493
▁further	-2494
▁private	-2495
▁Ad	-2496
▁guys	-2497
▁ticket	-2498
tle	-2499
▁March	-2500
▁respect	-2501
▁younger	-2502
▁shows	-2503
▁Refe	-2504
hib	-2505
▁sen	-2506
▁security	-2507
▁jun	-2508
▁soft	-2509
ograph	-2510
▁holidays	-2511
.g	-2512
▁benefits	-2513
▁couple	-2514
pd	-2515
cast	-2516
▁crow	-2517
▁seeing	-2518
atre	-2519
medi	-2520
▁log	-2521
utions	-2522
▁effici	-2523
▁bag	-2524
▁celebr	-2525
▁graduate	-2526
ji	-2527
▁moved	-2528
▁advertisement	-2529
s/	-2530
▁classm	-2531
orrow	-2532
▁Im	-2533
▁ang	-2534
ption	-2535
▁touch	-2536
▁personal	-2537
▁following	-2538
itting	-2539
▁issues	-2540
mber	-2541
▁goes	-2542
▁worse	-2543
▁performance	-2544
the	-2545
▁search	-2546
▁competition	-2547
▁USA	-2548
anced	-2549
▁member	-2550
▁Mr	-2551
ointed	-2552
AT	-2553
▁library	-2554
▁medic	-2555
▁sounds	-2556
ccer	-2557
▁Pat	-2558
▁compl	-2559
▁everybody	-2560
ables	-2561
▁poll	-2562
▁dest	-2563
▁helps	-2564
▁sus	-2565
▁science	-2566
▁received	-2567
itle	-2568
▁Have	-2569
▁connect	-2570
▁examination	-2571
▁Tw	-2572
ross	-2573
▁Oh	-2574
hone	-2575
▁wed	-2576
▁fresh	-2577
ges	-2578
▁healthcare	-2579
▁white	-2580
uth	-2581
▁Fe	-2582
▁appro	-2583
▁exist	-2584
▁influ	-2585
bo	-2586
ume	-2587
ither	-2588
▁tax	-2589
▁beginning	-2590
apt	-2591
▁suff	-2592
▁costs	-2593
▁August	-2594
▁nature	-2595
pdf	-2596
▁dam	-2597
▁healthy	-2598
▁2004	-2599
▁growth	-2600
▁leg	-2601
itical	-2602
▁citiz	-2603
▁clock	-2604
▁Christmas	-2605
ima	-2606
▁Cl	-2607
▁June	-2608
omed	-2609
▁brought	-2610
aki	-2611
▁mis	-2612
▁door	-2613
▁exercise	-2614
▁sight	-2615
▁aspect	-2616
▁caused	-2617
oid	-2618
▁hor	-2619
▁along	-2620
▁Thanks	-2621
▁focus	-2622
▁tea	-2623
▁resources	-2624
▁surveillance	-2625
▁>	-2626
▁fell	-2627
▁rate	-2628
▁hands	-2629
▁easier	-2630
▁thanks	-2631
ton	-2632
▁drive	-2633
▁applic	-2634
▁message	-2635
ami	-2636
▁thus	-2637
▁completely	-2638
▁Canada	-2639
▁secret	-2640
pite	-2641
▁sleeping	-2642
▁Os	-2643
▁tennis	-2644
▁weak	-2645
▁normal	-2646
cent	-2647
▁ste	-2648
▁wants	-2649
▁During	-2650
▁0	-2651
▁named	-2652
▁friendly	-2653
000	-2654
▁net	-2655
ental	-2656
istic	-2657
▁jobs	-2658
▁center	-2659
▁technologies	-2660
▁surf	-2661
▁wake	-2662
▁purpose	-2663
▁instance	-2664
▁topic	-2665
▁soccer	-2666
phone	-2667
▁mine	-2668
awa	-2669
▁novel	-2670
▁window	-2671
▁solution	-2672
EN	-2673
▁14	-2674
hern	-2675
▁Rus	-2676
right	-2677
▁beer	-2678
▁stage	-2679
▁junior	-2680
▁player	-2681
▁50	-2682
▁recent	-2683
ural	-2684
▁est	-2685
▁camer	-2686
cab	-2687
ken	-2688
▁Go	-2689
irement	-2690
▁chinese	-2691
▁progress	-2692
▁colleag	-2693
▁related	-2694
▁Hello	-2695
▁musical	-2696
▁Pl	-2697
▁Day	-2698
▁gon	-2699
▁TOEIC	-2700
▁painting	-2701
▁planning	-2702
▁totally	-2703
▁cooking	-2704
▁developing	-2705
uri	-2706
▁ens	-2707
anish	-2708
▁shops	-2709
▁keeping	-2710
▁Con	-2711
▁2005	-2712
▁dance	-2713
▁doll	-2714
.gov	-2715
▁particip	-2716
aps	-2717
ached	-2718
▁Engl	-2719
▁repl	-2720
▁sweet	-2721
▁noticed	-2722
▁don	-2723
enced	-2724
▁grade	-2725
sequ	-2726
▁belong	-2727
▁online	-2728
irt	-2729
▁box	-2730
▁typ	-2731
▁ideas	-2732
▁inside	-2733
▁factors	-2734
▁space	-2735
▁Unfortunately	-2736
▁13	-2737
▁Her	-2738
▁18	-2739
▁bask	-2740
▁adult	-2741
▁cake	-2742
▁relatives	-2743
▁toward	-2744
▁amazing	-2745
▁Tomorrow	-2746
int	-2747
mat	-2748
ache	-2749
▁Let	-2750
▁apply	-2751
▁pleas	-2752
iver	-2753
▁role	-2754
▁access	-2755
useum	-2756
▁Kyoto	-2757
▁limit	-2758
▁shock	-2759
▁French	-2760
▁realize	-2761
co	-2762
▁cry	-2763
▁task	-2764
▁football	-2765
▁key	-2766
▁positive	-2767
▁implement	-2768
▁particular	-2769
ples	-2770
▁master	-2771
▁cher	-2772
▁vocab	-2773
▁diction	-2774
▁exchange	-2775
cu	-2776
▁25	-2777
rate	-2778
▁liked	-2779
yl	-2780
▁cir	-2781
▁scient	-2782
▁fashion	-2783
▁pie	-2784
▁hous	-2785
ech	-2786
hood	-2787
▁imagine	-2788
iy	-2789
ned	-2790
itely	-2791
etball	-2792
▁tonight	-2793
rast	-2794
obody	-2795
▁speed	-2796
▁married	-2797
set	-2798
▁driving	-2799
▁Nowadays	-2800
▁materials	-2801
ises	-2802
▁lat	-2803
▁desc	-2804
▁dead	-2805
▁continu	-2806
▁position	-2807
ucky	-2808
▁par	-2809
▁exact	-2810
▁complain	-2811
▁teaching	-2812
▁16	-2813
▁veget	-2814
▁signific	-2815
▁Des	-2816
▁rele	-2817
▁sell	-2818
ieved	-2819
▁till	-2820
bit	-2821
▁hit	-2822
▁Mich	-2823
▁flow	-2824
▁photo	-2825
▁series	-2826
▁ease	-2827
▁angry	-2828
▁invol	-2829
▁stopped	-2830
ury	-2831
▁band	-2832
▁consum	-2833
▁traffic	-2834
▁Q	-2835
ogn	-2836
▁z	-2837
▁Gr	-2838
▁previous	-2839
▁therefore	-2840
▁bat	-2841
aving	-2842
▁land	-2843
▁supposed	-2844
▁presentation	-2845
▁Monday	-2846
▁immedi	-2847
▁constru	-2848
▁record	-2849
rance	-2850
▁hobby	-2851
.s	-2852
ift	-2853
▁floor	-2854
▁policy	-2855
▁wall	-2856
ique	-2857
▁worth	-2858
▁wedding	-2859
30	-2860
ilt	-2861
▁adm	-2862
▁lessons	-2863
AR	-2864
▁broken	-2865
▁joined	-2866
▁achieve	-2867
▁DV	-2868
▁fig	-2869
▁host	-2870
▁activity	-2871
▁hon	-2872
▁Osaka	-2873
▁DVD	-2874
▁crowd	-2875
▁fight	-2876
▁points	-2877
▁turned	-2878
fast	-2879
▁Comp	-2880
▁woke	-2881
▁Or	-2882
imin	-2883
▁cheap	-2884
▁proper	-2885
▁Ok	-2886
omeday	-2887
▁Friday	-2888
ex	-2889
▁create	-2890
ocol	-2891
▁theatre	-2892
▁pressure	-2893
▁bicy	-2894
▁drop	-2895
▁receive	-2896
oms	-2897
▁Le	-2898
▁yen	-2899
▁fat	-2900
▁advice	-2901
ym	-2902
▁ur	-2903
▁Res	-2904
▁sold	-2905
▁discount	-2906
▁likes	-2907
els	-2908
▁<	-2909
ump	-2910
▁laz	-2911
▁kept	-2912
▁concent	-2913
.pdf	-2914
▁Min	-2915
▁memory	-2916
▁decision	-2917
▁2006	-2918
▁star	-2919
▁appreciate	-2920
▁innovation	-2921
▁disappointed	-2922
iar	-2923
▁actor	-2924
▁disaster	-2925
▁sca	-2926
▁impress	-2927
▁newsp	-2928
▁sched	-2929
▁Am	-2930
▁cup	-2931
▁gain	-2932
orth	-2933
▁About	-2934
▁Us	-2935
▁within	-2936
▁bot	-2937
▁homet	-2938
▁remain	-2939
▁sleepy	-2940
▁drunk	-2941
ube	-2942
aged	-2943
itude	-2944
▁brain	-2945
gg	-2946
▁THE	-2947
▁trave	-2948
ules	-2949
▁dont	-2950
▁staying	-2951
za	-2952
▁hometown	-2953
▁significant	-2954
▁occur	-2955
▁reach	-2956
▁foreigners	-2957
ael	-2958
▁ok	-2959
▁sn	-2960
vant	-2961
▁ice	-2962
▁truth	-2963
yc	-2964
por	-2965
ighb	-2966
▁meal	-2967
ration	-2968
▁carry	-2969
▁detail	-2970
enty	-2971
▁saving	-2972
▁atm	-2973
▁motiv	-2974
▁shoes	-2975
▁entrance	-2976
▁dictionary	-2977
▁hang	-2978
▁climb	-2979
▁source	-2980
▁Are	-2981
▁cafe	-2982
▁heat	-2983
ission	-2984
▁death	-2985
▁essay	-2986
-c	-2987
▁non	-2988
▁Brit	-2989
▁table	-2990
▁beach	-2991
▁prepared	-2992
▁accidents	-2993
arc	-2994
▁offic	-2995
▁element	-2996
▁bud	-2997
▁animals	-2998
arden	-2999
itter	-3000
ivity	-3001
works	-3002
▁wide	-3003
▁psychology	-3004
▁United	-3005
iety	-3006
▁convenient	-3007
▁favour	-3008
▁lower	-3009
▁taught	-3010
▁improved	-3011
oul	-3012
▁phr	-3013
▁emot	-3014
▁recogn	-3015
▁bank	-3016
▁basic	-3017
▁smile	-3018
▁advance	-3019
▁basketball	-3020
umn	-3021
▁instru	-3022
▁pronun	-3023
mark	-3024
▁breakfast	-3025
▁crazy	-3026
▁atmosp	-3027
▁efficiency	-3028
aves	-3029
▁dangerous	-3030
▁avoid	-3031
▁changes	-3032
▁contain	-3033
▁ride	-3034
▁blood	-3035
▁concept	-3036
▁References	-3037
▁17	-3038
▁improving	-3039
▁department	-3040
▁Generation	-3041
▁rob	-3042
▁ident	-3043
alif	-3044
▁decre	-3045
▁according	-3046
▁fix	-3047
▁mass	-3048
vision	-3049
▁based	-3050
▁exce	-3051
▁rent	-3052
▁impact	-3053
▁transportation	-3054
▁exams	-3055
▁definitely	-3056
▁volun	-3057
ison	-3058
▁neighb	-3059
▁Sum	-3060
aked	-3061
load	-3062
▁oil	-3063
▁harder	-3064
acks	-3065
▁Mar	-3066
▁medicine	-3067
▁mentioned	-3068
▁International	-3069
▁dark	-3070
▁else	-3071
▁tool	-3072
▁camera	-3073
▁percent	-3074
▁laugh	-3075
▁chocol	-3076
▁collect	-3077
▁National	-3078
▁foreigner	-3079
▁Sky	-3080
▁senior	-3081
ina	-3082
lled	-3083
▁Har	-3084
▁Inst	-3085
▁assist	-3086
▁notice	-3087
chnology	-3088
ires	-3089
uses	-3090
▁Cent	-3091
▁blue	-3092
▁reve	-3093
▁industry	-3094
▁privacy	-3095
lier	-3096
▁date	-3097
▁doub	-3098
▁Michael	-3099
▁changing	-3100
▁families	-3101
▁Jan	-3102
▁sem	-3103
itary	-3104
▁apartment	-3105
cer	-3106
ians	-3107
OU	-3108
▁vi	-3109
ulary	-3110
ana	-3111
actor	-3112
iation	-3113
▁opened	-3114
▁worker	-3115
▁nowadays	-3116
▁luck	-3117
▁biggest	-3118
▁starting	-3119
ode	-3120
▁bloss	-3121
▁speech	-3122
▁community	-3123
▁spec	-3124
▁located	-3125
▁cere	-3126
ground	-3127
▁broad	-3128
▁cherry	-3129
ady	-3130
▁Stud	-3131
▁match	-3132
▁singing	-3133
▁citizens	-3134
rew	-3135
like	-3136
▁magaz	-3137
▁island	-3138
▁Here	-3139
▁negative	-3140
▁po	-3141
▁bicycle	-3142
ancing	-3143
▁title	-3144
lfriend	-3145
▁walked	-3146
▁feature	-3147
IS	-3148
ey	-3149
iling	-3150
▁afford	-3151
▁somebody	-3152
ublic	-3153
▁appl	-3154
▁machine	-3155
▁retirement	-3156
gle	-3157
cious	-3158
▁harm	-3159
▁action	-3160
AS	-3161
▁aim	-3162
▁Year	-3163
▁nood	-3164
▁active	-3165
▁police	-3166
▁produce	-3167
▁baseball	-3168
▁pack	-3169
▁veh	-3170
▁glass	-3171
▁benefit	-3172
nam	-3173
urance	-3174
▁+	-3175
▁meas	-3176
▁demand	-3177
ES	-3178
OR	-3179
days	-3180
▁paid	-3181
idered	-3182
▁degree	-3183
▁23	-3184
ware	-3185
▁anymore	-3186
▁schools	-3187
▁atmosphere	-3188
board	-3189
▁behav	-3190
▁extre	-3191
▁gives	-3192
▁ageing	-3193
aim	-3194
eth	-3195
▁rich	-3196
▁patient	-3197
▁physical	-3198
phoon	-3199
▁lazy	-3200
▁rock	-3201
▁prin	-3202
▁patients	-3203
▁introduced	-3204
atory	-3205
▁auth	-3206
duction	-3207
▁general	-3208
▁girlfriend	-3209
▁Other	-3210
▁remind	-3211
▁size	-3212
▁lucky	-3213
▁dishes	-3214
▁speakers	-3215
ites	-3216
▁cab	-3217
▁mood	-3218
▁hardly	-3219
▁regret	-3220
▁reveal	-3221
▁immediately	-3222
▁smart	-3223
▁appear	-3224
▁enjoyable	-3225
▁confidence	-3226
▁arm	-3227
▁pronunciation	-3228
▁impos	-3229
▁showed	-3230
▁aud	-3231
▁either	-3232
let	-3233
ooled	-3234
▁vers	-3235
ference	-3236
▁considered	-3237
FR	-3238
▁built	-3239
▁terms	-3240
▁tickets	-3241
▁pet	-3242
▁require	-3243
adem	-3244
ycle	-3245
alent	-3246
▁fant	-3247
▁rules	-3248
▁anyway	-3249
▁helping	-3250
▁peace	-3251
osition	-3252
▁cities	-3253
▁suitable	-3254
▁ensure	-3255
▁effects	-3256
▁feelings	-3257
▁mix	-3258
▁reply	-3259
▁single	-3260
▁someday	-3261
▁listened	-3262
▁growing	-3263
rier	-3264
▁parts	-3265
ification	-3266
▁favourite	-3267
▁potential	-3268
▁hop	-3269
▁garden	-3270
▁becomes	-3271
▁stories	-3272
bs	-3273
▁scen	-3274
▁offer	-3275
▁slept	-3276
▁likely	-3277
▁port	-3278
▁nobody	-3279
▁yourself	-3280
▁travelling	-3281
▁Med	-3282
▁hurt	-3283
▁ground	-3284
▁standard	-3285
▁40	-3286
▁bal	-3287
ducing	-3288
▁raining	-3289
▁smok	-3290
▁England	-3291
istry	-3292
▁appe	-3293
▁river	-3294
▁twice	-3295
▁original	-3296
▁sincerely	-3297
▁UK	-3298
aries	-3299
▁stat	-3300
▁chose	-3301
▁Dis	-3302
▁Hope	-3303
▁required	-3304
eed	-3305
▁lif	-3306
aptop	-3307
▁mainly	-3308
▁increased	-3309
▁wondering	-3310
nes	-3311
▁God	-3312
▁Pet	-3313
mp	-3314
▁id	-3315
▁haha	-3316
▁argue	-3317
▁earlier	-3318
▁advantages	-3319
uku	-3320
itar	-3321
▁Dan	-3322
▁sunny	-3323
▁individuals	-3324
ees	-3325
▁smell	-3326
eng	-3327
▁egg	-3328
▁fan	-3329
▁fru	-3330
▁events	-3331
▁fill	-3332
mony	-3333
▁hom	-3334
▁bike	-3335
▁pool	-3336
▁volunte	-3337
▁enjoying	-3338
▁maintain	-3339
▁experiences	-3340
▁ready	-3341
▁becoming	-3342
▁hun	-3343
osing	-3344
▁services	-3345
50	-3346
▁died	-3347
fecture	-3348
par	-3349
▁Pr	-3350
.sg/	-3351
ydro	-3352
▁note	-3353
▁programs	-3354
▁happiness	-3355
▁21	-3356
▁extreme	-3357
▁facilities	-3358
coh	-3359
▁thous	-3360
▁korean	-3361
▁exactly	-3362
▁gym	-3363
inary	-3364
▁behind	-3365
▁satisfied	-3366
de	-3367
apers	-3368
▁page	-3369
▁moving	-3370
▁nation	-3371
▁request	-3372
▁somewhere	-3373
active	-3374
▁funds	-3375
▁select	-3376
fficient	-3377
▁Everyone	-3378
ulation	-3379
▁laptop	-3380
▁Spanish	-3381
▁expression	-3382
ole	-3383
▁Yes	-3384
▁Good	-3385
▁sales	-3386
▁tough	-3387
▁burden	-3388
▁museum	-3389
▁created	-3390
▁solutions	-3391
▁giving	-3392
▁honest	-3393
.d	-3394
ips	-3395
▁argu	-3396
▁..	-3397
▁classmates	-3398
▁scene	-3399
▁relative	-3400
▁impossible	-3401
▁vocabulary	-3402
▁ele	-3403
ators	-3404
hernob	-3405
▁Could	-3406
▁Never	-3407
▁rap	-3408
ief	-3409
10	-3410
▁earn	-3411
▁loved	-3412
▁Feb	-3413
▁hung	-3414
▁stra	-3415
erve	-3416
lish	-3417
▁2000	-3418
▁lecture	-3419
▁24	-3420
itted	-3421
▁item	-3422
▁iPhone	-3423
▁regular	-3424
▁fit	-3425
▁goods	-3426
▁photos	-3427
▁systems	-3428
ronic	-3429
go	-3430
uary	-3431
▁surprise	-3432
▁elementary	-3433
▁Skype	-3434
theless	-3435
▁Tr	-3436
iled	-3437
▁caught	-3438
hernobyl	-3439
▁airport	-3440
▁million	-3441
▁Man	-3442
▁fly	-3443
▁cream	-3444
▁faith	-3445
▁Energy	-3446
▁confused	-3447
▁emb	-3448
▁characters	-3449
AM	-3450
itor	-3451
▁race	-3452
▁mel	-3453
▁South	-3454
▁bread	-3455
▁image	-3456
▁author	-3457
▁wearing	-3458
▁pian	-3459
atever	-3460
wh	-3461
eing	-3462
▁App	-3463
▁starts	-3464
▁material	-3465
▁efficient	-3466
▁encourage	-3467
▁treatment	-3468
▁Comm	-3469
▁subs	-3470
▁comment	-3471
irty	-3472
▁prize	-3473
▁determ	-3474
▁Bl	-3475
▁claim	-3476
▁knows	-3477
▁Pol	-3478
▁alcoh	-3479
▁frequ	-3480
▁guitar	-3481
▁checked	-3482
▁schedule	-3483
▁Fortunately	-3484
▁figure	-3485
▁importance	-3486
▁responsibility	-3487
rim	-3488
alian	-3489
▁soup	-3490
verage	-3491
▁whose	-3492
▁budget	-3493
▁professional	-3494
oom	-3495
atic	-3496
itic	-3497
stand	-3498
▁customers	-3499
▁newspaper	-3500
to	-3501
ceed	-3502
▁below	-3503
▁careful	-3504
▁diseases	-3505
▁chocolate	-3506
▁production	-3507
ply	-3508
▁exper	-3509
▁buying	-3510
▁excell	-3511
▁ceremony	-3512
▁military	-3513
▁Nag	-3514
iture	-3515
ald	-3516
pro	-3517
ended	-3518
▁docu	-3519
estern	-3520
▁trees	-3521
▁typhoon	-3522
▁concerned	-3523
▁pollution	-3524
▁television	-3525
▁198	-3526
overed	-3527
▁bored	-3528
ological	-3529
▁allowed	-3530
ify	-3531
▁Su	-3532
haps	-3533
▁wet	-3534
ydrogen	-3535
▁Two	-3536
▁gra	-3537
years	-3538
▁surv	-3539
▁States	-3540
▁faster	-3541
▁cheaper	-3542
▁himself	-3543
▁function	-3544
▁innovations	-3545
iry	-3546
hest	-3547
▁coun	-3548
uted	-3549
▁York	-3550
▁Your	-3551
appy	-3552
▁German	-3553
olute	-3554
▁extra	-3555
▁crowded	-3556
▁essential	-3557
▁operation	-3558
▁Calif	-3559
▁throw	-3560
▁clearly	-3561
▁funding	-3562
ox	-3563
▁Kim	-3564
▁pan	-3565
▁ran	-3566
ading	-3567
ornia	-3568
▁plays	-3569
▁object	-3570
▁application	-3571
▁aware	-3572
▁British	-3573
▁alcohol	-3574
oph	-3575
▁die	-3576
▁singer	-3577
▁flowers	-3578
▁researc	-3579
▁semester	-3580
ef	-3581
▁Its	-3582
▁studies	-3583
▁advantage	-3584
rest	-3585
▁Sir	-3586
▁'t	-3587
▁email	-3588
▁altern	-3589
▁math	-3590
▁consequ	-3591
▁include	-3592
istics	-3593
▁experienced	-3594
▁Ry	-3595
▁announ	-3596
IT	-3597
ij	-3598
airs	-3599
▁meat	-3600
▁dress	-3601
▁excellent	-3602
EL	-3603
upid	-3604
▁arr	-3605
▁OK	-3606
▁understood	-3607
▁sil	-3608
izing	-3609
▁cloud	-3610
▁willing	-3611
▁Mad	-3612
▁tur	-3613
▁2003	-3614
▁media	-3615
how	-3616
▁California	-3617
▁esc	-3618
ishes	-3619
▁hund	-3620
▁challenge	-3621
▁IT	-3622
▁stru	-3623
cl	-3624
arb	-3625
▁Very	-3626
▁graduated	-3627
▁obl	-3628
usted	-3629
▁Their	-3630
▁Reactor	-3631
▁preparing	-3632
▁Sci	-3633
▁god	-3634
▁Only	-3635
▁annoy	-3636
▁helpful	-3637
ura	-3638
▁22	-3639
▁drank	-3640
▁cheer	-3641
▁customer	-3642
▁eye	-3643
▁pen	-3644
uesday	-3645
▁experim	-3646
na	-3647
▁div	-3648
epend	-3649
gency	-3650
▁milk	-3651
▁overse	-3652
▁review	-3653
▁specific	-3654
▁possibility	-3655
▁diet	-3656
▁hall	-3657
▁processes	-3658
▁stupid	-3659
▁entered	-3660
▁impressed	-3661
erg	-3662
▁warming	-3663
▁Chernobyl	-3664
15	-3665
itc	-3666
ified	-3667
▁distance	-3668
▁professor	-3669
▁supermark	-3670
▁imm	-3671
▁pray	-3672
▁equip	-3673
▁advanced	-3674
ashi	-3675
leep	-3676
▁accom	-3677
▁buildings	-3678
▁management	-3679
▁prefecture	-3680
▁Once	-3681
▁data	-3682
▁sens	-3683
▁Third	-3684
▁sushi	-3685
▁users	-3686
.n	-3687
▁lol	-3688
▁autom	-3689
lly	-3690
▁Spe	-3691
▁ant	-3692
round	-3693
▁troub	-3694
▁income	-3695
▁aspects	-3696
▁Per	-3697
▁cop	-3698
▁lic	-3699
▁Over	-3700
▁piano	-3701
▁tests	-3702
sit	-3703
▁CD	-3704
▁ut	-3705
▁loud	-3706
▁cases	-3707
▁doubt	-3708
▁strongly	-3709
▁vegetables	-3710
key	-3711
▁quit	-3712
mon	-3713
gery	-3714
▁habit	-3715
▁academ	-3716
▁charge	-3717
▁Technology	-3718
erson	-3719
▁Summer	-3720
▁failed	-3721
▁persons	-3722
ners	-3723
ters	-3724
▁fear	-3725
▁sitting	-3726
▁fluently	-3727
een	-3728
▁1st	-3729
cember	-3730
▁circ	-3731
▁gets	-3732
▁cooked	-3733
▁hundred	-3734
▁software	-3735
▁employees	-3736
▁construction	-3737
▁Viet	-3738
▁rapid	-3739
▁towards	-3740
▁fantastic	-3741
▁cru	-3742
force	-3743
overy	-3744
▁chick	-3745
▁minim	-3746
▁career	-3747
▁itself	-3748
▁terror	-3749
▁released	-3750
▁pm	-3751
wise	-3752
▁welf	-3753
▁hello	-3754
▁oblig	-3755
▁Sa	-3756
▁enh	-3757
▁France	-3758
▁disord	-3759
▁scared	-3760
▁absolute	-3761
▁Hel	-3762
▁n.d	-3763
▁unf	-3764
▁wel	-3765
itute	-3766
▁chem	-3767
▁highly	-3768
▁welfare	-3769
val	-3770
▁cow	-3771
▁bird	-3772
▁comb	-3773
▁Engine	-3774
▁driver	-3775
▁insurance	-3776
▁traveling	-3777
▁successful	-3778
▁Sw	-3779
▁worst	-3780
▁efforts	-3781
▁version	-3782
▁sometime	-3783
▁entertain	-3784
▁SC	-3785
▁opt	-3786
ority	-3787
under	-3788
▁emer	-3789
▁exha	-3790
▁stars	-3791
▁obs	-3792
▁viol	-3793
▁complic	-3794
▁ordered	-3795
▁stom	-3796
tery	-3797
advant	-3798
▁Danny	-3799
▁labor	-3800
▁descri	-3801
▁January	-3802
▁invited	-3803
WR	-3804
eric	-3805
▁fort	-3806
▁gift	-3807
▁Brook	-3808
▁hesit	-3809
▁Mac	-3810
ously	-3811
▁Hong	-3812
▁vict	-3813
▁corrected	-3814
▁graduation	-3815
using	-3816
▁liter	-3817
▁articles	-3818
oken	-3819
ography	-3820
▁unique	-3821
▁Nevertheless	-3822
ano	-3823
urch	-3824
▁calm	-3825
▁situ	-3826
▁India	-3827
▁dairy	-3828
▁fever	-3829
▁concentrate	-3830
ially	-3831
wered	-3832
▁separ	-3833
▁latest	-3834
▁midnight	-3835
▁High	-3836
▁sort	-3837
▁theater	-3838
▁inj	-3839
▁rev	-3840
aches	-3841
▁reci	-3842
▁solar	-3843
▁Butler	-3844
▁capital	-3845
▁illness	-3846
ev	-3847
ades	-3848
▁tar	-3849
antly	-3850
▁dram	-3851
▁uses	-3852
▁quiet	-3853
▁seven	-3854
▁types	-3855
pm	-3856
▁ir	-3857
▁fair	-3858
▁skin	-3859
▁Usually	-3860
▁attitude	-3861
▁radioactive	-3862
FL	-3863
play	-3864
▁ver	-3865
ctors	-3866
▁curry	-3867
▁bigger	-3868
▁spread	-3869
▁address	-3870
▁extremely	-3871
ING	-3872
▁fee	-3873
ining	-3874
▁skype	-3875
▁entries	-3876
▁gradually	-3877
irm	-3878
▁shr	-3879
ctions	-3880
▁Those	-3881
▁lovely	-3882
▁produced	-3883
▁conditions	-3884
▁...	-3885
▁Rob	-3886
▁gold	-3887
▁ther	-3888
ension	-3889
▁value	-3890
▁governments	-3891
▁understanding	-3892
▁Sur	-3893
▁Does	-3894
▁tree	-3895
▁Festival	-3896
▁surround	-3897
▁everywhere	-3898
▁convenience	-3899
li	-3900
▁2010	-3901
▁desk	-3902
▁seat	-3903
▁flight	-3904
▁screen	-3905
ec	-3906
▁Af	-3907
▁restaurants	-3908
arr	-3909
▁cris	-3910
▁total	-3911
▁answered	-3912
▁attended	-3913
▁Face	-3914
▁moon	-3915
▁factor	-3916
▁December	-3917
▁colleagues	-3918
illy	-3919
▁Wed	-3920
nesday	-3921
▁piece	-3922
▁je	-3923
▁sche	-3924
▁marri	-3925
▁relig	-3926
▁Health	-3927
▁stores	-3928
▁players	-3929
▁whenever	-3930
EC	-3931
▁loss	-3932
▁pred	-3933
▁autumn	-3934
▁regist	-3935
▁Italian	-3936
▁hydrogen	-3937
▁pleasure	-3938
▁computers	-3939
▁differences	-3940
isure	-3941
itics	-3942
ustain	-3943
▁simply	-3944
▁confident	-3945
anga	-3946
ooth	-3947
▁attack	-3948
ED	-3949
▁Gu	-3950
▁Sy	-3951
2009	-3952
ancy	-3953
oogle	-3954
ossil	-3955
▁happens	-3956
▁familiar	-3957
▁magazine	-3958
▁seriously	-3959
▁deb	-3960
▁acqu	-3961
▁flat	-3962
▁killed	-3963
▁whatever	-3964
▁technological	-3965
AL	-3966
af	-3967
ih	-3968
▁brow	-3969
▁rule	-3970
▁Which	-3971
▁mouth	-3972
▁plans	-3973
▁finding	-3974
▁difficulty	-3975
uts	-3976
▁yell	-3977
▁leaves	-3978
▁CP	-3979
▁bra	-3980
▁bill	-3981
▁stick	-3982
▁nearly	-3983
▁Russian	-3984
emperature	-3985
▁MS	-3986
▁kn	-3987
▁wine	-3988
▁houses	-3989
▁dogs	-3990
▁spir	-3991
▁force	-3992
▁approp	-3993
▁intern	-3994
lished	-3995
▁stren	-3996
▁stomach	-3997
▁anywhere	-3998
▁comments	-3999
▁discover	-4000
▁influence	-4001
▁Tuesday	-4002
▁manager	-4003
▁opportunities	-4004
▁BB	-4005
rict	-4006
▁subt	-4007
▁motor	-4008
▁Ear	-4009
uf	-4010
icing	-4011
▁causes	-4012
▁conduct	-4013
▁variety	-4014
▁textbook	-4015
▁faithfully	-4016
lla	-4017
ster	-4018
▁cast	-4019
▁cancer	-4020
nce	-4021
▁Sc	-4022
oe	-4023
▁ep	-4024
▁Phil	-4025
▁beat	-4026
▁eight	-4027
▁contribute	-4028
unt	-4029
▁Who	-4030
▁mic	-4031
riate	-4032
▁vill	-4033
▁Public	-4034
▁aid	-4035
▁damage	-4036
▁lately	-4037
▁applied	-4038
▁century	-4039
▁smoking	-4040
▁designed	-4041
20	-4042
idge	-4043
▁board	-4044
▁hungry	-4045
▁salary	-4046
▁Genetic	-4047
▁leaving	-4048
▁neighbor	-4049
▁disadvant	-4050
uz	-4051
uce	-4052
▁ign	-4053
▁weap	-4054
▁korea	-4055
nuclear	-4056
▁beauty	-4057
▁Despite	-4058
▁install	-4059
▁shocked	-4060
▁ourselves	-4061
▁sex	-4062
▁arch	-4063
▁cover	-4064
▁spoke	-4065
▁commer	-4066
▁programme	-4067
▁dig	-4068
▁dish	-4069
▁anime	-4070
▁dancing	-4071
▁writting	-4072
▁Car	-4073
ruary	-4074
resent	-4075
▁Germany	-4076
▁subjects	-4077
▁environmental	-4078
/p	-4079
xic	-4080
▁Mal	-4081
▁despite	-4082
▁unfortunately	-4083
▁anx	-4084
▁asso	-4085
▁arrive	-4086
bon	-4087
mes	-4088
▁tag	-4089
rated	-4090
▁farm	-4091
▁whom	-4092
onents	-4093
olution	-4094
iny	-4095
▁jud	-4096
▁conv	-4097
▁independ	-4098
▁60	-4099
▁beg	-4100
▁suc	-4101
▁boys	-4102
▁films	-4103
▁flower	-4104
▁involved	-4105
▁provided	-4106
▁user	-4107
ailand	-4108
/0	-4109
▁45	-4110
▁fossil	-4111
▁memories	-4112
▁volunteer	-4113
▁attractive	-4114
.S	-4115
ows	-4116
edia	-4117
itch	-4118
▁sand	-4119
▁crisis	-4120
▁suffering	-4121
ale	-4122
duces	-4123
▁lone	-4124
▁loves	-4125
▁convent	-4126
▁directly	-4127
▁broadcast	-4128
▁celebrate	-4129
▁x	-4130
▁Pre	-4131
bered	-4132
-cooled	-4133
▁minute	-4134
▁spoken	-4135
▁subsid	-4136
▁bi	-4137
▁dry	-4138
▁jog	-4139
▁SCWR	-4140
▁TOEFL	-4141
▁shape	-4142
omen	-4143
▁mult	-4144
▁plane	-4145
▁target	-4146
▁behavior	-4147
cel	-4148
▁squ	-4149
▁seek	-4150
▁breat	-4151
▁proud	-4152
▁groups	-4153
▁topics	-4154
▁sustain	-4155
ps	-4156
▁fing	-4157
▁obvious	-4158
▁surgery	-4159
▁thoughts	-4160
▁motivation	-4161
lex	-4162
▁thes	-4163
▁usage	-4164
▁accent	-4165
▁threat	-4166
hibition	-4167
▁Facebook	-4168
▁happening	-4169
asp	-4170
▁Camp	-4171
▁Three	-4172
▁slowly	-4173
uy	-4174
amb	-4175
amen	-4176
ateg	-4177
▁shy	-4178
▁curi	-4179
rastru	-4180
▁model	-4181
▁former	-4182
▁average	-4183
▁dollars	-4184
▁network	-4185
▁appeared	-4186
▁radiation	-4187
▁Both	-4188
▁clos	-4189
▁drawing	-4190
▁absolutely	-4191
▁improvement	-4192
asc	-4193
hers	-4194
▁bow	-4195
▁fif	-4196
itchen	-4197
▁shown	-4198
▁noodle	-4199
▁carrier	-4200
▁content	-4201
▁troubles	-4202
▁childhood	-4203
▁translate	-4204
-s	-4205
pring	-4206
▁cand	-4207
itable	-4208
▁reality	-4209
▁section	-4210
▁ordinary	-4211
US	-4212
rees	-4213
▁ended	-4214
▁assign	-4215
▁failure	-4216
▁carefully	-4217
ET	-4218
rd	-4219
▁rid	-4220
▁valu	-4221
▁Asian	-4222
▁gather	-4223
▁surfing	-4224
▁February	-4225
bow	-4226
▁AN	-4227
▁Int	-4228
▁remem	-4229
▁bright	-4230
▁suffer	-4231
▁pleased	-4232
oof	-4233
ship	-4234
▁Joh	-4235
▁cart	-4236
ession	-4237
▁mental	-4238
▁impression	-4239
▁dom	-4240
ourses	-4241
▁fried	-4242
▁forever	-4243
▁partner	-4244
▁headache	-4245
▁animation	-4246
ita	-4247
▁broke	-4248
▁allows	-4249
▁smooth	-4250
▁pronoun	-4251
▁Asia	-4252
▁fema	-4253
▁nose	-4254
▁prim	-4255
▁Italy	-4256
▁Where	-4257
▁chatting	-4258
▁cleaning	-4259
▁engineer	-4260
▁overcome	-4261
iant	-4262
▁dad	-4263
▁und	-4264
light	-4265
▁upset	-4266
▁Almost	-4267
▁deeply	-4268
▁destro	-4269
▁female	-4270
▁lonely	-4271
▁chicken	-4272
▁reduced	-4273
▁affected	-4274
▁visiting	-4275
▁colleague	-4276
att	-4277
edu	-4278
▁across	-4279
▁dreams	-4280
▁phrase	-4281
▁kitchen	-4282
▁2002	-4283
▁wash	-4284
ycling	-4285
▁asking	-4286
▁sightse	-4287
▁complicated	-4288
▁recommended	-4289
▁cant	-4290
▁cats	-4291
▁expend	-4292
▁succeed	-4293
▁infrastru	-4294
▁background	-4295
erts	-4296
▁extent	-4297
▁streng	-4298
▁cultures	-4299
.gov/	-4300
esome	-4301
▁drug	-4302
ending	-4303
▁south	-4304
▁americ	-4305
▁twenty	-4306
.gov.sg/	-4307
▁features	-4308
▁supermarket	-4309
fered	-4310
ively	-4311
▁2001	-4312
▁disp	-4313
ursday	-4314
idering	-4315
ovember	-4316
▁asleep	-4317
▁marriage	-4318
▁Government	-4319
▁alternative	-4320
unic	-4321
ening	-4322
unami	-4323
▁adults	-4324
▁den	-4325
▁via	-4326
▁tent	-4327
▁Vietnam	-4328
OM	-4329
chi	-4330
▁dorm	-4331
▁rise	-4332
odation	-4333
▁trains	-4334
oku	-4335
atch	-4336
eral	-4337
sing	-4338
▁divert	-4339
▁courses	-4340
▁knowing	-4341
▁currently	-4342
40	-4343
▁core	-4344
▁repe	-4345
▁raise	-4346
▁borrow	-4347
▁providing	-4348
▁init	-4349
▁stre	-4350
▁hunting	-4351
▁reached	-4352
▁relaxed	-4353
bum	-4354
ubb	-4355
▁Wr	-4356
ches	-4357
▁err	-4358
asion	-4359
▁requires	-4360
▁structure	-4361
▁29	-4362
▁IN	-4363
ulate	-4364
▁Like	-4365
▁cous	-4366
▁spite	-4367
▁workforce	-4368
29	-4369
ns	-4370
mate	-4371
itory	-4372
▁Ryan	-4373
▁feed	-4374
▁rout	-4375
▁planned	-4376
▁approach	-4377
▁fireworks	-4378
▁eventually	-4379
my	-4380
know	-4381
▁adop	-4382
▁seve	-4383
mother	-4384
▁subst	-4385
▁actors	-4386
▁passion	-4387
inf	-4388
okk	-4389
oya	-4390
▁CPF	-4391
▁comed	-4392
▁estab	-4393
▁strug	-4394
▁Russia	-4395
▁depends	-4396
▁difficulties	-4397
oka	-4398
▁lay	-4399
iring	-4400
▁univers	-4401
▁decrease	-4402
▁overseas	-4403
▁Wednesday	-4404
▁continued	-4405
annel	-4406
▁bott	-4407
▁teen	-4408
▁fully	-4409
▁Instead	-4410
▁concerns	-4411
rimination	-4412
▁operating	-4413
▁commercial	-4414
ls	-4415
put	-4416
▁Par	-4417
▁n.d.	-4418
▁purch	-4419
▁mostly	-4420
▁strict	-4421
▁supply	-4422
▁Science	-4423
▁complex	-4424
▁technical	-4425
▁correction	-4426
cr	-4427
osh	-4428
▁waited	-4429
▁provides	-4430
▁situations	-4431
▁Will	-4432
▁cred	-4433
velopment	-4434
▁November	-4435
▁discovered	-4436
▁28	-4437
▁chances	-4438
▁introduction	-4439
UR	-4440
ulf	-4441
.edu	-4442
▁diff	-4443
▁menu	-4444
▁teeth	-4445
▁missed	-4446
▁promot	-4447
▁compare	-4448
▁transfer	-4449
▁implemented	-4450
▁Ca	-4451
▁Hall	-4452
▁hence	-4453
▁range	-4454
▁lifest	-4455
▁recover	-4456
▁telling	-4457
▁Thailand	-4458
▁cultural	-4459
▁appropriate	-4460
▁dut	-4461
▁church	-4462
▁entire	-4463
▁greatly	-4464
▁remembered	-4465
yr	-4466
ino	-4467
▁26	-4468
▁hi	-4469
alys	-4470
house	-4471
▁Afric	-4472
▁album	-4473
▁china	-4474
▁awesome	-4475
▁depressed	-4476
▁scientists	-4477
▁Art	-4478
▁comic	-4479
▁expenses	-4480
▁NY	-4481
iles	-4482
uman	-4483
▁Part	-4484
▁mall	-4485
▁climbing	-4486
▁relatively	-4487
▁yes	-4488
anned	-4489
iable	-4490
▁salt	-4491
pected	-4492
▁School	-4493
▁European	-4494
▁returned	-4495
▁lie	-4496
onald	-4497
▁contr	-4498
▁sightseeing	-4499
dom	-4500
▁ip	-4501
head	-4502
▁ing	-4503
riger	-4504
▁items	-4505
▁meals	-4506
▁owner	-4507
▁obtain	-4508
▁contents	-4509
▁expressions	-4510
▁guide	-4511
▁rising	-4512
▁depress	-4513
▁blossoms	-4514
▁generate	-4515
▁president	-4516
▁Sm	-4517
▁accomm	-4518
▁journey	-4519
rag	-4520
▁cin	-4521
▁guest	-4522
▁robot	-4523
▁uncom	-4524
OT	-4525
ards	-4526
▁ski	-4527
▁cross	-4528
▁victim	-4529
▁contrast	-4530
▁classmate	-4531
▁responsible	-4532
ux	-4533
aku	-4534
ufact	-4535
▁nurs	-4536
▁trust	-4537
▁animal	-4538
▁exhausted	-4539
▁suggested	-4540
▁generations	-4541
uki	-4542
▁Em	-4543
▁ham	-4544
action	-4545
arents	-4546
▁theme	-4547
▁histor	-4548
▁welcome	-4549
/1	-4550
ori	-4551
▁lo	-4552
▁Okin	-4553
▁crying	-4554
▁errors	-4555
▁describe	-4556
▁friendship	-4557
▁Mc	-4558
ivil	-4559
▁jam	-4560
▁stri	-4561
▁sund	-4562
▁fuels	-4563
▁suppose	-4564
▁promised	-4565
▁employment	-4566
▁registered	-4567
AP	-4568
oooo	-4569
▁2011	-4570
▁impl	-4571
▁round	-4572
▁safer	-4573
▁semin	-4574
▁shirt	-4575
▁facing	-4576
▁rights	-4577
▁discounts	-4578
ION	-4579
▁John	-4580
▁Work	-4581
▁balance	-4582
▁Due	-4583
▁U.S	-4584
▁quar	-4585
▁Power	-4586
▁slight	-4587
formation	-4588
men	-4589
omb	-4590
izza	-4591
▁cards	-4592
▁smoke	-4593
▁riding	-4594
▁shower	-4595
▁studing	-4596
▁telephone	-4597
▁reasonable	-4598
▁participate	-4599
TS	-4600
▁hy	-4601
rill	-4602
▁golf	-4603
▁analy	-4604
▁device	-4605
▁phones	-4606
▁talent	-4607
▁measures	-4608
▁valuable	-4609
▁frequently	-4610
▁Bra	-4611
araoke	-4612
igning	-4613
▁Spain	-4614
▁weird	-4615
▁archite	-4616
▁streets	-4617
aped	-4618
down	-4619
uage	-4620
▁ban	-4621
▁1000	-4622
▁Time	-4623
▁brand	-4624
▁sector	-4625
▁Central	-4626
▁license	-4627
▁somehow	-4628
ato	-4629
▁Did	-4630
cient	-4631
▁sale	-4632
▁region	-4633
▁practicing	-4634
km	-4635
▁27	-4636
▁Ob	-4637
▁lady	-4638
▁link	-4639
▁facebook	-4640
▁practical	-4641
▁represent	-4642
▁Haw	-4643
▁cho	-4644
▁Madam	-4645
ointing	-4646
▁forest	-4647
▁opinions	-4648
azz	-4649
▁Look	-4650
▁Earth	-4651
▁devices	-4652
▁promise	-4653
▁sources	-4654
▁Suddenly	-4655
▁disorder	-4656
▁refriger	-4657
▁invention	-4658
▁political	-4659
▁har	-4660
ipped	-4661
unity	-4662
▁Such	-4663
▁bear	-4664
▁pros	-4665
esting	-4666
▁Elect	-4667
▁billion	-4668
▁standing	-4669
▁electronic	-4670
▁Ed	-4671
iest	-4672
▁eng	-4673
ament	-4674
▁coal	-4675
▁brings	-4676
▁handle	-4677
▁picked	-4678
▁methods	-4679
▁grandmother	-4680
umst	-4681
▁bye	-4682
▁cinem	-4683
▁faced	-4684
▁humid	-4685
▁indeed	-4686
▁glasses	-4687
▁housing	-4688
▁manufact	-4689
▁generated	-4690
ae	-4691
mm	-4692
eria	-4693
▁eld	-4694
▁details	-4695
▁thousand	-4696
umb	-4697
▁oh	-4698
lymp	-4699
nals	-4700
▁Tra	-4701
▁Gold	-4702
▁Kong	-4703
▁graph	-4704
▁yellow	-4705
▁replace	-4706
aker	-4707
chan	-4708
edom	-4709
▁chair	-4710
▁frust	-4711
▁nearby	-4712
▁temple	-4713
▁accepted	-4714
gu	-4715
der	-4716
iff	-4717
aido	-4718
hand	-4719
ushima	-4720
▁eaten	-4721
▁feels	-4722
▁tasks	-4723
itation	-4724
ointment	-4725
▁letters	-4726
▁secrets	-4727
▁straight	-4728
AK	-4729
ils	-4730
▁3D	-4731
rend	-4732
▁Mic	-4733
▁Yok	-4734
▁joy	-4735
osite	-4736
▁fruit	-4737
ception	-4738
▁Spring	-4739
▁humans	-4740
▁spirit	-4741
▁destroy	-4742
▁vehicles	-4743
oro	-4744
phas	-4745
▁coo	-4746
while	-4747
▁epis	-4748
▁insp	-4749
▁Peter	-4750
▁intell	-4751
▁twitter	-4752
▁examples	-4753
▁consideration	-4754
place	-4755
▁hobb	-4756
▁homes	-4757
▁carbon	-4758
atically	-4759
▁Philipp	-4760
▁Probably	-4761
▁discovery	-4762
▁personality	-4763
▁80	-4764
aging	-4765
▁sites	-4766
▁comfort	-4767
▁academic	-4768
▁tourists	-4769
▁lifestyle	-4770
▁infrastructure	-4771
-f	-4772
▁D.	-4773
verse	-4774
▁Educ	-4775
▁dent	-4776
▁spot	-4777
▁thin	-4778
▁tents	-4779
▁vehicle	-4780
mit	-4781
▁San	-4782
agers	-4783
▁Park	-4784
ficial	-4785
▁North	-4786
▁artist	-4787
▁Okinawa	-4788
▁display	-4789
▁western	-4790
▁Ministry	-4791
▁Av	-4792
cies	-4793
erved	-4794
▁answ	-4795
▁noon	-4796
▁north	-4797
▁associ	-4798
▁detect	-4799
▁sunday	-4800
▁monitor	-4801
▁village	-4802
▁Thursday	-4803
▁Dr	-4804
▁ju	-4805
eside	-4806
icted	-4807
▁ship	-4808
tenance	-4809
▁Disney	-4810
▁embarr	-4811
▁explan	-4812
▁explained	-4813
NS	-4814
▁Kan	-4815
▁sch	-4816
rella	-4817
▁News	-4818
sunami	-4819
▁desire	-4820
▁fields	-4821
▁incident	-4822
▁includes	-4823
zil	-4824
news	-4825
▁anybody	-4826
▁circumst	-4827
asy	-4828
mal	-4829
ijing	-4830
▁Thai	-4831
▁steps	-4832
▁possib	-4833
▁release	-4834
▁projects	-4835
▁perfectly	-4836
▁Development	-4837
▁ages	-4838
▁hero	-4839
▁tong	-4840
okkaido	-4841
▁Research	-4842
▁believed	-4843
▁experiment	-4844
▁sufficient	-4845
▁considering	-4846
gn	-4847
agn	-4848
eah	-4849
▁Ke	-4850
abor	-4851
athon	-4852
known	-4853
▁wore	-4854
▁paint	-4855
▁Friend	-4856
▁prepar	-4857
▁corrections	-4858
ono	-4859
vis	-4860
▁Fu	-4861
▁Cur	-4862
vered	-4863
ensive	-4864
▁crime	-4865
▁renew	-4866
▁generally	-4867
▁delay	-4868
▁trend	-4869
▁raised	-4870
▁rapidly	-4871
▁horrible	-4872
▁wondered	-4873
▁certainly	-4874
▁statement	-4875
IF	-4876
ikip	-4877
▁kil	-4878
anged	-4879
erior	-4880
itals	-4881
▁crimin	-4882
▁leader	-4883
▁factory	-4884
▁managed	-4885
OL	-4886
ened	-4887
▁umb	-4888
▁dialy	-4889
▁papers	-4890
▁primary	-4891
▁occurred	-4892
AY	-4893
reed	-4894
▁Bud	-4895
▁Pop	-4896
▁decor	-4897
▁emphas	-4898
▁shortage	-4899
rial	-4900
▁mir	-4901
▁City	-4902
▁rare	-4903
▁drinks	-4904
ikipedia	-4905
▁freedom	-4906
▁greater	-4907
▁leading	-4908
▁missing	-4909
▁expenditure	-4910
ague	-4911
▁Bar	-4912
▁ast	-4913
▁roll	-4914
▁ideal	-4915
▁Island	-4916
▁Nature	-4917
▁grammer	-4918
▁typical	-4919
▁precious	-4920
▁response	-4921
▁economics	-4922
of	-4923
obe	-4924
oga	-4925
▁ge	-4926
uting	-4927
▁Love	-4928
▁wild	-4929
▁Seoul	-4930
▁fault	-4931
▁tooth	-4932
▁prices	-4933
▁Without	-4934
▁besides	-4935
▁enhance	-4936
▁falling	-4937
▁highest	-4938
▁passing	-4939
▁reported	-4940
▁effectively	-4941
anch	-4942
▁airpl	-4943
▁severe	-4944
▁coolant	-4945
▁degrees	-4946
▁searching	-4947
▁exhibition	-4948
▁scientific	-4949
su	-4950
aya	-4951
angh	-4952
pper	-4953
▁Bus	-4954
▁Che	-4955
▁mer	-4956
▁grate	-4957
▁tomat	-4958
▁escape	-4959
▁Hokkaido	-4960
▁organization	-4961
IV	-4962
eg	-4963
well	-4964
▁rom	-4965
▁Harry	-4966
▁manga	-4967
▁wheel	-4968
ibility	-4969
▁cartoon	-4970
▁putting	-4971
▁opposite	-4972
iors	-4973
tion	-4974
uate	-4975
▁rely	-4976
▁thro	-4977
▁dirty	-4978
▁grown	-4979
▁noise	-4980
▁beings	-4981
▁cinema	-4982
▁subway	-4983
▁sweets	-4984
▁conclud	-4985
▁hobbies	-4986
▁document	-4987
▁properly	-4988
▁mo	-4989
▁nap	-4990
▁tim	-4991
▁Mexic	-4992
▁repair	-4993
▁solved	-4994
▁covered	-4995
▁discrimination	-4996
60	-4997
▁Co	-4998
▁2nd	-4999
▁loo	-5000
▁unc	-5001
▁pull	-5002
ctures	-5003
▁Green	-5004
▁Would	-5005
▁lands	-5006
▁pizza	-5007
▁audience	-5008
▁messages	-5009
HI	-5010
ew	-5011
oses	-5012
▁Mus	-5013
▁Rep	-5014
▁eth	-5015
▁nor	-5016
▁Shin	-5017
▁fulf	-5018
▁wood	-5019
▁climate	-5020
▁dropped	-5021
▁powerful	-5022
▁strength	-5023
OW	-5024
ki	-5025
hop	-5026
▁male	-5027
▁Lastly	-5028
▁cowork	-5029
▁filled	-5030
▁blossom	-5031
▁misunder	-5032
▁equipment	-5033
▁65	-5034
uton	-5035
hered	-5036
▁Life	-5037
▁flav	-5038
▁util	-5039
ildren	-5040
▁apart	-5041
▁shall	-5042
▁sweat	-5043
▁crucial	-5044
▁machines	-5045
▁emergency	-5046
.asp	-5047
▁sup	-5048
apped	-5049
itles	-5050
▁Shop	-5051
imately	-5052
▁curious	-5053
▁plastic	-5054
▁contract	-5055
▁memorize	-5056
elf	-5057
▁AM	-5058
ingu	-5059
ohama	-5060
▁civil	-5061
▁rooms	-5062
▁Nagoya	-5063
▁banned	-5064
▁Perhaps	-5065
▁becouse	-5066
▁carried	-5067
▁survive	-5068
▁journals	-5069
OS	-5070
ari	-5071
cing	-5072
▁Reg	-5073
▁War	-5074
aland	-5075
▁decl	-5076
▁eager	-5077
▁System	-5078
▁relaxing	-5079
▁Engineering	-5080
▁translation	-5081
▁universities	-5082
dium	-5083
▁Fuk	-5084
▁unb	-5085
▁iPad	-5086
▁cloth	-5087
▁indic	-5088
▁Indian	-5089
▁Someone	-5090
▁decades	-5091
▁invented	-5092
▁priority	-5093
▁announced	-5094
▁uncomfortable	-5095
▁31	-5096
osen	-5097
▁fasc	-5098
▁joke	-5099
▁shout	-5100
▁analys	-5101
▁gotten	-5102
▁insist	-5103
▁upload	-5104
▁widely	-5105
▁opening	-5106
▁parking	-5107
▁Education	-5108
▁designing	-5109
▁independent	-5110
rel	-5111
ownt	-5112
rage	-5113
▁Air	-5114
aying	-5115
ushed	-5116
▁Rain	-5117
▁beef	-5118
▁lift	-5119
▁unex	-5120
▁alive	-5121
▁shoot	-5122
▁learnt	-5123
▁plenty	-5124
▁diaries	-5125
▁parties	-5126
▁majority	-5127
▁stronger	-5128
▁consequences	-5129
▁disadvantages	-5130
▁Ge	-5131
▁pow	-5132
anted	-5133
irect	-5134
▁Apple	-5135
▁admit	-5136
▁tasty	-5137
▁centre	-5138
▁tongue	-5139
▁emotion	-5140
▁washing	-5141
▁sou	-5142
▁spr	-5143
▁burn	-5144
▁lean	-5145
▁Brazil	-5146
▁videos	-5147
▁numbers	-5148
▁practiced	-5149
bed	-5150
oshi	-5151
▁Sim	-5152
▁kim	-5153
rical	-5154
wards	-5155
▁clin	-5156
▁faces	-5157
▁larger	-5158
▁classroom	-5159
70	-5160
UT	-5161
ien	-5162
rove	-5163
▁tut	-5164
▁pace	-5165
▁shut	-5166
ournal	-5167
▁Malay	-5168
▁spare	-5169
▁lights	-5170
▁scheme	-5171
▁thesis	-5172
▁writer	-5173
▁Through	-5174
▁leisure	-5175
▁weekends	-5176
▁challenges	-5177
-p	-5178
cean	-5179
▁500	-5180
▁Net	-5181
▁Pot	-5182
▁cos	-5183
▁mad	-5184
arily	-5185
▁upon	-5186
▁Happy	-5187
▁goals	-5188
▁notes	-5189
▁Econom	-5190
▁novels	-5191
▁phrases	-5192
▁american	-5193
▁diverted	-5194
▁Australian	-5195
▁discussion	-5196
▁conditioner	-5197
▁disappointing	-5198
rab	-5199
▁Pa	-5200
iate	-5201
ucks	-5202
▁AND	-5203
▁SFR	-5204
ouver	-5205
▁Long	-5206
anghai	-5207
▁block	-5208
▁sauce	-5209
▁scary	-5210
▁Google	-5211
▁cousin	-5212
▁pieces	-5213
▁resist	-5214
▁contest	-5215
▁neglect	-5216
▁unknown	-5217
▁conventional	-5218
hus	-5219
▁soy	-5220
▁myst	-5221
▁Hawai	-5222
▁Sorry	-5223
▁serve	-5224
▁proced	-5225
▁arrange	-5226
▁consult	-5227
riv	-5228
▁Id	-5229
▁umbrella	-5230
pan	-5231
▁70	-5232
▁300	-5233
▁tor	-5234
anium	-5235
store	-5236
▁tall	-5237
▁Aging	-5238
▁Olymp	-5239
▁Super	-5240
▁brush	-5241
▁champ	-5242
▁credit	-5243
▁actions	-5244
▁offered	-5245
▁regarding	-5246
▁beneficial	-5247
▁inventions	-5248
back	-5249
▁Yet	-5250
▁U.S.	-5251
▁cried	-5252
▁error	-5253
▁smaller	-5254
▁embarrass	-5255
▁interests	-5256
LE	-5257
ani	-5258
▁King	-5259
▁fans	-5260
▁leads	-5261
▁compar	-5262
▁corner	-5263
▁ingred	-5264
▁option	-5265
▁digital	-5266
▁seminar	-5267
▁contrary	-5268
▁finishing	-5269
▁psychological	-5270
ko	-5271
▁pun	-5272
▁sym	-5273
▁uns	-5274
▁Cont	-5275
inking	-5276
▁convin	-5277
▁fortun	-5278
▁herself	-5279
▁politic	-5280
▁reflect	-5281
▁selling	-5282
host	-5283
ript	-5284
ushi	-5285
▁Best	-5286
▁bother	-5287
▁unable	-5288
▁weapons	-5289
▁pleasant	-5290
▁hospitals	-5291
▁historical	-5292
dy	-5293
rs	-5294
uan	-5295
▁3rd	-5296
▁Age	-5297
▁unh	-5298
▁Each	-5299
▁jump	-5300
▁phen	-5301
▁meant	-5302
▁occup	-5303
▁youth	-5304
iveness	-5305
▁cooper	-5306
▁double	-5307
▁thinks	-5308
ancouver	-5309
▁existing	-5310
▁recognize	-5311
▁Everything	-5312
▁duty	-5313
▁pair	-5314
▁ring	-5315
▁lines	-5316
▁shrine	-5317
critical	-5318
▁dentist	-5319
▁savings	-5320
▁Yokohama	-5321
▁employee	-5322
▁investment	-5323
▁M.	-5324
▁Fam	-5325
▁Unt	-5326
▁Take	-5327
▁magic	-5328
▁fascin	-5329
▁illust	-5330
▁dislike	-5331
▁download	-5332
▁Everybody	-5333
▁cas	-5334
▁sam	-5335
imate	-5336
▁peop	-5337
▁sear	-5338
▁upgr	-5339
▁Human	-5340
▁birds	-5341
▁chosen	-5342
▁invite	-5343
▁Beijing	-5344
▁constantly	-5345
AC	-5346
oned	-5347
▁legs	-5348
▁buses	-5349
▁hurry	-5350
▁throat	-5351
▁organiz	-5352
▁scenery	-5353
▁included	-5354
▁resource	-5355
▁surprising	-5356
▁particularly	-5357
▁entertainment	-5358
▁Cr	-5359
▁Coll	-5360
▁Helen	-5361
▁artists	-5362
▁counter	-5363
aj	-5364
▁Gl	-5365
yond	-5366
olley	-5367
▁diss	-5368
▁mechan	-5369
▁Whenever	-5370
▁functions	-5371
yen	-5372
▁Rog	-5373
▁Ton	-5374
▁fro	-5375
▁upd	-5376
▁downt	-5377
▁consist	-5378
▁creative	-5379
▁register	-5380
▁construct	-5381
▁discussed	-5382
-t	-5383
isc	-5384
▁Fl	-5385
husi	-5386
▁lyr	-5387
▁inte	-5388
▁neck	-5389
▁cycle	-5390
▁horse	-5391
▁marry	-5392
▁suffe	-5393
▁theory	-5394
standing	-5395
▁jogging	-5396
▁practise	-5397
▁reaction	-5398
/s	-5399
▁#	-5400
▁Li	-5401
arin	-5402
▁vir	-5403
▁multi	-5404
sequently	-5405
▁learners	-5406
▁mountains	-5407
▁educational	-5408
-2	-5409
AD	-5410
cont	-5411
gent	-5412
▁Dep	-5413
▁MSR	-5414
▁adj	-5415
▁nur	-5416
▁boat	-5417
▁iPod	-5418
▁tools	-5419
▁losing	-5420
▁describ	-5421
▁enthusi	-5422
▁phenomen	-5423
▁encouraged	-5424
▁destination	-5425
PS	-5426
iki	-5427
rit	-5428
aint	-5429
▁Mrs	-5430
▁YOU	-5431
orter	-5432
▁path	-5433
employ	-5434
▁cabin	-5435
▁mixed	-5436
▁Singaporeans	-5437
bl	-5438
▁Bo	-5439
▁Qu	-5440
onst	-5441
▁shot	-5442
▁bloom	-5443
▁greet	-5444
▁thier	-5445
▁values	-5446
▁painful	-5447
▁director	-5448
▁presents	-5449
▁correctly	-5450
▁consumption	-5451
▁conversations	-5452
au	-5453
▁bull	-5454
▁sang	-5455
▁taxi	-5456
minist	-5457
▁Africa	-5458
▁forced	-5459
▁states	-5460
▁checking	-5461
▁contains	-5462
▁cellphone	-5463
▁thousands	-5464
▁productivity	-5465
rief	-5466
zing	-5467
▁idi	-5468
igent	-5469
▁Lear	-5470
▁lake	-5471
▁mill	-5472
▁tells	-5473
▁lyrics	-5474
▁demands	-5475
▁bathroom	-5476
▁laughing	-5477
▁reducing	-5478
▁Fukushima	-5479
▁Vancouver	-5480
▁laboratory	-5481
ao	-5482
erk	-5483
▁90	-5484
aced	-5485
inal	-5486
▁amb	-5487
▁jum	-5488
adian	-5489
▁cure	-5490
▁eggs	-5491
▁sore	-5492
▁wealth	-5493
▁designs	-5494
▁hesitate	-5495
▁official	-5496
ext	-5497
▁Lee	-5498
▁Miy	-5499
▁tom	-5500
akers	-5501
▁arts	-5502
▁copy	-5503
▁qual	-5504
▁advent	-5505
▁rarely	-5506
▁movement	-5507
▁competitive	-5508
sen	-5509
▁raw	-5510
gling	-5511
▁fare	-5512
▁added	-5513
▁fluent	-5514
▁grandp	-5515
▁investig	-5516
▁developments	-5517
hel	-5518
▁Sun	-5519
▁mum	-5520
antic	-5521
▁Times	-5522
▁alloc	-5523
article	-5524
▁Having	-5525
▁ancient	-5526
▁followed	-5527
▁religion	-5528
▁appearance	-5529
▁Da	-5530
▁Ze	-5531
omic	-5532
enses	-5533
▁cash	-5534
▁Until	-5535
▁awful	-5536
▁drove	-5537
▁Should	-5538
▁profit	-5539
▁battery	-5540
▁kinderg	-5541
▁noodles	-5542
▁annoying	-5543
ona	-5544
osal	-5545
▁Cup	-5546
▁princi	-5547
▁surely	-5548
▁univer	-5549
▁untill	-5550
▁grateful	-5551
▁Reference	-5552
▁connected	-5553
▁increases	-5554
hy	-5555
rol	-5556
▁Tor	-5557
akura	-5558
ender	-5559
olten	-5560
▁Trans	-5561
▁fixed	-5562
▁interp	-5563
▁volley	-5564
▁fulfill	-5565
▁holding	-5566
▁tourist	-5567
▁argument	-5568
▁smoothly	-5569
▁snowboard	-5570
▁maintenance	-5571
ley	-5572
▁SNS	-5573
▁led	-5574
▁gent	-5575
▁Paris	-5576
▁alarm	-5577
▁cakes	-5578
▁circle	-5579
▁unless	-5580
▁Current	-5581
▁treated	-5582
▁creating	-5583
▁forecast	-5584
▁location	-5585
▁documents	-5586
▁accommodation	-5587
▁significantly	-5588
fl	-5589
▁Mt	-5590
▁Nor	-5591
▁pal	-5592
estic	-5593
shine	-5594
▁dawn	-5595
▁unus	-5596
▁judge	-5597
▁ramen	-5598
▁resol	-5599
▁Design	-5600
▁tempor	-5601
inations	-5602
▁correcting	-5603
ams	-5604
▁Cor	-5605
▁Tur	-5606
▁nar	-5607
▁feet	-5608
▁obst	-5609
▁tears	-5610
▁vital	-5611
▁Thirdly	-5612
▁victims	-5613
▁tracking	-5614
▁literature	-5615
RE	-5616
▁Ak	-5617
▁max	-5618
oline	-5619
erning	-5620
▁repro	-5621
▁stock	-5622
▁dramas	-5623
▁expand	-5624
▁Twitter	-5625
▁relieved	-5626
▁roommate	-5627
▁searched	-5628
▁unexpected	-5629
.c	-5630
cles	-5631
▁hab	-5632
▁mut	-5633
▁push	-5634
▁advise	-5635
▁critic	-5636
ulations	-5637
▁//www.n	-5638
▁Indones	-5639
▁distrib	-5640
▁perhaps	-5641
▁employers	-5642
▁marketing	-5643
▁depression	-5644
▁composition	-5645
▁\	-5646
sec	-5647
vey	-5648
▁nt	-5649
▁Inc	-5650
▁Ten	-5651
▁Wind	-5652
▁rubb	-5653
▁roads	-5654
▁scale	-5655
▁depart	-5656
▁setting	-5657
▁fighting	-5658
-4	-5659
oug	-5660
ses	-5661
wing	-5662
▁cig	-5663
▁inev	-5664
▁answers	-5665
▁delight	-5666
▁harmful	-5667
▁Shopping	-5668
▁direction	-5669
▁emotional	-5670
▁controvers	-5671
▁suggestion	-5672
BA	-5673
ms	-5674
ban	-5675
rupt	-5676
word	-5677
yles	-5678
▁Ste	-5679
▁Fund	-5680
▁drum	-5681
▁eval	-5682
▁rank	-5683
▁soph	-5684
angers	-5685
father	-5686
▁comics	-5687
▁stable	-5688
▁cleaned	-5689
▁courage	-5690
▁unhappy	-5691
▁marathon	-5692
▁normally	-5693
▁relation	-5694
AI	-5695
ege	-5696
isy	-5697
pei	-5698
oring	-5699
▁keen	-5700
▁outd	-5701
▁stim	-5702
▁stro	-5703
▁gases	-5704
▁cloudy	-5705
▁comedy	-5706
▁wishes	-5707
▁anxious	-5708
▁protection	-5709
▁translated	-5710
/2	-5711
▁ON	-5712
▁p.	-5713
ales	-5714
▁Aut	-5715
rendip	-5716
▁fruits	-5717
▁unlike	-5718
▁matters	-5719
▁promote	-5720
▁serendip	-5721
▁exercises	-5722
▁recognized	-5723
▁salon	-5724
▁Golden	-5725
▁beyond	-5726
▁incred	-5727
▁chemical	-5728
▁published	-5729
RL	-5730
▁boo	-5731
▁gar	-5732
▁pic	-5733
hemat	-5734
▁laug	-5735
▁pity	-5736
▁Hiros	-5737
▁stood	-5738
▁campus	-5739
▁latter	-5740
▁levels	-5741
▁anytime	-5742
▁propert	-5743
▁showing	-5744
▁airplane	-5745
▁suffered	-5746
▁preparation	-5747
▁refrigerator	-5748
▁spl	-5749
▁tun	-5750
world	-5751
▁Char	-5752
▁firm	-5753
▁beside	-5754
▁souven	-5755
▁analysis	-5756
▁attached	-5757
▁conference	-5758
▁electrical	-5759
hoku	-5760
orge	-5761
▁ath	-5762
iance	-5763
▁Fuku	-5764
▁Sant	-5765
▁phil	-5766
▁pages	-5767
▁saved	-5768
▁toile	-5769
▁views	-5770
▁intend	-5771
▁speaks	-5772
▁saturday	-5773
▁photograph	-5774
oly	-5775
irts	-5776
▁List	-5777
▁Paul	-5778
▁east	-5779
▁empt	-5780
▁ment	-5781
isions	-5782
▁Being	-5783
▁cance	-5784
▁Museum	-5785
▁Potter	-5786
▁Valent	-5787
▁closer	-5788
▁gentle	-5789
▁instit	-5790
▁status	-5791
▁thirty	-5792
▁connection	-5793
▁industrial	-5794
▁Information	-5795
19	-5796
sc	-5797
doc	-5798
met	-5799
▁4th	-5800
▁Cam	-5801
▁pra	-5802
▁cert	-5803
▁Event	-5804
▁House	-5805
▁adapt	-5806
▁disag	-5807
▁incon	-5808
▁Recent	-5809
▁bottle	-5810
▁christ	-5811
▁stuffs	-5812
ervation	-5813
▁replied	-5814
▁Shanghai	-5815
▁concepts	-5816
80	-5817
ago	-5818
alt	-5819
▁Han	-5820
berry	-5821
▁deli	-5822
▁hell	-5823
▁immig	-5824
▁moral	-5825
▁teams	-5826
pective	-5827
▁cheese	-5828
▁citizen	-5829
▁assistant	-5830
▁impressive	-5831
12	-5832
▁Ac	-5833
ichi	-5834
▁Col	-5835
power	-5836
ulous	-5837
▁Week	-5838
▁tiny	-5839
▁begun	-5840
▁paying	-5841
▁placed	-5842
▁Zealand	-5843
▁conclude	-5844
▁purchase	-5845
▁subtitles	-5846
UN	-5847
atsu	-5848
▁elders	-5849
▁finger	-5850
▁Fashion	-5851
▁cutting	-5852
▁leaders	-5853
▁operate	-5854
▁naturally	-5855
▁OF	-5856
arett	-5857
hours	-5858
▁East	-5859
▁prem	-5860
▁colour	-5861
▁Children	-5862
▁critical	-5863
▁Taiwanese	-5864
▁abilities	-5865
▁dormitory	-5866
▁efficiently	-5867
▁researchers	-5868
33	-5869
IM	-5870
fu	-5871
ero	-5872
iece	-5873
vest	-5874
▁Hon	-5875
▁Web	-5876
mates	-5877
▁grew	-5878
▁pret	-5879
▁brown	-5880
▁disap	-5881
▁Hawaii	-5882
▁windows	-5883
▁prevented	-5884
▁supporting	-5885
▁II	-5886
▁dy	-5887
▁Cir	-5888
▁era	-5889
news/	-5890
▁Main	-5891
▁furn	-5892
▁pork	-5893
▁stad	-5894
▁names	-5895
▁stuck	-5896
▁muscle	-5897
▁channel	-5898
▁measure	-5899
▁Canadian	-5900
▁supported	-5901
ott	-5902
iary	-5903
king	-5904
▁mur	-5905
osure	-5906
▁nine	-5907
▁west	-5908
▁accur	-5909
▁breath	-5910
▁offers	-5911
▁survey	-5912
▁achieved	-5913
▁occasion	-5914
▁greenhouse	-5915
▁explanation	-5916
▁tv	-5917
apes	-5918
hima	-5919
▁gre	-5920
▁unp	-5921
▁Asso	-5922
▁Prov	-5923
▁cram	-5924
▁liqu	-5925
▁soul	-5926
▁calls	-5927
▁juice	-5928
▁optim	-5929
▁Rogers	-5930
▁bottom	-5931
▁washed	-5932
▁Western	-5933
▁affects	-5934
▁choices	-5935
▁Americans	-5936
▁appointment	-5937
ka	-5938
tes	-5939
▁MY	-5940
▁BBC	-5941
▁Big	-5942
▁okay	-5943
▁pure	-5944
▁touc	-5945
anging	-5946
▁Right	-5947
▁apple	-5948
▁discl	-5949
▁cabins	-5950
▁massage	-5951
▁peoples	-5952
▁tsunami	-5953
▁Language	-5954
▁politics	-5955
▁performed	-5956
/200	-5957
aven	-5958
wide	-5959
aling	-5960
inter	-5961
▁prol	-5962
▁Gener	-5963
▁fewer	-5964
▁pregn	-5965
▁apolog	-5966
▁regards	-5967
▁resulted	-5968
▁consumers	-5969
▁regularly	-5970
▁economical	-5971
▁relationships	-5972
enn	-5973
iev	-5974
ixt	-5975
sed	-5976
arant	-5977
▁army	-5978
▁cope	-5979
▁writ	-5980
▁empty	-5981
▁sympt	-5982
▁acting	-5983
▁boiled	-5984
▁served	-5985
▁staffs	-5986
▁restart	-5987
▁sharing	-5988
▁vegetable	-5989
▁Department	-5990
▁applications	-5991
hou	-5992
▁35	-5993
sect	-5994
▁Hey	-5995
▁jok	-5996
▁diox	-5997
▁fool	-5998
▁poss	-5999
ulated	-6000
▁mails	-6001
▁thick	-6002
▁explos	-6003
▁planet	-6004
▁sudden	-6005
▁Speaking	-6006
▁Institute	-6007
▁organized	-6008
▁successfully	-6009
OO	-6010
sp	-6011
ogr	-6012
▁Ag	-6013
▁PS	-6014
,000	-6015
pert	-6016
▁Hot	-6017
ATION	-6018
▁magn	-6019
▁supr	-6020
ortion	-6021
▁aband	-6022
▁maxim	-6023
▁actual	-6024
▁freely	-6025
▁Reading	-6026
▁respond	-6027
▁recorded	-6028
▁otherwise	-6029
cks	-6030
equ	-6031
rid	-6032
▁pod	-6033
erous	-6034
▁reven	-6035
▁shame	-6036
▁ending	-6037
▁helium	-6038
▁beginner	-6039
▁election	-6040
▁greatest	-6041
▁throughout	-6042
▁Philippines	-6043
▁IS	-6044
▁UN	-6045
icks	-6046
teen	-6047
▁URL	-6048
arest	-6049
point	-6050
▁Arab	-6051
▁melt	-6052
▁rail	-6053
▁susp	-6054
▁prove	-6055
▁clinic	-6056
▁planed	-6057
▁context	-6058
▁episode	-6059
▁karaoke	-6060
▁sunshine	-6061
▁bookstore	-6062
▁forgotten	-6063
▁additional	-6064
-C	-6065
eds	-6066
oty	-6067
ula	-6068
uter	-6069
week	-6070
arten	-6071
▁Show	-6072
▁badly	-6073
▁grass	-6074
▁formal	-6075
▁friday	-6076
▁landsc	-6077
▁shaped	-6078
▁damaged	-6079
▁pattern	-6080
▁refresh	-6081
▁gasoline	-6082
▁researches	-6083
empt	-6084
page	-6085
term	-6086
▁Tak	-6087
▁san	-6088
▁1999	-6089
▁bags	-6090
▁load	-6091
▁Psych	-6092
▁risks	-6093
▁doctors	-6094
▁peaceful	-6095
▁traveled	-6096
▁neighborhood	-6097
wa	-6098
ica	-6099
aces	-6100
ancer	-6101
▁sake	-6102
▁wise	-6103
friendly	-6104
▁advices	-6105
▁Everyday	-6106
▁disagree	-6107
▁worrying	-6108
▁producing	-6109
▁workplace	-6110
:15	-6111
▁Test	-6112
▁aunt	-6113
▁fert	-6114
▁kiss	-6115
▁seld	-6116
▁ahead	-6117
▁basis	-6118
▁schol	-6119
▁Taipei	-6120
▁candid	-6121
▁resort	-6122
▁dioxide	-6123
▁laughed	-6124
▁nations	-6125
▁rubbish	-6126
▁Malaysia	-6127
▁educated	-6128
▁reliable	-6129
▁phenomenon	-6130
fa	-6131
nee	-6132
▁XD	-6133
▁wis	-6134
▁jack	-6135
▁pock	-6136
▁keeps	-6137
▁stone	-6138
▁turns	-6139
▁yours	-6140
▁hoping	-6141
▁wallet	-6142
▁Tonight	-6143
▁sending	-6144
veillance	-6145
▁mathemat	-6146
▁Hiroshima	-6147
▁dependency	-6148
▁profession	-6149
▁volleyball	-6150
▁advancement	-6151
-b	-6152
ba	-6153
nic	-6154
▁Ty	-6155
▁ash	-6156
ittee	-6157
▁Fore	-6158
▁hill	-6159
health	-6160
▁stead	-6161
▁Tohoku	-6162
▁flavor	-6163
▁gained	-6164
▁snowing	-6165
▁consists	-6166
▁pronounce	-6167
cy	-6168
otic	-6169
▁Eng	-6170
▁Mat	-6171
▁Tan	-6172
▁gif	-6173
▁som	-6174
▁Cons	-6175
▁DVDs	-6176
▁Mark	-6177
school	-6178
▁ghost	-6179
▁adjust	-6180
▁butter	-6181
▁manner	-6182
▁pension	-6183
▁profile	-6184
▁Temperature	-6185
olk	-6186
▁gun	-6187
▁unl	-6188
itous	-6189
oween	-6190
▁jazz	-6191
▁rode	-6192
▁virt	-6193
▁capac	-6194
▁remov	-6195
▁secure	-6196
▁stated	-6197
▁tastes	-6198
▁cycling	-6199
▁unusual	-6200
▁Addition	-6201
▁cigarett	-6202
▁minister	-6203
▁realised	-6204
▁souvenir	-6205
▁stressful	-6206
anda	-6207
info	-6208
resp	-6209
▁Red	-6210
▁Toy	-6211
▁voc	-6212
minton	-6213
▁inher	-6214
▁ocean	-6215
▁Indeed	-6216
▁recall	-6217
▁seldom	-6218
▁actress	-6219
▁happend	-6220
▁satisfy	-6221
▁singers	-6222
▁notebook	-6223
▁innovative	-6224
▁participated	-6225
▁circumstances	-6226
zed	-6227
▁AL	-6228
▁CN	-6229
▁ec	-6230
hold	-6231
mend	-6232
onto	-6233
▁unif	-6234
▁yoga	-6235
▁drugs	-6236
▁metal	-6237
▁tutor	-6238
▁absent	-6239
▁height	-6240
▁integr	-6241
▁accompl	-6242
▁capable	-6243
▁injured	-6244
▁tourism	-6245
▁Students	-6246
▁informed	-6247
▁residents	-6248
▁subsidies	-6249
CE	-6250
nov	-6251
osc	-6252
uis	-6253
▁ID	-6254
▁IEL	-6255
▁Mean	-6256
actors	-6257
▁estim	-6258
▁forth	-6259
▁approx	-6260
▁corpor	-6261
▁excuse	-6262
▁infect	-6263
▁posted	-6264
▁Journal	-6265
▁Sometime	-6266
▁clothing	-6267
▁visitors	-6268
▁determined	-6269
ids	-6270
pes	-6271
olly	-6272
going	-6273
▁pill	-6274
▁tags	-6275
▁haven	-6276
▁laund	-6277
▁Mexico	-6278
▁agreed	-6279
▁flying	-6280
▁daytime	-6281
▁sectors	-6282
▁obviously	-6283
LY	-6284
cue	-6285
que	-6286
▁HD	-6287
▁Je	-6288
erry	-6289
▁zoo	-6290
iques	-6291
odies	-6292
▁Fast	-6293
▁coin	-6294
▁dear	-6295
▁exec	-6296
▁iron	-6297
istory	-6298
utonium	-6299
▁iphone	-6300
▁monday	-6301
▁robots	-6302
▁Looking	-6303
▁heavily	-6304
▁strateg	-6305
▁uranium	-6306
▁choosing	-6307
▁designer	-6308
▁musician	-6309
▁proposed	-6310
IK	-6311
reg	-6312
▁Out	-6313
▁gap	-6314
▁hat	-6315
▁map	-6316
arian	-6317
▁code	-6318
▁gate	-6319
▁prec	-6320
▁wave	-6321
▁Among	-6322
▁Sport	-6323
▁clerk	-6324
▁quant	-6325
▁sugar	-6326
▁agency	-6327
▁scenes	-6328
▁toilet	-6329
▁central	-6330
▁fishing	-6331
▁neither	-6332
▁seconds	-6333
▁solving	-6334
▁useless	-6335
▁websites	-6336
&_	-6337
bb	-6338
izu	-6339
nel	-6340
roc	-6341
▁Exp	-6342
▁See	-6343
▁Syd	-6344
▁kon	-6345
ategy	-6346
▁Home	-6347
▁flex	-6348
overty	-6349
▁calling	-6350
▁overall	-6351
▁reminds	-6352
▁routine	-6353
▁uniform	-6354
▁entering	-6355
▁identify	-6356
▁Valentine	-6357
▁basically	-6358
xy	-6359
ops	-6360
urt	-6361
▁od	-6362
▁19.	-6363
▁gat	-6364
▁row	-6365
▁scr	-6366
▁tow	-6367
▁Fuji	-6368
▁Kind	-6369
▁garb	-6370
▁laws	-6371
▁perm	-6372
Donald	-6373
▁brill	-6374
▁Social	-6375
▁couples	-6376
▁rainbow	-6377
▁surface	-6378
▁slightly	-6379
▁strategy	-6380
▁conducted	-6381
▁daughters	-6382
&D	-6383
:30	-6384
ris	-6385
▁PM	-6386
▁Rad	-6387
▁Was	-6388
▁Yam	-6389
iency	-6390
morow	-6391
▁prob	-6392
▁IELTS	-6393
▁cough	-6394
▁court	-6395
▁genes	-6396
▁pasta	-6397
▁Center	-6398
▁Sydney	-6399
▁french	-6400
▁tomato	-6401
▁Friends	-6402
▁touched	-6403
▁turning	-6404
▁produces	-6405
▁attracted	-6406
▁installed	-6407
▁opponents	-6408
▁influenced	-6409
▁instrument	-6410
11	-6411
bur	-6412
rif	-6413
▁S.	-6414
▁Bas	-6415
▁bon	-6416
▁lon	-6417
▁lux	-6418
▁sac	-6419
▁ult	-6420
cycle	-6421
▁kick	-6422
▁boost	-6423
▁realy	-6424
▁tense	-6425
▁trade	-6426
▁enable	-6427
▁insect	-6428
▁kindly	-6429
▁largest	-6430
▁whereas	-6431
▁downtown	-6432
▁inconven	-6433
▁everytime	-6434
▁assignment	-6435
▁appreciated	-6436
▁Consequently	-6437
▁kindergarten	-6438
-h	-6439
-w	-6440
..	-6441
▁SO	-6442
hens	-6443
iers	-6444
▁Dem	-6445
▁Get	-6446
.edu/	-6447
erves	-6448
▁defe	-6449
▁cited	-6450
▁rates	-6451
▁tight	-6452
▁Circle	-6453
▁castle	-6454
▁compre	-6455
▁golden	-6456
▁narrow	-6457
▁remark	-6458
▁resume	-6459
▁thermal	-6460
▁concerts	-6461
▁shoulder	-6462
▁Generally	-6463
▁destroyed	-6464
▁Population	-6465
zen	-6466
▁SH	-6467
onom	-6468
▁R&D	-6469
▁hug	-6470
▁14th	-6471
▁Budd	-6472
▁Send	-6473
▁arms	-6474
▁bomb	-6475
▁ends	-6476
▁20:15	-6477
▁Under	-6478
▁gover	-6479
▁lover	-6480
▁refer	-6481
▁rough	-6482
andarin	-6483
▁colors	-6484
▁Writing	-6485
▁Learning	-6486
▁passport	-6487
▁restrict	-6488
▁establish	-6489
▁expecting	-6490
lin	-6491
urb	-6492
gypt	-6493
▁Mom	-6494
▁rat	-6495
ashed	-6496
▁Exam	-6497
▁Nice	-6498
▁Rock	-6499
▁king	-6500
▁lies	-6501
▁yout	-6502
▁Frank	-6503
▁charm	-6504
▁equal	-6505
▁mouse	-6506
▁Mother	-6507
▁Minister	-6508
▁numerous	-6509
▁magazines	-6510
▁sensitive	-6511
het	-6512
utr	-6513
▁Ha	-6514
▁toy	-6515
icide	-6516
▁blow	-6517
▁hamb	-6518
▁oral	-6519
▁blind	-6520
▁categ	-6521
▁flood	-6522
▁humor	-6523
▁noisy	-6524
▁salad	-6525
▁tourn	-6526
▁encoun	-6527
▁reports	-6528
▁specially	-6529
▁creativity	-6530
▁percentage	-6531
▁instruments	-6532
▁photography	-6533
▁architecture	-6534
14	-6535
ii	-6536
uzz	-6537
juku	-6538
▁Opp	-6539
▁avo	-6540
month	-6541
▁Amaz	-6542
▁rush	-6543
▁Great	-6544
▁straw	-6545
ionship	-6546
▁Lately	-6547
▁button	-6548
▁habits	-6549
▁hambur	-6550
▁sheets	-6551
▁College	-6552
▁instant	-6553
▁remains	-6554
▁district	-6555
▁emission	-6556
▁romantic	-6557
▁completed	-6558
▁presented	-6559
wr	-6560
ores	-6561
▁fle	-6562
▁rus	-6563
▁bare	-6564
▁Black	-6565
▁Egypt	-6566
▁coach	-6567
▁virus	-6568
▁annual	-6569
▁colder	-6570
▁Teacher	-6571
▁applying	-6572
▁selected	-6573
▁awareness	-6574
▁determine	-6575
▁teenagers	-6576
-T	-6577
45	-6578
ENT	-6579
▁El	-6580
▁ST	-6581
▁Uk	-6582
mbol	-6583
▁Sea	-6584
▁gri	-6585
erial	-6586
essed	-6587
▁Stat	-6588
▁calc	-6589
▁visa	-6590
▁brief	-6591
▁Nobody	-6592
▁babies	-6593
▁battle	-6594
▁begins	-6595
▁elimin	-6596
▁output	-6597
▁refres	-6598
▁scream	-6599
▁Program	-6600
▁attempt	-6601
▁causing	-6602
▁classic	-6603
▁poverty	-6604
▁kindness	-6605
▁classical	-6606
▁advertising	-6607
yo	-6608
▁@	-6609
ius	-6610
▁La	-6611
acle	-6612
city	-6613
▁Bel	-6614
▁pig	-6615
▁tal	-6616
▁coat	-6617
▁leak	-6618
▁wand	-6619
coming	-6620
▁Still	-6621
▁diagn	-6622
▁talks	-6623
▁Safety	-6624
▁hamper	-6625
▁remove	-6626
▁snacks	-6627
▁Theatre	-6628
▁predict	-6629
▁stadium	-6630
▁technique	-6631
▁highschool	-6632
▁contributed	-6633
VE	-6634
uls	-6635
▁AS	-6636
alty	-6637
food	-6638
raft	-6639
wood	-6640
▁Sam	-6641
▁Yeah	-6642
▁tack	-6643
▁Techn	-6644
▁incor	-6645
▁spect	-6646
▁dollar	-6647
▁microw	-6648
▁sodium	-6649
▁camping	-6650
▁announce	-6651
▁purposes	-6652
▁Meanwhile	-6653
▁depending	-6654
▁obligation	-6655
DP	-6656
PM	-6657
da	-6658
asm	-6659
lor	-6660
▁NE	-6661
▁ru	-6662
izes	-6663
▁Hol	-6664
▁dum	-6665
eping	-6666
itate	-6667
onent	-6668
▁Ange	-6669
▁ware	-6670
▁Elder	-6671
▁Start	-6672
▁aside	-6673
▁chain	-6674
▁forms	-6675
▁truly	-6676
▁guests	-6677
▁capacity	-6678
▁unemploy	-6679
▁decisions	-6680
▁associated	-6681
▁encouraging	-6682
asu	-6683
top	-6684
▁DO	-6685
▁E.	-6686
▁ES	-6687
gage	-6688
▁Dav	-6689
▁fed	-6690
▁cock	-6691
▁hide	-6692
▁shar	-6693
▁stor	-6694
▁Press	-6695
▁blank	-6696
▁marks	-6697
▁sheet	-6698
▁skunk	-6699
▁uncle	-6700
issions	-6701
▁freind	-6702
▁polite	-6703
▁studio	-6704
▁annoyed	-6705
▁demonst	-6706
▁skating	-6707
▁weakness	-6708
▁Indonesia	-6709
▁disappear	-6710
▁concerning	-6711
▁perspective	-6712
-d	-6713
AG	-6714
▁AT	-6715
cher	-6716
odes	-6717
▁Kam	-6718
▁flo	-6719
estly	-6720
idden	-6721
▁Water	-6722
▁didnt	-6723
▁simpl	-6724
▁kimono	-6725
▁impacts	-6726
▁youtube	-6727
-friendly	-6728
▁administ	-6729
▁brothers	-6730
▁gathered	-6731
▁relevant	-6732
▁revealing	-6733
▁internship	-6734
▁contribution	-6735
13	-6736
VER	-6737
ito	-6738
uya	-6739
mare	-6740
▁Mod	-6741
ciety	-6742
▁Mile	-6743
▁drag	-6744
▁mask	-6745
engers	-6746
▁absor	-6747
▁tower	-6748
▁debate	-6749
▁shared	-6750
▁volume	-6751
▁Medical	-6752
▁burning	-6753
▁session	-6754
▁attending	-6755
▁frustrated	-6756
▁newspapers	-6757
▁fortunately	-6758
/S	-6759
RI	-6760
▁G.	-6761
.net	-6762
grad	-6763
▁BBQ	-6764
▁WAS	-6765
▁que	-6766
agawa	-6767
ounds	-6768
▁Pres	-6769
▁scar	-6770
▁Santa	-6771
▁State	-6772
▁rained	-6773
▁guarant	-6774
▁laundry	-6775
▁nearest	-6776
▁separate	-6777
▁established	-6778
▁grandfather	-6779
.w	-6780
alog	-6781
itan	-6782
▁vul	-6783
▁lock	-6784
▁unne	-6785
▁Khand	-6786
▁Later	-6787
▁Watch	-6788
▁falls	-6789
▁fourth	-6790
▁meters	-6791
▁reject	-6792
▁Toronto	-6793
▁anxiety	-6794
▁sisters	-6795
▁continues	-6796
▁operators	-6797
▁reference	-6798
▁productive	-6799
▁Bu	-6800
▁Ts	-6801
aign	-6802
inct	-6803
mary	-6804
rant	-6805
▁pup	-6806
▁bowl	-6807
▁sons	-6808
outube	-6809
ulture	-6810
▁Inter	-6811
▁Party	-6812
▁spicy	-6813
▁well-	-6814
▁Sendai	-6815
▁belive	-6816
▁incent	-6817
▁deserve	-6818
▁delivery	-6819
▁domestic	-6820
▁intended	-6821
▁badminton	-6822
▁chemistry	-6823
▁Association	-6824
▁embarrassed	-6825
▁improvements	-6826
sters	-6827
▁1986	-6828
▁Luck	-6829
▁bell	-6830
▁dict	-6831
ternal	-6832
▁prime	-6833
▁silly	-6834
▁trial	-6835
▁philos	-6836
▁spanish	-6837
▁Peterson	-6838
▁Currently	-6839
▁industries	-6840
▁programmes	-6841
▁imagination	-6842
▁suggestions	-6843
▁automatically	-6844
iku	-6845
ford	-6846
name	-6847
quar	-6848
itled	-6849
▁Port	-6850
▁ears	-6851
▁enem	-6852
▁feas	-6853
▁rude	-6854
▁accum	-6855
▁soooo	-6856
▁athlet	-6857
▁images	-6858
▁symbol	-6859
▁Olympic	-6860
▁deliver	-6861
▁garbage	-6862
▁Khandani	-6863
▁handsome	-6864
▁receiving	-6865
▁worldwide	-6866
▁assistance	-6867
▁incredible	-6868
65	-6869
▁ye	-6870
olic	-6871
pped	-6872
uled	-6873
▁Cel	-6874
▁Off	-6875
▁Ori	-6876
▁dil	-6877
▁insu	-6878
▁leng	-6879
▁rains	-6880
▁excess	-6881
▁musics	-6882
▁repeat	-6883
▁killing	-6884
▁seasons	-6885
▁replaced	-6886
▁plutonium	-6887
▁equipments	-6888
▁ingredients	-6889
▁approximately	-6890
UM	-6891
cons	-6892
▁Met	-6893
▁bul	-6894
▁2012	-6895
▁Kobe	-6896
▁vacc	-6897
peared	-6898
▁Intro	-6899
▁beans	-6900
▁hoped	-6901
▁quake	-6902
▁fright	-6903
▁loudly	-6904
▁retire	-6905
▁dealing	-6906
▁pointed	-6907
▁stations	-6908
▁subtitle	-6909
▁reception	-6910
▁recycling	-6911
▁RE	-6912
edic	-6913
icip	-6914
roll	-6915
▁FOR	-6916
▁Mor	-6917
adget	-6918
iking	-6919
uries	-6920
▁dose	-6921
▁rural	-6922
▁threw	-6923
isation	-6924
▁bridge	-6925
▁filial	-6926
▁relief	-6927
▁chatted	-6928
▁retired	-6929
▁criminal	-6930
▁existence	-6931
▁institute	-6932
▁nightmare	-6933
▁tournament	-6934
▁countryside	-6935
▁programming	-6936
▁Additionally	-6937
▁informations	-6938
bu	-6939
kg	-6940
opp	-6941
ota	-6942
▁Ir	-6943
▁Ms	-6944
olen	-6945
▁Back	-6946
▁Bang	-6947
▁Sapp	-6948
▁oven	-6949
▁brave	-6950
▁disab	-6951
▁desper	-6952
▁homest	-6953
▁stands	-6954
▁//www.m	-6955
▁borrowed	-6956
▁millions	-6957
▁brilliant	-6958
▁encounter	-6959
▁explosion	-6960
▁furniture	-6961
▁reprocess	-6962
▁treatments	-6963
bre	-6964
oted	-6965
uchi	-6966
▁5th	-6967
▁Bec	-6968
▁//en	-6969
▁Kans	-6970
▁Prof	-6971
▁envy	-6972
▁hole	-6973
▁poem	-6974
▁runs	-6975
uments	-6976
▁Forum	-6977
▁click	-6978
▁unbel	-6979
▁orange	-6980
▁evidence	-6981
▁Eventually	-6982
▁affordable	-6983
▁physically	-6984
▁serendipitous	-6985
php	-6986
▁pa	-6987
look	-6988
▁197	-6989
▁Rom	-6990
asaki	-6991
▁hire	-6992
▁nort	-6993
▁pink	-6994
▁plat	-6995
▁awake	-6996
▁cells	-6997
▁chips	-6998
▁sandw	-6999
▁Person	-7000
▁casual	-7001
▁Leisure	-7002
▁appears	-7003
▁officer	-7004
▁multiple	-7005
▁unnecess	-7006
▁surrounding	-7007
▁requirements	-7008
▁identification	-7009
▁implementation	-7010
abe	-7011
hab	-7012
kok	-7013
.php	-7014
kind	-7015
▁Dec	-7016
▁Gir	-7017
▁Hak	-7018
▁fond	-7019
▁hind	-7020
▁mini	-7021
▁toys	-7022
usting	-7023
▁minds	-7024
▁nurse	-7025
▁commit	-7026
▁tasted	-7027
▁vision	-7028
▁winner	-7029
-nuclear	-7030
▁claimed	-7031
▁explore	-7032
▁follows	-7033
▁kilomet	-7034
▁nursing	-7035
▁smiling	-7036
▁cheerful	-7037
▁imagined	-7038
▁pregnant	-7039
▁decreasing	-7040
▁expectation	-7041
OP	-7042
Gen	-7043
▁Fil	-7044
▁Job	-7045
▁Jun	-7046
.aspx	-7047
backs	-7048
oscow	-7049
▁1998	-7050
▁boom	-7051
▁fest	-7052
▁file	-7053
▁shift	-7054
▁urban	-7055
▁pocket	-7056
▁potato	-7057
iversary	-7058
▁confirm	-7059
▁physics	-7060
▁raising	-7061
▁addicted	-7062
▁motorcycle	-7063
.uk	-7064
kes	-7065
▁BE	-7066
asia	-7067
▁Few	-7068
▁Mur	-7069
▁fab	-7070
riers	-7071
▁Jack	-7072
▁cond	-7073
▁miso	-7074
▁seats	-7075
content	-7076
▁Family	-7077
▁belief	-7078
▁tested	-7079
▁Sapporo	-7080
▁monthly	-7081
▁package	-7082
▁passage	-7083
▁homestay	-7084
▁limiting	-7085
▁possibly	-7086
▁objective	-7087
▁obligated	-7088
▁recovered	-7089
▁terrorist	-7090
▁Psychology	-7091
▁expectancy	-7092
▁statistics	-7093
-m	-7094
IG	-7095
ds	-7096
ded	-7097
gly	-7098
iba	-7099
rer	-7100
▁Sub	-7101
▁capt	-7102
▁chan	-7103
▁dess	-7104
▁frist	-7105
▁pants	-7106
ievable	-7107
ologist	-7108
▁Report	-7109
▁mature	-7110
▁switch	-7111
▁Rainbow	-7112
▁reduces	-7113
▁campaign	-7114
▁reminded	-7115
▁Otherwise	-7116
▁originally	-7117
ga	-7118
▁Sk	-7119
requ	-7120
▁ble	-7121
ented	-7122
index	-7123
▁fees	-7124
▁roof	-7125
▁thor	-7126
▁belie	-7127
▁bills	-7128
▁blame	-7129
▁parks	-7130
▁ignore	-7131
▁square	-7132
▁stages	-7133
▁wastes	-7134
▁conflic	-7135
▁happily	-7136
▁learner	-7137
▁tremend	-7138
iferation	-7139
▁arranged	-7140
▁hundreds	-7141
▁illnesses	-7142
▁organizations	-7143
90	-7144
uct	-7145
▁L.	-7146
▁OS	-7147
itty	-7148
rett	-7149
▁ben	-7150
▁wit	-7151
eting	-7152
▁didn	-7153
igence	-7154
▁Obama	-7155
▁Radio	-7156
▁enorm	-7157
▁irrit	-7158
▁recie	-7159
▁steam	-7160
▁league	-7161
▁reward	-7162
▁stolen	-7163
▁outdoor	-7164
▁passive	-7165
▁schemes	-7166
▁shorter	-7167
▁carrying	-7168
▁farewell	-7169
▁Halloween	-7170
▁microwave	-7171
▁promising	-7172
▁sophistic	-7173
▁inevitable	-7174
▁strategies	-7175
▁grandparents	-7176
IR	-7177
aga	-7178
car	-7179
ocr	-7180
▁ll	-7181
ails	-7182
apse	-7183
▁Mov	-7184
▁Nar	-7185
▁Wil	-7186
▁por	-7187
iated	-7188
inate	-7189
ingly	-7190
▁Book	-7191
▁folk	-7192
▁tips	-7193
ipping	-7194
▁19:30	-7195
▁Labor	-7196
▁bound	-7197
▁crack	-7198
▁kinda	-7199
▁long-	-7200
▁reput	-7201
▁tokyo	-7202
▁Moscow	-7203
▁costly	-7204
▁fishes	-7205
▁safely	-7206
▁conscious	-7207
▁comparison	-7208
▁financially	-7209
cil	-7210
▁Ah	-7211
▁EN	-7212
aded	-7213
endo	-7214
▁Mid	-7215
▁ache	-7216
▁adequ	-7217
▁gifts	-7218
▁Agency	-7219
▁argued	-7220
▁horror	-7221
▁rental	-7222
▁weapon	-7223
articles	-7224
▁finance	-7225
▁options	-7226
▁coworker	-7227
▁moreover	-7228
▁temporary	-7229
▁passengers	-7230
▁revolution	-7231
▁disappeared	-7232
IL	-7233
ta	-7234
▁PR	-7235
▁GPS	-7236
▁Sen	-7237
▁tip	-7238
ourse	-7239
▁wire	-7240
rivacy	-7241
▁Fried	-7242
▁agent	-7243
▁bride	-7244
▁honey	-7245
▁overs	-7246
▁bodies	-7247
▁client	-7248
▁script	-7249
▁warmer	-7250
▁mothers	-7251
▁emotions	-7252
▁stressed	-7253
▁described	-7254
▁designers	-7255
▁emissions	-7256
▁celebrated	-7257
▁techniques	-7258
▁manufacture	-7259
▁pp	-7260
adow	-7261
berg	-7262
▁Sil	-7263
eries	-7264
weigh	-7265
▁Swed	-7266
▁cuis	-7267
▁nick	-7268
▁prev	-7269
▁puzz	-7270
.org/w	-7271
alking	-7272
▁sides	-7273
▁spell	-7274
ortable	-7275
▁acquire	-7276
unication	-7277
▁begining	-7278
▁colorful	-7279
▁distingu	-7280
▁scholars	-7281
▁superior	-7282
▁Provident	-7283
▁adventure	-7284
▁dependent	-7285
▁landscape	-7286
▁renewable	-7287
▁accomplish	-7288
▁limitation	-7289
▁surrounded	-7290
▁unnecessary	-7291
▁Surveillance	-7292
cri	-7293
son	-7294
▁K.	-7295
▁ME	-7296
rete	-7297
what	-7298
▁LFR	-7299
▁Rel	-7300
▁rhy	-7301
iment	-7302
▁Free	-7303
▁deny	-7304
▁elev	-7305
▁leaf	-7306
▁mate	-7307
▁none	-7308
▁pets	-7309
▁Using	-7310
▁pharm	-7311
▁Autumn	-7312
▁Poland	-7313
▁branch	-7314
▁expert	-7315
▁gadget	-7316
▁launch	-7317
▁recipe	-7318
▁skiing	-7319
▁supper	-7320
▁Company	-7321
▁Society	-7322
▁Youtube	-7323
▁drivers	-7324
▁talents	-7325
▁Honestly	-7326
rt	-7327
map	-7328
▁R.	-7329
▁400	-7330
▁Club	-7331
▁Drag	-7332
erland	-7333
rested	-7334
▁Music	-7335
▁cater	-7336
▁snack	-7337
▁treas	-7338
▁Future	-7339
▁Robert	-7340
▁grades	-7341
▁lesser	-7342
▁shirts	-7343
▁vulner	-7344
▁hanging	-7345
▁massive	-7346
▁overtime	-7347
▁stranger	-7348
▁goverment	-7349
▁separated	-7350
▁generating	-7351
▁terrorists	-7352
▁examinations	-7353
▁WH	-7354
html	-7355
▁429	-7356
▁sin	-7357
ching	-7358
rants	-7359
utive	-7360
▁mush	-7361
inated	-7362
▁appet	-7363
▁incom	-7364
▁recom	-7365
▁upper	-7366
▁Amazon	-7367
▁Kansai	-7368
▁assess	-7369
▁proved	-7370
▁strain	-7371
▁wisdom	-7372
▁Windows	-7373
▁elements	-7374
▁disasters	-7375
▁proportion	-7376
▁struggling	-7377
▁sophisticated	-7378
.in	-7379
agi	-7380
hew	-7381
itz	-7382
ora	-7383
ued	-7384
▁SP	-7385
▁fi	-7386
iffe	-7387
▁Lat	-7388
▁Non	-7389
▁ped	-7390
▁vast	-7391
▁amuse	-7392
▁parag	-7393
ularies	-7394
▁Global	-7395
▁admire	-7396
▁visual	-7397
ortunate	-7398
▁Fukuoka	-7399
▁initial	-7400
▁accustom	-7401
▁repeated	-7402
▁popularity	-7403
▁consequence	-7404
▁insufficient	-7405
/f	-7406
17	-7407
CR	-7408
alf	-7409
Tube	-7410
ilty	-7411
irth	-7412
ophy	-7413
▁Cat	-7414
▁awk	-7415
▁mac	-7416
eness	-7417
pping	-7418
▁Jane	-7419
▁bord	-7420
phones	-7421
▁Apart	-7422
▁Prime	-7423
▁plate	-7424
▁waves	-7425
respond	-7426
▁Ageing	-7427
▁History	-7428
▁collage	-7429
▁divided	-7430
▁interst	-7431
▁suicide	-7432
▁Compared	-7433
▁Mandarin	-7434
▁suprised	-7435
▁christmas	-7436
▁estimated	-7437
▁personally	-7438
▁Singaporean	-7439
25	-7440
38	-7441
ida	-7442
ipe	-7443
▁Hy	-7444
bour	-7445
rich	-7446
▁Too	-7447
▁rum	-7448
itten	-7449
▁Come	-7450
▁crit	-7451
▁unre	-7452
atural	-7453
icious	-7454
▁congr	-7455
▁dedic	-7456
▁illeg	-7457
▁incur	-7458
▁print	-7459
▁prior	-7460
▁cooler	-7461
▁fallen	-7462
▁prison	-7463
▁signed	-7464
▁Parents	-7465
▁ashamed	-7466
▁convert	-7467
▁painted	-7468
▁portion	-7469
▁precise	-7470
▁trained	-7471
▁indirect	-7472
▁organize	-7473
▁struggle	-7474
▁Community	-7475
▁politicians	-7476
▁underground	-7477
/A	-7478
/C	-7479
67	-7480
EST	-7481
rep	-7482
sip	-7483
▁Up	-7484
▁km	-7485
ends	-7486
outs	-7487
▁lad	-7488
▁tap	-7489
▁une	-7490
ansen	-7491
▁Math	-7492
▁non-	-7493
mitted	-7494
pecial	-7495
▁innoc	-7496
▁lying	-7497
▁behavi	-7498
▁hairst	-7499
▁//www.s	-7500
▁Britain	-7501
▁YouTube	-7502
▁exposed	-7503
▁selfish	-7504
.org/wiki	-7505
▁quantity	-7506
▁comparing	-7507
▁stability	-7508
▁regardless	-7509
▁mathematics	-7510
▁vocabularies	-7511
umi	-7512
una	-7513
▁Iz	-7514
▁Op	-7515
▁WE	-7516
▁Den	-7517
▁Mel	-7518
acles	-7519
itage	-7520
▁Mart	-7521
▁alot	-7522
▁ener	-7523
▁symp	-7524
▁dried	-7525
▁fifty	-7526
▁loose	-7527
▁scare	-7528
▁jacket	-7529
▁refuse	-7530
▁experts	-7531
▁haven't	-7532
▁mission	-7533
▁wasting	-7534
▁worries	-7535
▁Electric	-7536
▁bringing	-7537
▁freshman	-7538
▁greeting	-7539
▁property	-7540
▁youngest	-7541
▁procedures	-7542
▁anniversary	-7543
▁challenging	-7544
▁experiments	-7545
ya	-7546
aby	-7547
▁Jo	-7548
▁NO	-7549
fall	-7550
iken	-7551
ully	-7552
▁GDP	-7553
▁Old	-7554
▁bug	-7555
▁Miss	-7556
▁disg	-7557
▁pump	-7558
▁persu	-7559
▁taxes	-7560
-Cooled	-7561
▁Winter	-7562
▁differ	-7563
▁easing	-7564
▁google	-7565
▁qualif	-7566
▁wasted	-7567
▁Roberts	-7568
▁Someday	-7569
▁cameras	-7570
▁cleaner	-7571
▁commute	-7572
▁fortune	-7573
▁minimum	-7574
▁patience	-7575
▁platform	-7576
.wikipedia	-7577
▁disorders	-7578
▁mysterious	-7579
▁journalists	-7580
fly	-7581
isp	-7582
sue	-7583
thm	-7584
uke	-7585
abet	-7586
hiba	-7587
ruct	-7588
zard	-7589
▁238	-7590
▁anc	-7591
▁spa	-7592
▁Soon	-7593
▁drew	-7594
ivered	-7595
▁Board	-7596
▁Micro	-7597
▁dying	-7598
▁facts	-7599
▁flour	-7600
arently	-7601
iration	-7602
ruction	-7603
▁amazed	-7604
▁booked	-7605
▁clever	-7606
▁implic	-7607
▁academy	-7608
▁aggress	-7609
▁decline	-7610
▁defense	-7611
▁ethical	-7612
▁focused	-7613
▁happier	-7614
▁printed	-7615
▁russian	-7616
▁teaches	-7617
▁deadline	-7618
▁identity	-7619
▁outweigh	-7620
▁Listening	-7621
▁gathering	-7622
▁household	-7623
▁intention	-7624
▁promotion	-7625
▁scientist	-7626
▁//en.wikipedia	-7627
7/	-7628
upp	-7629
▁LA	-7630
▁fo	-7631
▁vs	-7632
amil	-7633
sius	-7634
▁THAT	-7635
▁anti	-7636
▁konw	-7637
▁shel	-7638
▁White	-7639
▁lifes	-7640
▁proof	-7641
▁slang	-7642
▁tries	-7643
▁behave	-7644
▁excite	-7645
▁mirror	-7646
▁molten	-7647
▁societ	-7648
▁sunset	-7649
▁comprom	-7650
▁fingers	-7651
▁undergo	-7652
▁composed	-7653
▁dreaming	-7654
▁substant	-7655
▁Available	-7656
▁meaningful	-7657
▁economically	-7658
OG	-7659
jo	-7660
New	-7661
fid	-7662
pal	-7663
uro	-7664
▁CH	-7665
▁J.	-7666
athy	-7667
soft	-7668
▁gay	-7669
▁mob	-7670
▁rab	-7671
▁twe	-7672
▁unw	-7673
iscal	-7674
raine	-7675
times	-7676
▁20th	-7677
▁Know	-7678
▁soap	-7679
▁verb	-7680
cience	-7681
lation	-7682
▁Grand	-7683
▁Sushi	-7684
▁jeans	-7685
▁Regard	-7686
▁Taking	-7687
▁refund	-7688
▁fiction	-7689
▁grammat	-7690
▁payment	-7691
▁McDonald	-7692
▁involves	-7693
▁regarded	-7694
▁correspond	-7695
▁confortable	-7696
▁earthquakes	-7697
EA	-7698
LD	-7699
-of	-7700
TER	-7701
eic	-7702
ray	-7703
▁Gre	-7704
▁HDB	-7705
/2009	-7706
iyaki	-7707
▁Hear	-7708
▁tank	-7709
▁recru	-7710
▁Sports	-7711
▁caring	-7712
▁silent	-7713
▁wether	-7714
▁involve	-7715
▁refused	-7716
▁weekday	-7717
▁careless	-7718
▁constant	-7719
▁enormous	-7720
▁meanings	-7721
▁Christian	-7722
▁Committee	-7723
▁coworkers	-7724
▁terrorism	-7725
▁Vietnamese	-7726
▁definition	-7727
▁regulations	-7728
▁temperatures	-7729
NA	-7730
ua	-7731
che	-7732
imi	-7733
isa	-7734
olf	-7735
usa	-7736
▁Bet	-7737
▁MSN	-7738
▁eco	-7739
▁mos	-7740
getic	-7741
▁15th	-7742
▁Four	-7743
▁Sara	-7744
▁gene	-7745
▁grab	-7746
uition	-7747
▁award	-7748
▁bands	-7749
▁legal	-7750
▁packed	-7751
▁proven	-7752
ographic	-7753
▁mankind	-7754
▁muscles	-7755
▁publish	-7756
▁Business	-7757
▁attacked	-7758
▁focusing	-7759
▁satisfaction	-7760
BC	-7761
iko	-7762
iri	-7763
▁ho	-7764
-240	-7765
arsh	-7766
isco	-7767
▁Ann	-7768
▁Mr.	-7769
etics	-7770
▁Conc	-7771
▁bond	-7772
▁pour	-7773
▁sung	-7774
▁19.30	-7775
▁Organ	-7776
▁adopt	-7777
▁bunch	-7778
▁coast	-7779
▁maker	-7780
▁unfor	-7781
▁heaven	-7782
▁sooner	-7783
▁tought	-7784
utrition	-7785
▁awkward	-7786
▁bedroom	-7787
▁clients	-7788
▁dreamed	-7789
▁ignored	-7790
▁lottery	-7791
▁feasible	-7792
▁keyboard	-7793
▁healthier	-7794
▁motivated	-7795
▁sustainable	-7796
apy	-7797
gar	-7798
uma	-7799
emon	-7800
▁Ass	-7801
▁CDs	-7802
▁Kar	-7803
▁dia	-7804
inent	-7805
▁mixi	-7806
aching	-7807
erable	-7808
▁David	-7809
▁jokes	-7810
▁medal	-7811
▁waked	-7812
▁Living	-7813
▁unfair	-7814
▁update	-7815
▁attacks	-7816
▁command	-7817
▁joining	-7818
▁moments	-7819
▁skilled	-7820
▁workshop	-7821
▁Hopefully	-7822
▁paragraph	-7823
▁accustomed	-7824
▁comprehens	-7825
▁snowboarding	-7826
ANG	-7827
aus	-7828
exp	-7829
▁1.	-7830
/gen	-7831
▁Mil	-7832
attle	-7833
enger	-7834
ghter	-7835
ician	-7836
pleas	-7837
▁21st	-7838
▁whis	-7839
iently	-7840
rating	-7841
▁Count	-7842
▁Train	-7843
▁deple	-7844
▁storm	-7845
▁windy	-7846
quarium	-7847
▁barely	-7848
▁bitter	-7849
▁crimes	-7850
▁models	-7851
▁stairs	-7852
▁//www.b	-7853
▁Bangkok	-7854
▁logical	-7855
▁sadness	-7856
▁silence	-7857
▁canceled	-7858
▁consumer	-7859
▁interact	-7860
▁resident	-7861
▁touching	-7862
▁cigarette	-7863
▁proliferation	-7864
aled	-7865
aved	-7866
osis	-7867
ront	-7868
verb	-7869
▁Tos	-7870
▁Try	-7871
ifying	-7872
ishing	-7873
▁Chiba	-7874
▁onion	-7875
▁spots	-7876
▁trick	-7877
▁ancest	-7878
▁defect	-7879
▁fiscal	-7880
▁seniors	-7881
▁advertis	-7882
▁meltdown	-7883
▁partners	-7884
▁confusing	-7885
▁criminals	-7886
▁delivered	-7887
▁energetic	-7888
▁scholarship	-7889
▁continuously	-7890
CT	-7891
St	-7892
ju	-7893
ss	-7894
_re	-7895
▁33	-7896
▁au	-7897
iger	-7898
umes	-7899
▁Rem	-7900
▁Vol	-7901
▁wid	-7902
icill	-7903
▁Need	-7904
▁Play	-7905
▁Post	-7906
▁dust	-7907
▁laun	-7908
▁Write	-7909
viously	-7910
▁frozen	-7911
▁rabbit	-7912
▁smiled	-7913
▁//www.c	-7914
▁analyze	-7915
▁firstly	-7916
▁prosper	-7917
vironment	-7918
▁Shinjuku	-7919
▁belonged	-7920
▁emphasis	-7921
▁recovery	-7922
▁supports	-7923
▁architect	-7924
▁concentration	-7925
/h	-7926
22	-7927
lim	-7928
ethe	-7929
▁Lin	-7930
▁cuz	-7931
craft	-7932
▁Hosp	-7933
▁edge	-7934
▁grat	-7935
▁perf	-7936
▁pond	-7937
▁sixt	-7938
▁sofa	-7939
▁sole	-7940
▁sout	-7941
▁yeah	-7942
▁Smith	-7943
▁barbe	-7944
▁loving	-7945
▁Systems	-7946
▁oneself	-7947
▁possess	-7948
▁certific	-7949
▁commonly	-7950
▁competit	-7951
▁sickness	-7952
▁Robertson	-7953
▁Sincerely	-7954
▁hamburger	-7955
▁succeeded	-7956
▁textbooks	-7957
▁opposition	-7958
▁reputation	-7959
▁controversial	-7960
▁possibilities	-7961
gi	-7962
hh	-7963
era	-7964
▁C.	-7965
elve	-7966
then	-7967
▁Pal	-7968
▁Sol	-7969
endar	-7970
uters	-7971
▁Fall	-7972
▁evil	-7973
▁wars	-7974
▁Starb	-7975
▁Young	-7976
▁gorge	-7977
▁input	-7978
▁sharp	-7979
▁devast	-7980
▁nights	-7981
▁Elderly	-7982
▁compete	-7983
▁congrat	-7984
▁cooling	-7985
▁enables	-7986
▁occured	-7987
▁podcast	-7988
▁proceed	-7989
▁warning	-7990
▁starring	-7991
▁arguments	-7992
▁neglected	-7993
▁procedure	-7994
▁cooperation	-7995
▁requirement	-7996
▁reprocessing	-7997
▁characteristics	-7998
kin	-7999
uka	-8000
▁CO	-8001
▁GM	-8002
▁Lo	-8003
atly	-8004
brid	-8005
ikes	-8006
ummy	-8007
year	-8008
▁800	-8009
▁CNN	-8010
▁caf	-8011
▁van	-8012
▁West	-8013
▁chef	-8014
▁rose	-8015
▁baked	-8016
▁suits	-8017
▁surge	-8018
▁texts	-8019
vention	-8020
▁reader	-8021
▁traged	-8022
.edu.sg/	-8023
▁Karaoke	-8024
▁Luckily	-8025
▁dialect	-8026
▁disturb	-8027
▁harvest	-8028
▁wheelch	-8029
▁Recentry	-8030
▁adequate	-8031
▁somewhat	-8032
▁symptoms	-8033
▁tendency	-8034
▁Something	-8035
▁Wikipedia	-8036
▁amusement	-8037
▁organised	-8038
▁continuous	-8039
▁controlled	-8040
▁preventing	-8041
▁fascinating	-8042
▁increasingly	-8043
▁communicating	-8044
--	-8045
lt	-8046
nig	-8047
▁55	-8048
ango	-8049
▁Shi	-8050
▁hip	-8051
▁kan	-8052
ormal	-8053
▁13th	-8054
▁2030	-8055
▁Sure	-8056
▁temp	-8057
ronics	-8058
▁Class	-8059
▁hated	-8060
▁honor	-8061
▁lovers	-8062
▁picnic	-8063
▁resign	-8064
inkansen	-8065
▁Foreign	-8066
▁belongs	-8067
▁examine	-8068
▁largely	-8069
▁museums	-8070
▁robotic	-8071
▁summary	-8072
▁Watching	-8073
▁homeless	-8074
▁President	-8075
▁recession	-8076
▁standards	-8077
▁Electronic	-8078
▁graduating	-8079
▁instructor	-8080
▁vulnerable	-8081
▁discoveries	-8082
/n	-8083
OK	-8084
▁Er	-8085
▁Ni	-8086
▁SW	-8087
rown	-8088
ulty	-8089
▁Pen	-8090
▁mas	-8091
isave	-8092
odate	-8093
▁Sing	-8094
▁fuck	-8095
▁intr	-8096
▁onto	-8097
izuoka	-8098
▁10000	-8099
▁Buddh	-8100
▁Franc	-8101
▁Going	-8102
icillin	-8103
▁Doctor	-8104
▁atomic	-8105
activity	-8106
▁238-240	-8107
▁adopted	-8108
▁confuse	-8109
▁customs	-8110
▁earning	-8111
▁leaning	-8112
▁maximum	-8113
▁realise	-8114
▁sailing	-8115
▁sounded	-8116
▁minimize	-8117
▁talented	-8118
▁Statistics	-8119
▁intelligent	-8120
84	-8121
-in	-8122
ado	-8123
iji	-8124
oma	-8125
▁B.	-8126
▁P.	-8127
otes	-8128
▁CIT	-8129
▁Jap	-8130
▁Nov	-8131
▁hay	-8132
▁Road	-8133
▁plot	-8134
▁unit	-8135
astrop	-8136
ushing	-8137
▁anger	-8138
▁divor	-8139
▁fifth	-8140
▁trash	-8141
▁Street	-8142
▁banana	-8143
▁divers	-8144
▁hahaha	-8145
▁owners	-8146
▁reform	-8147
▁scores	-8148
▁tackle	-8149
ficiency	-8150
▁Toshiba	-8151
▁expense	-8152
▁premium	-8153
▁advances	-8154
▁creation	-8155
▁province	-8156
▁revealed	-8157
▁violence	-8158
▁factories	-8159
▁paintings	-8160
▁incentives	-8161
▁manufacturing	-8162
▁environmentally	-8163
/c	-8164
la	-8165
.co	-8166
ako	-8167
asty	-8168
roid	-8169
▁dat	-8170
▁rub	-8171
apter	-8172
tered	-8173
uated	-8174
▁1990	-8175
▁Food	-8176
▁Nara	-8177
▁chop	-8178
▁spag	-8179
▁ugly	-8180
▁River	-8181
▁facil	-8182
▁forty	-8183
▁mates	-8184
▁moder	-8185
▁oppot	-8186
▁Dragon	-8187
▁diving	-8188
▁exists	-8189
ferences	-8190
▁Wilpert	-8191
▁cookies	-8192
▁fitness	-8193
▁unpleas	-8194
▁Reactors	-8195
▁remained	-8196
▁weekdays	-8197
▁convinced	-8198
▁resulting	-8199
▁continuing	-8200
▁convention	-8201
▁distinguish	-8202
▁importantly	-8203
▁Supercritical	-8204
-1	-8205
39	-8206
AB	-8207
net	-8208
off	-8209
▁T.	-8210
lete	-8211
rene	-8212
rfid	-8213
zhou	-8214
▁600	-8215
▁fal	-8216
▁fra	-8217
▁tid	-8218
quake	-8219
▁Beat	-8220
▁aims	-8221
▁guid	-8222
▁litt	-8223
ackson	-8224
▁James	-8225
▁fatig	-8226
herland	-8227
▁hotels	-8228
▁silver	-8229
▁twelve	-8230
▁typing	-8231
▁Nothing	-8232
▁Testing	-8233
▁barrier	-8234
▁pretend	-8235
▁Computer	-8236
▁breaking	-8237
▁gorgeous	-8238
▁socially	-8239
▁fertility	-8240
▁neighbour	-8241
▁personnel	-8242
▁scheduled	-8243
▁secondary	-8244
▁monitoring	-8245
▁resolution	-8246
▁introducing	-8247
▁championship	-8248
▁unbelievable	-8249
/m	-8250
EP	-8251
The	-8252
rob	-8253
zzy	-8254
-and	-8255
atar	-8256
atto	-8257
▁GIF	-8258
▁Gas	-8259
▁lun	-8260
,2009	-8261
alous	-8262
umber	-8263
▁Alth	-8264
▁Stra	-8265
▁Tele	-8266
▁Wish	-8267
▁bars	-8268
▁bite	-8269
▁bree	-8270
▁fash	-8271
▁tons	-8272
▁agric	-8273
▁plain	-8274
amental	-8275
▁injury	-8276
▁jumped	-8277
▁occurs	-8278
▁prohib	-8279
▁reluct	-8280
▁server	-8281
▁General	-8282
▁Ukraine	-8283
▁advised	-8284
▁cuisine	-8285
▁outcome	-8286
▁quarter	-8287
▁regrett	-8288
▁tommorow	-8289
▁unforget	-8290
▁immediate	-8291
▁collection	-8292
▁troublesome	-8293
▁disadvantage	-8294
▁supercritical	-8295
1/	-8296
ui	-8297
ham	-8298
ias	-8299
gled	-8300
udes	-8301
▁Adv	-8302
▁Mag	-8303
▁Wow	-8304
▁eve	-8305
▁gos	-8306
▁11th	-8307
▁Okay	-8308
▁Rest	-8309
▁Serv	-8310
▁para	-8311
▁penc	-8312
▁wich	-8313
▁zero	-8314
illing	-8315
▁Study	-8316
▁audio	-8317
▁phase	-8318
▁potat	-8319
▁scold	-8320
iculous	-8321
▁Little	-8322
▁decade	-8323
▁extend	-8324
▁rhythm	-8325
▁submit	-8326
▁temper	-8327
▁guessed	-8328
▁mystery	-8329
▁recycle	-8330
▁revenue	-8331
▁allowing	-8332
▁appetite	-8333
▁shooting	-8334
▁prevention	-8335
▁competitions	-8336
EO	-8337
RT	-8338
yu	-8339
▁Ot	-8340
.nus	-8341
aple	-8342
cake	-8343
enza	-8344
gant	-8345
hett	-8346
▁GFR	-8347
▁NOT	-8348
▁dic	-8349
▁nep	-8350
▁soo	-8351
▁veg	-8352
ivals	-8353
ograp	-8354
rimin	-8355
table	-8356
▁Arts	-8357
▁Fire	-8358
▁Star	-8359
▁flaw	-8360
▁knee	-8361
▁pose	-8362
▁rang	-8363
▁root	-8364
▁Manga	-8365
▁Ramen	-8366
▁Surpr	-8367
▁chest	-8368
▁knock	-8369
▁stret	-8370
ificial	-8371
▁Academ	-8372
▁hidden	-8373
▁terrib	-8374
▁Profess	-8375
▁compuls	-8376
▁educate	-8377
▁readers	-8378
▁Economic	-8379
▁Hospital	-8380
▁collapse	-8381
▁wherever	-8382
▁catastrop	-8383
▁medicines	-8384
▁volunteers	-8385
▁combination	-8386
▁dramatically	-8387
▁implementing	-8388
no	-8389
▁q	-8390
bye	-8391
oba	-8392
▁H.	-8393
bing	-8394
cipl	-8395
▁Def	-8396
▁Sch	-8397
▁Tem	-8398
aired	-8399
chest	-8400
▁1996	-8401
▁Cher	-8402
▁Help	-8403
▁Land	-8404
▁plus	-8405
▁thri	-8406
▁ward	-8407
celona	-8408
encies	-8409
▁Alice	-8410
▁aston	-8411
▁blogs	-8412
ishment	-8413
mediate	-8414
ultural	-8415
▁Kindle	-8416
▁assume	-8417
▁guilty	-8418
▁stream	-8419
▁Working	-8420
▁beautif	-8421
▁grilled	-8422
▁licence	-8423
▁shouted	-8424
▁temples	-8425
▁accurate	-8426
▁acquaint	-8427
▁beatiful	-8428
▁discoura	-8429
▁honestly	-8430
▁interval	-8431
▁presence	-8432
▁exception	-8433
▁obstacles	-8434
▁reduction	-8435
▁responsib	-8436
IA	-8437
OD	-8438
RC	-8439
bar	-8440
▁Bi	-8441
▁Ma	-8442
▁NH	-8443
/doc	-8444
life	-8445
urai	-8446
▁150	-8447
▁7th	-8448
▁Bon	-8449
▁Tim	-8450
▁alt	-8451
▁rot	-8452
▁spo	-8453
▁thr	-8454
gical	-8455
▁Care	-8456
acause	-8457
ethics	-8458
▁flash	-8459
▁gloom	-8460
▁march	-8461
itution	-8462
▁handic	-8463
▁nephew	-8464
▁oldest	-8465
▁sexual	-8466
▁shadow	-8467
▁stroke	-8468
▁Celsius	-8469
▁costume	-8470
▁creates	-8471
▁fifteen	-8472
▁grandma	-8473
▁virtual	-8474
▁Studying	-8475
▁launched	-8476
▁shocking	-8477
▁Basically	-8478
▁discrimin	-8479
▁strangers	-8480
▁chocolates	-8481
▁achievement	-8482
▁researching	-8483
▁enthusiastic	-8484
▁radioactivity	-8485
lo	-8486
lus	-8487
pet	-8488
rig	-8489
▁Ev	-8490
heim	-8491
iser	-8492
rack	-8493
▁Jul	-8494
▁Mem	-8495
▁Yak	-8496
heast	-8497
▁Alex	-8498
▁Gram	-8499
▁Sche	-8500
▁tube	-8501
allery	-8502
orters	-8503
▁alway	-8504
▁clubs	-8505
▁forum	-8506
▁hiking	-8507
▁merely	-8508
▁strike	-8509
▁Jackson	-8510
▁defined	-8511
▁delayed	-8512
▁illegal	-8513
▁inspect	-8514
▁shaking	-8515
▁disposal	-8516
▁innocent	-8517
▁mentally	-8518
▁sentense	-8519
▁investing	-8520
▁long-term	-8521
-temperature	-8522
▁reservation	-8523
▁advertisment	-8524
▁respectively	-8525
DS	-8526
ANT	-8527
aru	-8528
ycl	-8529
▁Yu	-8530
/inf	-8531
ahoo	-8532
char	-8533
icon	-8534
illa	-8535
▁Ben	-8536
▁Bre	-8537
▁Hun	-8538
▁nav	-8539
aning	-8540
cular	-8541
icago	-8542
▁Anna	-8543
▁Lots	-8544
▁buck	-8545
▁buss	-8546
▁fake	-8547
▁ours	-8548
▁tire	-8549
▁tiss	-8550
.co.uk	-8551
stract	-8552
▁abund	-8553
▁bless	-8554
▁dolls	-8555
▁sheep	-8556
▁shoud	-8557
▁skate	-8558
▁tends	-8559
▁trips	-8560
▁Unlike	-8561
▁breeze	-8562
▁dialog	-8563
▁housew	-8564
▁length	-8565
▁poison	-8566
entially	-8567
graduate	-8568
▁Holiday	-8569
▁dressed	-8570
▁resolve	-8571
▁viewing	-8572
▁CITATION	-8573
▁Medisave	-8574
▁thorough	-8575
▁Microsoft	-8576
▁constrain	-8577
▁delighted	-8578
▁upgrading	-8579
▁attraction	-8580
▁somethings	-8581
▁fashionable	-8582
▁broadcasting	-8583
▁confidential	-8584
▁misunderstand	-8585
AIN	-8586
hin	-8587
ogi	-8588
pot	-8589
rot	-8590
uel	-8591
anes	-8592
anto	-8593
fish	-8594
▁Ins	-8595
▁Law	-8596
▁Que	-8597
agger	-8598
oston	-8599
▁Cost	-8600
▁Snow	-8601
▁Tell	-8602
rocery	-8603
▁Diary	-8604
▁Group	-8605
▁needy	-8606
▁shake	-8607
▁solid	-8608
▁steak	-8609
▁Polish	-8610
▁clouds	-8611
▁filmed	-8612
▁sevent	-8613
ollywood	-8614
▁Seattle	-8615
▁storage	-8616
▁aquarium	-8617
▁calendar	-8618
▁concrete	-8619
▁inspired	-8620
▁lectures	-8621
▁nickname	-8622
▁northern	-8623
▁proposal	-8624
▁collected	-8625
▁interpret	-8626
▁nutrition	-8627
▁realistic	-8628
▁strawberry	-8629
▁supermarkets	-8630
▁unemployment	-8631
don	-8632
not	-8633
oop	-8634
oub	-8635
▁Ur	-8636
High	-8637
achi	-8638
aste	-8639
gers	-8640
onym	-8641
▁Ant	-8642
▁Bur	-8643
▁ESL	-8644
▁Ken	-8645
anton	-8646
▁10th	-8647
▁ange	-8648
▁bone	-8649
▁ipod	-8650
everal	-8651
itures	-8652
▁Innov	-8653
▁abuse	-8654
▁boots	-8655
▁miles	-8656
▁minor	-8657
▁overw	-8658
▁route	-8659
▁skirt	-8660
isingly	-8661
minutes	-8662
▁define	-8663
▁driven	-8664
▁motorb	-8665
▁styles	-8666
▁wished	-8667
▁accents	-8668
▁dessert	-8669
▁enterpr	-8670
▁figures	-8671
▁observe	-8672
▁planing	-8673
▁prototy	-8674
▁seeking	-8675
▁tension	-8676
▁thunder	-8677
▁firework	-8678
▁meetings	-8679
▁portable	-8680
▁Engineers	-8681
▁expressed	-8682
▁hopefully	-8683
▁protected	-8684
▁Netherland	-8685
▁invitation	-8686
▁tremendous	-8687
▁univercity	-8688
▁accomodation	-8689
UC	-8690
/en	-8691
ria	-8692
▁Kh	-8693
▁NZ	-8694
▁xD	-8695
iton	-8696
orus	-8697
▁Mot	-8698
▁Whe	-8699
▁nin	-8700
▁pil	-8701
▁2050	-8702
▁Phys	-8703
▁Tour	-8704
▁buff	-8705
▁dare	-8706
▁germ	-8707
▁hehe	-8708
▁mart	-8709
▁sett	-8710
▁tone	-8711
▁wont	-8712
▁www.	-8713
▁cheep	-8714
▁dough	-8715
▁dumpl	-8716
ensions	-8717
ologies	-8718
▁Turkey	-8719
▁breast	-8720
▁desert	-8721
▁inject	-8722
▁makers	-8723
▁titled	-8724
▁closely	-8725
▁forgive	-8726
▁funeral	-8727
▁posting	-8728
▁accounts	-8729
▁internal	-8730
▁terribly	-8731
▁treasure	-8732
▁//www.gen	-8733
▁Barcelona	-8734
▁allocated	-8735
▁musicians	-8736
▁acceptable	-8737
▁interviews	-8738
▁philosophy	-8739
▁unpleasant	-8740
▁limitations	-8741
.e	-8742
64	-8743
OC	-8744
ea	-8745
2008	-8746
agon	-8747
ials	-8748
mers	-8749
uous	-8750
▁fry	-8751
▁oct	-8752
▁odd	-8753
acuse	-8754
akami	-8755
iders	-8756
oyaki	-8757
▁Lead	-8758
▁Plus	-8759
▁acts	-8760
▁boil	-8761
▁pupp	-8762
atient	-8763
course	-8764
▁acted	-8765
▁bonus	-8766
▁flats	-8767
▁grows	-8768
▁guard	-8769
▁halls	-8770
▁toler	-8771
ruption	-8772
▁Arabic	-8773
▁cancel	-8774
▁convey	-8775
▁labour	-8776
▁avoided	-8777
▁grocery	-8778
▁insects	-8779
▁oversea	-8780
▁tragedy	-8781
▁tuition	-8782
▁witness	-8783
▁Shizuoka	-8784
▁Whatever	-8785
▁elevator	-8786
▁employed	-8787
▁Friedland	-8788
▁behaviour	-8789
▁homeworks	-8790
▁movements	-8791
▁roommates	-8792
▁fascinated	-8793
▁skunkworks	-8794
.nus.edu.sg/	-8795
▁//www.world	-8796
▁attractions	-8797
▁circumstance	-8798
.2	-8799
EM	-8800
cm	-8801
ku	-8802
asa	-8803
lib	-8804
nds	-8805
uba	-8806
▁ky	-8807
▁ya	-8808
amin	-8809
ania	-8810
▁700	-8811
▁End	-8812
▁Nan	-8813
▁Str	-8814
▁sut	-8815
aters	-8816
azaki	-8817
▁Mary	-8818
▁isol	-8819
▁skip	-8820
ousing	-8821
▁Hotel	-8822
▁Youth	-8823
▁fairy	-8824
▁fancy	-8825
▁postp	-8826
ulating	-8827
▁Around	-8828
▁Scient	-8829
▁tiring	-8830
▁urgent	-8831
etheless	-8832
requency	-8833
▁Anyways	-8834
▁Several	-8835
▁amounts	-8836
▁comunic	-8837
▁damages	-8838
▁implant	-8839
▁shining	-8840
conscious	-8841
▁equipped	-8842
▁spelling	-8843
▁Starbucks	-8844
▁contained	-8845
▁refreshed	-8846
▁religious	-8847
▁compulsory	-8848
▁indirectly	-8849
34	-8850
6/	-8851
▁Mo	-8852
asue	-8853
ihab	-8854
▁Boy	-8855
▁Imp	-8856
▁Yuk	-8857
▁dur	-8858
▁jet	-8859
▁tie	-8860
.com.	-8861
.net/	-8862
eding	-8863
illed	-8864
osity	-8865
▁Give	-8866
▁unst	-8867
▁vote	-8868
bourne	-8869
▁draft	-8870
▁drawn	-8871
▁files	-8872
▁grave	-8873
ocratic	-8874
▁chilly	-8875
▁formed	-8876
▁liquid	-8877
▁remote	-8878
ifferent	-8879
▁anticip	-8880
▁jealous	-8881
▁actively	-8882
▁employer	-8883
▁external	-8884
▁offering	-8885
▁reserved	-8886
▁supervis	-8887
▁wireless	-8888
▁requested	-8889
▁encourages	-8890
▁mechanical	-8891
▁celebration	-8892
▁maintaining	-8893
▁contributing	-8894
▁participants	-8895
▁advertisements	-8896
▁representative	-8897
.5	-8898
09	-8899
TH	-8900
ks	-8901
zz	-8902
aho	-8903
ali	-8904
box	-8905
ser	-8906
▁75	-8907
▁IM	-8908
arts	-8909
pany	-8910
race	-8911
▁6th	-8912
▁Kat	-8913
▁Las	-8914
aping	-8915
▁Oper	-8916
▁bean	-8917
▁beca	-8918
▁itch	-8919
▁slim	-8920
▁surp	-8921
▁tear	-8922
acific	-8923
oshima	-8924
teries	-8925
▁mosqu	-8926
▁wears	-8927
ihabara	-8928
▁Boston	-8929
▁Employ	-8930
▁cooled	-8931
▁heater	-8932
▁Talking	-8933
▁Univers	-8934
▁absence	-8935
▁critics	-8936
▁nursery	-8937
.org/info	-8938
▁Accident	-8939
▁arrested	-8940
▁deterior	-8941
▁disabled	-8942
▁flexible	-8943
▁abandoned	-8944
▁apologize	-8945
▁festivals	-8946
▁literally	-8947
▁Laboratory	-8948
▁enthusiasm	-8949
▁Environment	-8950
▁investments	-8951
▁outstanding	-8952
▁professionals	-8953
/4	-8954
UL	-8955
-re	-8956
▁38	-8957
▁HA	-8958
▁ow	-8959
ause	-8960
rise	-8961
▁BUT	-8962
▁Bye	-8963
▁Eth	-8964
▁abn	-8965
hetti	-8966
oured	-8967
▁Word	-8968
▁bass	-8969
.shtml	-8970
▁arise	-8971
▁assum	-8972
▁chief	-8973
▁dizzy	-8974
▁doors	-8975
▁pride	-8976
▁suppl	-8977
▁walls	-8978
▁Always	-8979
▁Sweden	-8980
▁dating	-8981
▁essays	-8982
▁forces	-8983
▁heared	-8984
▁pushed	-8985
▁sacrif	-8986
▁Becouse	-8987
▁Chicago	-8988
▁Privacy	-8989
▁fission	-8990
▁highway	-8991
▁champion	-8992
▁humidity	-8993
▁invested	-8994
▁overwhel	-8995
▁Opponents	-8996
▁frequency	-8997
▁housework	-8998
▁intellect	-8999
▁predicted	-9000
▁qualified	-9001
▁transform	-9002
▁vacations	-9003
▁accounting	-9004
▁businesses	-9005
▁broadcasted	-9006
▁recommendation	-9007
-e	-9008
.1	-9009
27	-9010
ido	-9011
iner	-9012
oles	-9013
ouch	-9014
rait	-9015
vity	-9016
▁Nob	-9017
▁Top	-9018
▁der	-9019
▁fis	-9020
andom	-9021
▁Cong	-9022
▁Plan	-9023
▁Step	-9024
▁Vict	-9025
▁asks	-9026
▁sequ	-9027
▁soil	-9028
▁chann	-9029
▁inexp	-9030
▁lang8	-9031
▁posts	-9032
▁stops	-9033
▁swing	-9034
agement	-9035
through	-9036
verting	-9037
▁Portug	-9038
▁confir	-9039
▁dining	-9040
▁enrich	-9041
▁fellow	-9042
▁luxury	-9043
▁refers	-9044
▁fatigue	-9045
▁proverb	-9046
▁railway	-9047
▁soldiers	-9048
▁Akihabara	-9049
▁necessity	-9050
▁respected	-9051
▁authorities	-9052
▁fundamental	-9053
▁considerable	-9054
▁effectiveness	-9055
3-	-9056
55	-9057
UK	-9058
rg	-9059
gic	-9060
▁32	-9061
▁DS	-9062
/pdf	-9063
▁Bad	-9064
▁Ber	-9065
▁Chi	-9066
▁Ham	-9067
▁Tru	-9068
▁mig	-9069
▁pad	-9070
being	-9071
▁17th	-9072
▁Rome	-9073
▁Wall	-9074
▁chip	-9075
▁evac	-9076
▁junk	-9077
▁poet	-9078
bridge	-9079
stairs	-9080
▁Quest	-9081
▁candy	-9082
▁enemy	-9083
▁frame	-9084
▁roles	-9085
▁shool	-9086
▁waist	-9087
chestra	-9088
▁Cherry	-9089
▁Modern	-9090
▁adding	-9091
▁ballet	-9092
▁hazard	-9093
▁limits	-9094
▁uneasy	-9095
▁Similar	-9096
▁compens	-9097
▁discipl	-9098
▁evident	-9099
▁matches	-9100
▁mindset	-9101
▁profits	-9102
▁quarrel	-9103
▁episodes	-9104
.org/wiki/	-9105
▁incorrect	-9106
▁capability	-9107
▁association	-9108
-st	-9109
ava	-9110
iel	-9111
ira	-9112
raw	-9113
udi	-9114
▁Sl	-9115
blog	-9116
▁Cal	-9117
▁DNA	-9118
▁gig	-9119
▁ric	-9120
inger	-9121
rific	-9122
zheim	-9123
▁5000	-9124
▁Real	-9125
▁SWCR	-9126
▁Shib	-9127
▁mand	-9128
▁yard	-9129
l.gov/	-9130
▁Ident	-9131
▁ratio	-9132
▁signs	-9133
▁swine	-9134
▁wrest	-9135
atively	-9136
▁Nagano	-9137
▁attrib	-9138
▁burned	-9139
▁deaths	-9140
▁denied	-9141
▁manual	-9142
▁plates	-9143
aneously	-9144
▁Certain	-9145
▁adverse	-9146
▁reserve	-9147
▁writers	-9148
▁motivate	-9149
▁potatoes	-9150
▁decreased	-9151
▁neighbors	-9152
▁remaining	-9153
▁sacrifice	-9154
▁spaghetti	-9155
▁accessible	-9156
▁artificial	-9157
▁permission	-9158
▁description	-9159
▁//www.nature	-9160
A.	-9161
DF	-9162
In	-9163
eno	-9164
▁om	-9165
.org	-9166
aura	-9167
eday	-9168
eter	-9169
▁Eve	-9170
▁Lou	-9171
▁NBA	-9172
-high	-9173
hetic	-9174
weeks	-9175
▁25th	-9176
▁Pass	-9177
▁Phot	-9178
▁fold	-9179
▁sets	-9180
portal	-9181
▁Dream	-9182
▁Kanji	-9183
▁Tower	-9184
▁camps	-9185
▁drain	-9186
▁hight	-9187
▁//news	-9188
▁Master	-9189
▁Scheme	-9190
▁backed	-9191
▁chorus	-9192
▁ladies	-9193
▁pupils	-9194
ilingual	-9195
ologists	-9196
▁Frankly	-9197
▁abandon	-9198
▁climbed	-9199
▁consume	-9200
▁extract	-9201
▁fantasy	-9202
▁respons	-9203
▁victory	-9204
itzerland	-9205
▁channels	-9206
▁enhanced	-9207
▁exposure	-9208
▁obtained	-9209
▁thankful	-9210
ifications	-9211
▁highlight	-9212
▁immigrants	-9213
▁electronics	-9214
▁substantial	-9215
52	-9216
uh	-9217
ye	-9218
yn	-9219
▁£	-9220
aro	-9221
ios	-9222
ogh	-9223
▁Ka	-9224
▁Ta	-9225
ills	-9226
▁Nic	-9227
▁Unf	-9228
▁fow	-9229
▁lug	-9230
akaya	-9231
▁3000	-9232
▁Tina	-9233
▁idol	-9234
▁seas	-9235
▁swam	-9236
▁tech	-9237
encing	-9238
itions	-9239
▁Union	-9240
▁alert	-9241
▁crops	-9242
▁illum	-9243
▁pursu	-9244
▁vivid	-9245
ations/	-9246
▁estate	-9247
▁hotter	-9248
▁namely	-9249
▁pulled	-9250
▁serves	-9251
▁voices	-9252
▁Koreans	-9253
▁Process	-9254
▁bottles	-9255
▁jumping	-9256
▁records	-9257
▁removed	-9258
▁species	-9259
▁Murakami	-9260
▁cartoons	-9261
▁feedback	-9262
▁admission	-9263
▁candidate	-9264
▁guarantee	-9265
ater-cooled	-9266
▁foundation	-9267
▁requesting	-9268
▁complaining	-9269
▁surprisingly	-9270
▁surroundings	-9271
▁investigation	-9272
▁qualification	-9273
▁A.	-9274
▁Na	-9275
oded	-9276
uase	-9277
▁Veg	-9278
▁fog	-9279
▁sud	-9280
aming	-9281
attoo	-9282
eless	-9283
proxy	-9284
▁12th	-9285
▁Coun	-9286
▁Yoga	-9287
▁cups	-9288
▁libr	-9289
▁lung	-9290
ilding	-9291
itudes	-9292
▁Death	-9293
▁false	-9294
▁hopes	-9295
▁negot	-9296
▁panic	-9297
reprene	-9298
▁Father	-9299
▁Office	-9300
▁Sodium	-9301
▁danced	-9302
▁deeper	-9303
▁rushed	-9304
▁slower	-9305
▁Special	-9306
▁allergy	-9307
▁colored	-9308
▁consent	-9309
▁engaged	-9310
▁barbecue	-9311
▁evaluate	-9312
▁majoring	-9313
▁hesitated	-9314
▁inherited	-9315
▁Shinkansen	-9316
▁intermediate	-9317
▁occasionally	-9318
▁unforgettable	-9319
Id	-9320
-up	-9321
:00	-9322
ked	-9323
lem	-9324
omy	-9325
▁34	-9326
▁AC	-9327
▁Ko	-9328
ains	-9329
▁Cap	-9330
▁NHK	-9331
▁Son	-9332
▁Vis	-9333
▁cha	-9334
▁dim	-9335
▁vit	-9336
atisf	-9337
empor	-9338
▁Bask	-9339
▁Cast	-9340
▁sour	-9341
▁tune	-9342
apping	-9343
ilight	-9344
▁Beaut	-9345
▁Guang	-9346
▁Night	-9347
▁Norrg	-9348
▁Women	-9349
▁micro	-9350
▁roast	-9351
▁spark	-9352
▁stiff	-9353
▁yummy	-9354
idently	-9355
▁'cause	-9356
▁bullet	-9357
▁exited	-9358
▁gloomy	-9359
▁hostel	-9360
▁pepper	-9361
▁polish	-9362
▁produc	-9363
▁Tsunami	-9364
▁closing	-9365
▁granted	-9366
▁monster	-9367
▁winning	-9368
▁arriving	-9369
▁detailed	-9370
▁Regarding	-9371
▁miserable	-9372
▁withstand	-9373
▁automobile	-9374
▁ingredient	-9375
▁kilometers	-9376
▁professors	-9377
▁characteristic	-9378
89	-9379
.15	-9380
ala	-9381
ili	-9382
oko	-9383
▁EX	-9384
▁ni	-9385
▁pc	-9386
comm	-9387
inci	-9388
▁Lim	-9389
▁Run	-9390
alley	-9391
clock	-9392
istan	-9393
▁1980	-9394
▁1997	-9395
▁Supp	-9396
▁flew	-9397
▁slee	-9398
▁tied	-9399
▁vent	-9400
▁worn	-9401
proxy1	-9402
▁Birth	-9403
▁Cause	-9404
▁cruel	-9405
▁flies	-9406
▁inner	-9407
▁paste	-9408
▁sence	-9409
▁vocal	-9410
amiliar	-9411
intendo	-9412
zheimer	-9413
▁attach	-9414
▁balcon	-9415
▁earned	-9416
▁handed	-9417
▁medium	-9418
▁minded	-9419
▁perman	-9420
▁pursue	-9421
▁signal	-9422
▁sorrow	-9423
▁stones	-9424
▁farmers	-9425
▁luckily	-9426
▁springs	-9427
▁utilize	-9428
libproxy1	-9429
onomiyaki	-9430
▁catching	-9431
▁mushroom	-9432
▁observed	-9433
▁southern	-9434
▁Hollywood	-9435
▁motorbike	-9436
▁uncertain	-9437
▁translator	-9438
▁probability	-9439
▁implications	-9440
hem	-9441
▁Gi	-9442
▁Iw	-9443
▁W.	-9444
▁ga	-9445
0000	-9446
made	-9447
vard	-9448
▁CEO	-9449
▁Jes	-9450
▁Tex	-9451
▁Wat	-9452
▁bac	-9453
▁sne	-9454
▁wow	-9455
cript	-9456
▁16th	-9457
▁Moon	-9458
▁aids	-9459
▁suck	-9460
▁thai	-9461
iences	-9462
parent	-9463
search	-9464
ustion	-9465
▁boxes	-9466
▁envir	-9467
▁joint	-9468
▁shell	-9469
▁Argent	-9470
▁Centre	-9471
▁Follow	-9472
▁decent	-9473
▁garlic	-9474
▁genius	-9475
▁hybrid	-9476
▁petrol	-9477
▁stared	-9478
▁summar	-9479
▁African	-9480
▁Housing	-9481
▁counsel	-9482
▁endless	-9483
▁exiting	-9484
▁planted	-9485
▁seafood	-9486
▁Norrgard	-9487
▁admitted	-9488
▁blooming	-9489
▁entirely	-9490
▁polluted	-9491
▁survival	-9492
▁Everytime	-9493
▁curiosity	-9494
▁excessive	-9495
▁principal	-9496
▁selection	-9497
▁Personally	-9498
▁advertised	-9499
▁optimistic	-9500
▁performing	-9501
▁resistance	-9502
▁ridiculous	-9503
▁Switzerland	-9504
▁certificate	-9505
▁constructed	-9506
▁institutions	-9507
&s	-9508
-M	-9509
ST	-9510
fm	-9511
▁N.	-9512
kish	-9513
▁8th	-9514
▁9th	-9515
▁Nik	-9516
▁fut	-9517
▁goo	-9518
▁hav	-9519
▁lag	-9520
abase	-9521
pered	-9522
plant	-9523
▁Mats	-9524
▁Rich	-9525
▁Self	-9526
▁nail	-9527
▁nuts	-9528
irable	-9529
months	-9530
▁Lang8	-9531
▁Laura	-9532
▁allev	-9533
▁hurts	-9534
▁inert	-9535
▁meter	-9536
▁towns	-9537
hington	-9538
▁Sakura	-9539
▁Travel	-9540
▁border	-9541
▁consec	-9542
▁eleven	-9543
▁partly	-9544
▁powder	-9545
▁retail	-9546
▁violin	-9547
iability	-9548
ioethics	-9549
▁goodbye	-9550
▁miracle	-9551
▁Olympics	-9552
▁directed	-9553
▁extended	-9554
▁graphite	-9555
▁recieved	-9556
▁teenager	-9557
▁Alzheimer	-9558
▁Obviously	-9559
▁agreement	-9560
▁dedicated	-9561
▁displayed	-9562
▁incidents	-9563
▁disgusting	-9564
▁processing	-9565
▁researcher	-9566
▁Nonetheless	-9567
▁stomachache	-9568
▁Surprisingly	-9569
▁nevertheless	-9570
▁similarities	-9571
-0	-9572
51	-9573
py	-9574
/re	-9575
▁Ji	-9576
▁MC	-9577
▁PE	-9578
-of-	-9579
APAN	-9580
amps	-9581
case	-9582
ller	-9583
rome	-9584
uese	-9585
▁10.	-9586
▁Ice	-9587
▁Use	-9588
▁Wel	-9589
▁bun	-9590
▁dol	-9591
▁hey	-9592
▁nic	-9593
▁pir	-9594
anges	-9595
ermel	-9596
▁Call	-9597
▁Gree	-9598
▁Lady	-9599
tering	-9600
▁Busan	-9601
▁Filip	-9602
▁Steve	-9603
▁couse	-9604
▁explo	-9605
▁initi	-9606
▁opera	-9607
▁parad	-9608
▁sadly	-9609
▁shelf	-9610
▁tweet	-9611
eliness	-9612
unction	-9613
▁Haruki	-9614
▁Origin	-9615
▁Really	-9616
▁county	-9617
▁killer	-9618
▁lessen	-9619
▁melody	-9620
▁random	-9621
/nuclear	-9622
▁Mexican	-9623
▁Typhoon	-9624
▁balcony	-9625
▁boiling	-9626
▁freinds	-9627
▁powered	-9628
▁Miyazaki	-9629
▁assigned	-9630
▁division	-9631
▁interior	-9632
▁networks	-9633
▁departure	-9634
▁exchanged	-9635
▁mechanism	-9636
▁complained	-9637
▁entreprene	-9638
▁influences	-9639
▁approaching	-9640
31	-9641
IB	-9642
ho	-9643
ja	-9644
-de	-9645
ISH	-9646
ept	-9647
ste	-9648
burg	-9649
elly	-9650
ongi	-9651
oyal	-9652
▁Gin	-9653
▁Jim	-9654
▁Kag	-9655
▁Pan	-9656
▁Squ	-9657
▁jew	-9658
▁mud	-9659
flies	-9660
icket	-9661
▁Jazz	-9662
▁THIS	-9663
▁cabb	-9664
▁lens	-9665
▁mild	-9666
▁Clark	-9667
▁Idaho	-9668
▁JAPAN	-9669
▁beers	-9670
▁idiom	-9671
▁lifts	-9672
▁meets	-9673
▁moves	-9674
▁idioms	-9675
▁lowest	-9676
▁retain	-9677
▁steady	-9678
▁tattoo	-9679
▁timing	-9680
▁//www.e	-9681
▁becasue	-9682
▁biology	-9683
▁comming	-9684
▁manners	-9685
▁organic	-9686
▁fashions	-9687
▁bussiness	-9688
▁comunicate	-9689
▁expressing	-9690
▁protecting	-9691
▁restricted	-9692
▁wheelchair	-9693
▁assignments	-9694
▁necessarily	-9695
▁unfortunate	-9696
▁performances	-9697
87	-9698
do	-9699
iya	-9700
rad	-9701
rey	-9702
▁37	-9703
face	-9704
ogen	-9705
opes	-9706
oser	-9707
pack	-9708
ulum	-9709
▁emp	-9710
▁nom	-9711
▁ups	-9712
acing	-9713
▁00pm	-9714
▁Lake	-9715
▁Make	-9716
▁Note	-9717
▁Rose	-9718
▁bact	-9719
▁dull	-9720
▁gamb	-9721
▁styl	-9722
▁ture	-9723
ansion	-9724
energy	-9725
erials	-9726
▁Pract	-9727
▁Yamag	-9728
▁niece	-9729
working	-9730
▁assert	-9731
▁cultiv	-9732
▁motion	-9733
▁peaple	-9734
▁prompt	-9735
▁Shibuya	-9736
▁charged	-9737
▁easiest	-9738
▁fastest	-9739
▁lacking	-9740
▁serving	-9741
abilities	-9742
▁Thinking	-9743
▁bothered	-9744
▁interpre	-9745
▁opponent	-9746
▁surgical	-9747
▁programmer	-9748
▁unfamiliar	-9749
▁expectations	-9750
irs	-9751
lee	-9752
▁AB	-9753
▁ly	-9754
igan	-9755
oved	-9756
rian	-9757
▁Tri	-9758
▁gum	-9759
▁lit	-9760
▁rig	-9761
amboo	-9762
oment	-9763
▁crew	-9764
▁fist	-9765
▁forb	-9766
▁zone	-9767
ergies	-9768
▁Kanto	-9769
▁balls	-9770
▁coins	-9771
▁conce	-9772
▁exhib	-9773
▁fatal	-9774
▁Molten	-9775
▁Policy	-9776
▁cloths	-9777
▁enroll	-9778
▁export	-9779
▁fought	-9780
▁frined	-9781
▁headed	-9782
▁hearts	-9783
▁revise	-9784
▁rivers	-9785
▁waking	-9786
▁welcom	-9787
▁worthy	-9788
▁Challen	-9789
▁Manager	-9790
▁bowling	-9791
▁charity	-9792
▁cherish	-9793
▁propose	-9794
▁regions	-9795
▁upgrade	-9796
▁aircraft	-9797
▁charming	-9798
▁recomend	-9799
▁complaint	-9800
▁declining	-9801
▁irritated	-9802
▁photograp	-9803
▁Exhibition	-9804
▁structures	-9805
▁comfortably	-9806
▁Introduction	-9807
▁inconvenient	-9808
KY	-9809
hu	-9810
iw	-9811
cul	-9812
ena	-9813
lam	-9814
och	-9815
rics	-9816
usan	-9817
utch	-9818
▁Jon	-9819
▁Los	-9820
▁Men	-9821
▁lis	-9822
cknow	-9823
etary	-9824
etime	-9825
oking	-9826
rived	-9827
▁1995	-9828
▁Open	-9829
▁Shim	-9830
▁adap	-9831
▁dipl	-9832
▁mode	-9833
▁noun	-9834
▁trig	-9835
donald	-9836
effect	-9837
uccess	-9838
urning	-9839
▁Again	-9840
▁Latin	-9841
▁Maria	-9842
▁burst	-9843
▁dolph	-9844
▁finds	-9845
▁landl	-9846
▁layer	-9847
▁ought	-9848
▁seeds	-9849
resting	-9850
▁Atomic	-9851
▁Indust	-9852
▁Japane	-9853
▁basket	-9854
▁doubts	-9855
▁endure	-9856
▁makeup	-9857
▁planes	-9858
▁Problem	-9859
▁equally	-9860
▁exagger	-9861
▁graphic	-9862
▁illustr	-9863
▁penalty	-9864
▁spirits	-9865
▁whereby	-9866
▁carriers	-9867
▁colleges	-9868
▁frequent	-9869
▁handling	-9870
▁organise	-9871
▁suggests	-9872
▁attitudes	-9873
▁indicates	-9874
▁promoting	-9875
▁religions	-9876
▁discussing	-9877
▁loneliness	-9878
▁properties	-9879
▁interaction	-9880
▁transferred	-9881
▁comprehension	-9882
▁pronounciation	-9883
-l	-9884
32	-9885
IY	-9886
cut	-9887
jud	-9888
sih	-9889
yer	-9890
▁Ox	-9891
▁ot	-9892
ario	-9893
kong	-9894
ocal	-9895
▁Don	-9896
▁NEW	-9897
▁Nak	-9898
▁lan	-9899
▁ray	-9900
▁ton	-9901
-and-	-9902
News/	-9903
maker	-9904
▁Blue	-9905
▁Ever	-9906
▁Less	-9907
▁Udon	-9908
▁cosm	-9909
▁heal	-9910
▁sept	-9911
▁slip	-9912
▁tail	-9913
▁Story	-9914
▁eased	-9915
▁harsh	-9916
▁liber	-9917
▁steal	-9918
▁toast	-9919
▁wound	-9920
▁yield	-9921
▁Madrid	-9922
▁addict	-9923
▁indoor	-9924
▁murder	-9925
▁volunt	-9926
▁Station	-9927
▁beaches	-9928
▁becuase	-9929
▁edition	-9930
▁hardest	-9931
▁heating	-9932
▁persist	-9933
▁Kamakura	-9934
▁Security	-9935
▁criteria	-9936
▁lecturer	-9937
▁magnific	-9938
▁watermel	-9939
▁writings	-9940
▁Similarly	-9941
▁commuting	-9942
▁reactions	-9943
▁spreading	-9944
▁Prefecture	-9945
ublications/	-9946
▁Netherlands	-9947
▁consecutive	-9948
▁contributions	-9949
/H	-9950
M.	-9951
,200	-9952
aday	-9953
eple	-9954
ette	-9955
role	-9956
sues	-9957
ties	-9958
▁CET	-9959
▁Max	-9960
▁ONE	-9961
▁poo	-9962
▁pud	-9963
▁tha	-9964
▁ves	-9965
▁yak	-9966
igata	-9967
▁Hard	-9968
▁Ropp	-9969
▁Thom	-9970
▁Wond	-9971
▁acid	-9972
▁belt	-9973
▁cust	-9974
▁hack	-9975
▁mont	-9976
▁murd	-9977
▁peak	-9978
▁pert	-9979
▁reun	-9980
rolled	-9981
▁fired	-9982
▁pound	-9983
▁shrim	-9984
▁socks	-9985
▁Making	-9986
▁appeal	-9987
▁gossip	-9988
▁outlet	-9989
▁Beatles	-9990
▁Critics	-9991
▁Weather	-9992
▁offices	-9993
▁printer	-9994
▁bicycles	-9995
▁sunlight	-9996
▁throwing	-9997
▁associate	-9998
▁confirmed	-9999
▁desperate	-10000
▁eliminate	-10001
▁collecting	-10002
▁operations	-10003
▁remarkable	-10004
-Temperature	-10005
▁alternatives	-10006
▁appreciation	-10007
▁presentations	-10008
▁considerations	-10009
35	-10010
LO	-10011
EAR	-10012
abi	-10013
lar	-10014
ram	-10015
▁BT	-10016
▁NT	-10017
▁WW	-10018
erch	-10019
hell	-10020
ideo	-10021
ille	-10022
▁Bul	-10023
▁CO2	-10024
▁Sad	-10025
▁Wii	-10026
lines	-10027
ument	-10028
▁Bill	-10029
▁Chan	-10030
▁Feel	-10031
▁Keep	-10032
▁Sait	-10033
▁Wood	-10034
▁plum	-10035
▁seed	-10036
▁spin	-10037
▁vibr	-10038
▁vice	-10039
icular	-10040
itably	-10041
▁Think	-10042
▁aimed	-10043
▁coinc	-10044
▁groom	-10045
▁meats	-10046
▁newly	-10047
▁tempt	-10048
▁therm	-10049
▁thoug	-10050
▁withd	-10051
riculum	-10052
▁Anyone	-10053
▁Review	-10054
▁fairly	-10055
▁foward	-10056
▁joyful	-10057
▁pollen	-10058
▁rented	-10059
▁settle	-10060
▁Nations	-10061
▁Service	-10062
▁Straits	-10063
▁arrival	-10064
▁checkup	-10065
▁ensures	-10066
▁gadgets	-10067
▁unlucky	-10068
▁abnormal	-10069
▁abundant	-10070
▁combined	-10071
▁distinct	-10072
▁mobility	-10073
▁prospect	-10074
▁repaired	-10075
▁stopping	-10076
▁universe	-10077
▁Francisco	-10078
▁detection	-10079
▁influenza	-10080
▁practices	-10081
▁sentenses	-10082
▁Basketball	-10083
▁aggressive	-10084
▁candidates	-10085
▁facilitate	-10086
▁oppotunity	-10087
▁distributed	-10088
▁announcement	-10089
▁breakthrough	-10090
▁intellectual	-10091
66	-10092
FC	-10093
IP	-10094
can	-10095
ete	-10096
ige	-10097
▁cy	-10098
osit	-10099
ture	-10100
▁Mas	-10101
▁Tot	-10102
▁coz	-10103
▁mal	-10104
▁pin	-10105
▁wir	-10106
elove	-10107
icken	-10108
▁Ball	-10109
▁Ueno	-10110
▁corn	-10111
▁diam	-10112
▁hunt	-10113
▁keys	-10114
▁rein	-10115
▁sexy	-10116
▁vary	-10117
ainted	-10118
arched	-10119
imming	-10120
owered	-10121
roleum	-10122
▁20.15	-10123
▁Enjoy	-10124
▁Trave	-10125
▁cafet	-10126
▁conqu	-10127
▁engin	-10128
▁giant	-10129
▁messy	-10130
▁mount	-10131
▁prone	-10132
▁remen	-10133
▁tryed	-10134
product	-10135
▁Beside	-10136
▁Miyagi	-10137
▁Surely	-10138
▁dissap	-10139
▁eldest	-10140
▁newest	-10141
▁Channel	-10142
▁founded	-10143
▁suspect	-10144
▁Truelove	-10145
▁confront	-10146
▁extraord	-10147
▁overlook	-10148
▁reaching	-10149
▁bilingual	-10150
▁creatures	-10151
▁extensive	-10152
▁interrupt	-10153
▁viewpoint	-10154
▁previously	-10155
▁strengthen	-10156
▁reliability	-10157
▁administration	-10158
.m	-10159
uo	-10160
aze	-10161
cor	-10162
iti	-10163
nat	-10164
▁Hu	-10165
▁SM	-10166
▁Wa	-10167
OULD	-10168
ibly	-10169
irag	-10170
▁Ari	-10171
▁Bob	-10172
▁Pri	-10173
▁TIM	-10174
▁mam	-10175
▁tak	-10176
amoto	-10177
▁Cafe	-10178
▁Norm	-10179
▁Sumo	-10180
▁YOUR	-10181
▁gray	-10182
▁hors	-10183
▁pars	-10184
ercise	-10185
ieving	-10186
▁3days	-10187
▁Above	-10188
▁Brown	-10189
▁craft	-10190
▁crash	-10191
▁dynam	-10192
▁kanji	-10193
▁steel	-10194
-4.org/	-10195
▁Coming	-10196
▁Greece	-10197
▁Online	-10198
▁lively	-10199
▁marvel	-10200
▁smoker	-10201
▁Denmark	-10202
▁Grammar	-10203
▁balloon	-10204
▁hitting	-10205
▁longest	-10206
▁objects	-10207
▁relieve	-10208
▁sincere	-10209
▁Needless	-10210
▁Nintendo	-10211
▁Roppongi	-10212
▁managers	-10213
▁operated	-10214
▁uploaded	-10215
▁waitress	-10216
▁automatic	-10217
▁cooperate	-10218
▁gratitude	-10219
▁implanted	-10220
▁orchestra	-10221
▁reluctant	-10222
▁september	-10223
▁Earthquake	-10224
▁assessment	-10225
▁excitement	-10226
▁playground	-10227
▁grammatical	-10228
▁nationality	-10229
▁replacement	-10230
▁unconscious	-10231
▁accidentally	-10232
▁Communication	-10233
▁inconvenience	-10234
▁disappointment	-10235
77	-10236
CO	-10237
pub	-10238
zes	-10239
▁Fa	-10240
▁I'	-10241
▁Om	-10242
▁Dom	-10243
▁Fed	-10244
▁Hig	-10245
▁Maj	-10246
▁Nam	-10247
▁cuc	-10248
▁tai	-10249
erver	-10250
lying	-10251
▁Game	-10252
▁flag	-10253
▁frag	-10254
▁holy	-10255
▁nest	-10256
▁slic	-10257
▁sumo	-10258
▁turb	-10259
urious	-10260
▁Based	-10261
▁Space	-10262
▁Vegas	-10263
▁Very-	-10264
▁deter	-10265
▁holds	-10266
▁lunar	-10267
▁runny	-10268
▁sings	-10269
▁snowy	-10270
resents	-10271
▁Canton	-10272
▁Issues	-10273
▁acknow	-10274
▁appric	-10275
▁bamboo	-10276
▁cource	-10277
▁dental	-10278
▁linked	-10279
▁poster	-10280
▁Android	-10281
▁Getting	-10282
▁Saitama	-10283
▁conserv	-10284
▁faculty	-10285
▁praying	-10286
▁vaccine	-10287
▁childish	-10288
▁conflict	-10289
▁deciding	-10290
▁diffrent	-10291
▁distract	-10292
▁homepage	-10293
▁modified	-10294
▁unstable	-10295
▁Certainly	-10296
▁accompany	-10297
▁petroleum	-10298
▁societies	-10299
▁stimulate	-10300
▁memorizing	-10301
▁networking	-10302
▁researched	-10303
.com/article	-10304
▁communities	-10305
▁documentary	-10306
▁consequently	-10307
.3	-10308
69	-10309
▁|	-10310
ERY	-10311
rat	-10312
▁EV	-10313
▁Od	-10314
crib	-10315
cuss	-10316
lets	-10317
oria	-10318
ults	-10319
viet	-10320
▁Cle	-10321
▁Inf	-10322
▁fur	-10323
gment	-10324
shock	-10325
▁19th	-10326
▁Hell	-10327
▁asse	-10328
▁bake	-10329
▁cout	-10330
▁desp	-10331
▁evol	-10332
▁laid	-10333
▁lion	-10334
▁sate	-10335
/index	-10336
iances	-10337
▁Anime	-10338
▁Jesus	-10339
▁Money	-10340
▁avail	-10341
▁jewel	-10342
▁knife	-10343
▁perce	-10344
▁preca	-10345
▁roses	-10346
▁saves	-10347
▁slipp	-10348
▁stere	-10349
igation	-10350
related	-10351
▁2years	-10352
▁George	-10353
▁attain	-10354
▁burger	-10355
▁devote	-10356
▁govern	-10357
▁litter	-10358
▁spaces	-10359
▁stimul	-10360
▁struck	-10361
▁tender	-10362
▁america	-10363
▁ceiling	-10364
▁colours	-10365
▁compell	-10366
▁defence	-10367
▁diverse	-10368
▁dresses	-10369
▁subsidy	-10370
astically	-10371
▁Somebody	-10372
▁heritage	-10373
▁sandwich	-10374
▁situated	-10375
▁tomatoes	-10376
▁Melbourne	-10377
▁Transport	-10378
▁ancestors	-10379
▁corporate	-10380
▁investors	-10381
▁overnight	-10382
▁passenger	-10383
▁principle	-10384
▁accumulate	-10385
▁occupation	-10386
▁represents	-10387
▁celebrities	-10388
.4	-10389
.j	-10390
/t	-10391
TA	-10392
YS	-10393
pf	-10394
col	-10395
wed	-10396
▁62	-10397
▁99	-10398
▁OM	-10399
-age	-10400
cuit	-10401
engu	-10402
prop	-10403
▁Det	-10404
▁Hen	-10405
▁Jud	-10406
▁Mis	-10407
▁Sal	-10408
▁bom	-10409
▁esp	-10410
▁reb	-10411
▁tan	-10412
adequ	-10413
isted	-10414
rious	-10415
▁1033	-10416
▁1979	-10417
▁Full	-10418
▁Grad	-10419
▁Sony	-10420
▁bout	-10421
▁fame	-10422
▁tofu	-10423
▁vine	-10424
actory	-10425
system	-10426
▁Final	-10427
▁chill	-10428
▁gramm	-10429
▁itchy	-10430
▁opens	-10431
▁rumor	-10432
▁timet	-10433
▁trail	-10434
▁verbs	-10435
onymous	-10436
▁Except	-10437
▁covers	-10438
▁orders	-10439
▁thrill	-10440
emporary	-10441
▁Harvard	-10442
▁Whether	-10443
▁beacuse	-10444
▁chronic	-10445
▁dangers	-10446
▁existed	-10447
▁hearted	-10448
▁justice	-10449
▁luggage	-10450
▁minimal	-10451
▁Kanagawa	-10452
▁darkness	-10453
▁disclose	-10454
▁freezing	-10455
▁improves	-10456
▁patterns	-10457
▁welcomed	-10458
▁Argentina	-10459
▁Brazilian	-10460
▁Cambridge	-10461
▁consuming	-10462
▁graduates	-10463
▁positions	-10464
▁qualities	-10465
▁talkative	-10466
▁Philippine	-10467
▁apartments	-10468
▁downloaded	-10469
▁supervisor	-10470
▁contributes	-10471
▁concentrated	-10472
▁distribution	-10473
▁specifically	-10474
▁sustainability	-10475
/b	-10476
.st	-10477
ITH	-10478
igo	-10479
▁GP	-10480
▁TR	-10481
▁XX	-10482
▁kg	-10483
.cfm	-10484
cter	-10485
ento	-10486
gles	-10487
heng	-10488
▁CON	-10489
▁Dog	-10490
▁syn	-10491
issed	-10492
ukuro	-10493
▁24th	-10494
▁Asak	-10495
▁Cold	-10496
▁Live	-10497
▁Mont	-10498
▁Read	-10499
▁butt	-10500
▁edit	-10501
▁kidn	-10502
▁quiz	-10503
▁sunb	-10504
carina	-10505
olitan	-10506
velope	-10507
▁Claus	-10508
▁Ginza	-10509
▁Greek	-10510
▁Movie	-10511
▁Queen	-10512
▁Texas	-10513
▁calor	-10514
▁frank	-10515
▁piety	-10516
▁purse	-10517
▁races	-10518
▁shine	-10519
▁stays	-10520
healthy	-10521
iragana	-10522
pecialy	-10523
▁Cancer	-10524
▁Seeing	-10525
▁Speech	-10526
▁Toyota	-10527
▁astron	-10528
▁brands	-10529
▁breads	-10530
▁intens	-10531
▁pencil	-10532
▁pounds	-10533
▁sample	-10534
▁sights	-10535
▁tables	-10536
▁theirs	-10537
▁writes	-10538
▁baggage	-10539
▁distant	-10540
▁fluency	-10541
▁implies	-10542
▁letting	-10543
▁lighter	-10544
▁praised	-10545
▁shelter	-10546
▁stuffed	-10547
▁violent	-10548
▁Nagasaki	-10549
▁category	-10550
▁collabor	-10551
▁donation	-10552
▁behaviors	-10553
▁cafeteria	-10554
▁emphasize	-10555
▁mandatory	-10556
▁retrieved	-10557
▁corruption	-10558
▁curriculum	-10559
▁punishment	-10560
▁differently	-10561
▁magnificent	-10562
▁preposition	-10563
▁intelligence	-10564
▁sodium-cooled	-10565
48	-10566
Re	-10567
Te	-10568
_p	-10569
-te	-10570
AKE	-10571
jin	-10572
was	-10573
▁ox	-10574
clip	-10575
onge	-10576
test	-10577
▁120	-10578
▁Edo	-10579
▁Ven	-10580
▁fer	-10581
▁nan	-10582
▁tab	-10583
celer	-10584
edays	-10585
olite	-10586
roach	-10587
▁00am	-10588
▁Girl	-10589
▁Mass	-10590
▁Than	-10591
▁eats	-10592
▁pref	-10593
▁puts	-10594
▁vamp	-10595
astern	-10596
ighter	-10597
metics	-10598
▁Toeic	-10599
▁alien	-10600
▁bench	-10601
▁cared	-10602
▁coord	-10603
▁drums	-10604
▁lingu	-10605
▁occas	-10606
▁snows	-10607
▁Tennis	-10608
▁Thesed	-10609
▁Things	-10610
▁contam	-10611
▁defeat	-10612
▁floors	-10613
▁lasted	-10614
▁machin	-10615
▁passes	-10616
▁stored	-10617
▁turtle	-10618
▁wander	-10619
▁Kingdom	-10620
▁affairs	-10621
▁cabbage	-10622
▁grandpa	-10623
▁inadequ	-10624
▁sunrise	-10625
▁wanting	-10626
▁abstract	-10627
▁backpack	-10628
▁balanced	-10629
▁believes	-10630
▁database	-10631
▁persuade	-10632
▁restrant	-10633
▁criticism	-10634
▁decorated	-10635
▁shrinking	-10636
▁Travelling	-10637
▁Washington	-10638
▁disclosure	-10639
▁exercising	-10640
▁inevitably	-10641
▁intersting	-10642
▁inspiration	-10643
▁photographs	-10644
▁considerably	-10645
▁accessibility	-10646
-A	-10647
-W	-10648
/E	-10649
28	-10650
37	-10651
6-	-10652
ILL	-10653
aza	-10654
edy	-10655
isk	-10656
▁o'	-10657
▁ts	-10658
card	-10659
oves	-10660
rael	-10661
▁Ban	-10662
▁CAN	-10663
▁Ter	-10664
▁bak	-10665
▁org	-10666
about	-10667
agine	-10668
ander	-10669
cream	-10670
esign	-10671
▁....	-10672
▁1970	-10673
▁Bank	-10674
▁Stan	-10675
▁Tomo	-10676
▁VERY	-10677
▁alph	-10678
▁gymn	-10679
▁mort	-10680
▁offs	-10681
▁rope	-10682
▁Chang	-10683
▁Games	-10684
▁recyc	-10685
▁sells	-10686
▁slide	-10687
▁uncon	-10688
itional	-10689
journal	-10690
lectric	-10691
▁Martin	-10692
▁claims	-10693
▁indisp	-10694
▁oppose	-10695
▁parade	-10696
▁porcel	-10697
▁rescue	-10698
▁seller	-10699
▁statue	-10700
/article	-10701
cription	-10702
▁Asakusa	-10703
▁Playing	-10704
▁Project	-10705
▁centres	-10706
▁famouse	-10707
▁foolish	-10708
▁markets	-10709
▁martial	-10710
▁ocarina	-10711
▁picking	-10712
▁studyed	-10713
▁symptom	-10714
chnology/	-10715
efficient	-10716
▁athletes	-10717
▁athletic	-10718
▁crossing	-10719
▁facility	-10720
▁indicate	-10721
▁infected	-10722
▁memorial	-10723
▁princess	-10724
▁promoted	-10725
▁somthing	-10726
▁strictly	-10727
▁committed	-10728
▁interface	-10729
▁souvenirs	-10730
▁appliances	-10731
▁explaining	-10732
▁devastating	-10733
▁institution	-10734
▁globalization	-10735
▁participation	-10736
▁undergraduate	-10737
18	-10738
1N	-10739
MB	-10740
bey	-10741
iat	-10742
log	-10743
rem	-10744
uto	-10745
▁48	-10746
▁GO	-10747
etch	-10748
▁Dad	-10749
▁Has	-10750
▁Kaz	-10751
▁cot	-10752
▁mug	-10753
▁uni	-10754
icine	-10755
inner	-10756
orous	-10757
stood	-10758
tical	-10759
▁29th	-10760
▁Arch	-10761
▁Base	-10762
▁Find	-10763
▁Prot	-10764
▁alch	-10765
▁dism	-10766
▁gang	-10767
▁gard	-10768
▁glob	-10769
▁july	-10770
▁shin	-10771
▁tidy	-10772
▁tuna	-10773
ection	-10774
rative	-10775
▁Clear	-10776
▁bombs	-10777
▁cheek	-10778
▁grape	-10779
▁horiz	-10780
▁ignor	-10781
▁lyric	-10782
▁prote	-10783
▁puppy	-10784
▁sword	-10785
Genetic	-10786
natural	-10787
ression	-10788
usiness	-10789
▁chores	-10790
▁duties	-10791
▁emails	-10792
▁legend	-10793
▁monkey	-10794
▁priced	-10795
▁simult	-10796
▁smiles	-10797
▁soaked	-10798
▁thirst	-10799
▁Article	-10800
▁Further	-10801
▁Izakaya	-10802
▁airline	-10803
▁crashed	-10804
▁heading	-10805
▁intense	-10806
▁islands	-10807
▁o'clock	-10808
▁roughly	-10809
▁settled	-10810
▁therapy	-10811
▁blackout	-10812
▁coverage	-10813
▁diligent	-10814
▁hardship	-10815
▁incorpor	-10816
▁lifetime	-10817
▁preserve	-10818
▁rejected	-10819
▁Very-High	-10820
▁authority	-10821
▁contacted	-10822
▁enjoyment	-10823
▁porcelain	-10824
▁recording	-10825
▁returning	-10826
▁tommorrow	-10827
▁decoration	-10828
▁exchanging	-10829
▁leadership	-10830
▁furthermore	-10831
▁immigration	-10832
▁recognition	-10833
▁residential	-10834
-water-cooled	-10835
-F	-10836
-g	-10837
/d	-10838
rc	-10839
tw	-10840
uu	-10841
afe	-10842
ett	-10843
uer	-10844
▁JP	-10845
▁Mi	-10846
bean	-10847
bell	-10848
umer	-10849
▁ALL	-10850
▁Exc	-10851
▁H1N	-10852
▁nod	-10853
itish	-10854
ogurt	-10855
▁Camb	-10856
▁Mach	-10857
▁burd	-10858
▁caps	-10859
▁drow	-10860
▁outs	-10861
▁snee	-10862
▁stir	-10863
clipse	-10864
mentia	-10865
▁cable	-10866
▁grace	-10867
▁noted	-10868
▁snake	-10869
▁split	-10870
▁sucks	-10871
▁valid	-10872
Nuclear	-10873
achelor	-10874
idences	-10875
portant	-10876
▁Easter	-10877
▁Israel	-10878
▁blocks	-10879
▁canada	-10880
▁nurses	-10881
▁scored	-10882
▁smells	-10883
▁snowed	-10884
▁Academy	-10885
▁alright	-10886
▁blanket	-10887
▁cousins	-10888
▁decides	-10889
▁escaped	-10890
▁kidding	-10891
▁Hydrogen	-10892
▁Starting	-10893
▁accompan	-10894
▁cheapest	-10895
▁fabulous	-10896
▁hangover	-10897
▁affection	-10898
▁batteries	-10899
▁centuries	-10900
▁diagnosed	-10901
▁gentleman	-10902
▁housewife	-10903
▁initially	-10904
▁permanent	-10905
▁thesedays	-10906
▁Afterwards	-10907
▁identified	-10908
▁politician	-10909
▁translating	-10910
▁achievements	-10911
▁psychologist	-10912
▁Identification	-10913
IQ	-10914
OOK	-10915
ORE	-10916
URE	-10917
cia	-10918
iam	-10919
ila	-10920
kai	-10921
rum	-10922
vin	-10923
▁36	-10924
▁39	-10925
▁44	-10926
▁AV	-10927
avor	-10928
fing	-10929
itis	-10930
opus	-10931
▁BEC	-10932
▁Ire	-10933
▁Lot	-10934
▁MRT	-10935
▁Put	-10936
▁cul	-10937
▁eel	-10938
▁fri	-10939
▁pap	-10940
▁ppl	-10941
▁saf	-10942
▁sth	-10943
bsite	-10944
hough	-10945
▁Anim	-10946
▁Chem	-10947
▁Diff	-10948
▁Five	-10949
▁Jose	-10950
▁Nick	-10951
▁bark	-10952
▁evry	-10953
▁gran	-10954
▁mixt	-10955
▁scan	-10956
▁sink	-10957
▁tale	-10958
▁unav	-10959
bukuro	-10960
redict	-10961
ulance	-10962
weight	-10963
▁Daily	-10964
▁Found	-10965
▁asset	-10966
▁greed	-10967
▁peach	-10968
▁queue	-10969
ensable	-10970
grading	-10971
▁Direct	-10972
▁breaks	-10973
▁gender	-10974
▁hunger	-10975
▁permit	-10976
▁prejud	-10977
▁ranked	-10978
▁tissue	-10979
▁undert	-10980
▁underw	-10981
▁waiter	-10982
▁Account	-10983
▁Finance	-10984
▁Network	-10985
▁Pacific	-10986
▁collaps	-10987
▁recruit	-10988
▁teached	-10989
▁Birthday	-10990
▁Interest	-10991
▁Therefor	-10992
▁calories	-10993
▁explains	-10994
▁graphics	-10995
▁muscular	-10996
▁troubled	-10997
▁demanding	-10998
▁expanding	-10999
▁resistant	-11000
▁unhealthy	-11001
▁wednesday	-11002
▁aftershock	-11003
▁approaches	-11004
▁containing	-11005
▁conversion	-11006
▁discipline	-11007
▁frightened	-11008
▁positively	-11009
▁practising	-11010
▁arrangement	-11011
▁interpreter	-11012
▁specialized	-11013
.com.libproxy1	-11014
▁communications	-11015
▁confidentiality	-11016
BM	-11017
GL	-11018
P3	-11019
aa	-11020
ASA	-11021
IEC	-11022
cys	-11023
dog	-11024
hic	-11025
sey	-11026
▁SF	-11027
▁ms	-11028
▁yo	-11029
aver	-11030
rine	-11031
tory	-11032
▁Att	-11033
▁BTW	-11034
▁Hum	-11035
▁Ike	-11036
▁Jin	-11037
▁LOL	-11038
▁Zac	-11039
▁bay	-11040
▁cic	-11041
▁jug	-11042
amily	-11043
asses	-11044
hield	-11045
oting	-11046
piece	-11047
raphy	-11048
storm	-11049
▁30am	-11050
▁H1N1	-11051
▁Holl	-11052
▁Hung	-11053
▁Ichi	-11054
▁Iran	-11055
▁Soft	-11056
▁Song	-11057
▁Trad	-11058
▁aust	-11059
▁dece	-11060
▁gest	-11061
▁lend	-11062
-based	-11063
herent	-11064
▁Finan	-11065
▁Given	-11066
▁Heart	-11067
▁coffe	-11068
▁monit	-11069
▁sixty	-11070
▁spoon	-11071
▁stole	-11072
▁tires	-11073
▁Narita	-11074
▁Others	-11075
▁Oxford	-11076
▁beggin	-11077
▁colleg	-11078
▁cooker	-11079
▁divide	-11080
▁donate	-11081
▁exclud	-11082
▁ginger	-11083
▁microp	-11084
▁modify	-11085
▁weekly	-11086
▁Englsih	-11087
▁Niigata	-11088
▁Student	-11089
▁auction	-11090
▁breathe	-11091
▁calorie	-11092
▁centers	-11093
▁chapter	-11094
▁encount	-11095
▁figured	-11096
▁leakage	-11097
▁pushing	-11098
▁reunion	-11099
▁thanked	-11100
▁Administ	-11101
▁avoiding	-11102
▁gambling	-11103
▁imported	-11104
▁wheather	-11105
▁Following	-11106
▁Professor	-11107
▁audiences	-11108
▁beginners	-11109
▁butterfly	-11110
▁cosmetics	-11111
▁regretted	-11112
▁selecting	-11113
▁Healthcare	-11114
▁apparently	-11115
▁astonished	-11116
▁controversy	-11117
▁hardworking	-11118
▁meaningless	-11119
▁Technologies	-11120
▁acquaintance	-11121
▁illustration	-11122
▁certification	-11123
▁extraordinary	-11124
68	-11125
IFE	-11126
acc	-11127
ele	-11128
ola	-11129
uum	-11130
web	-11131
▁AD	-11132
▁CM	-11133
▁MO	-11134
▁ol	-11135
aren	-11136
ares	-11137
eded	-11138
keep	-11139
▁COM	-11140
▁Dub	-11141
▁Kaw	-11142
▁Xia	-11143
▁kne	-11144
▁p.m	-11145
▁rug	-11146
▁ske	-11147
chede	-11148
ffect	-11149
iniku	-11150
peror	-11151
prove	-11152
▁18th	-11153
▁Foot	-11154
▁Kate	-11155
▁Near	-11156
▁Salt	-11157
▁desu	-11158
▁grey	-11159
▁jams	-11160
▁mant	-11161
▁nons	-11162
▁nost	-11163
▁sooo	-11164
ageing	-11165
erving	-11166
opedia	-11167
people	-11168
▁Bible	-11169
▁Break	-11170
▁Years	-11171
▁folks	-11172
▁globe	-11173
▁pilot	-11174
▁sorts	-11175
▁vague	-11176
▁weigh	-11177
▁Engish	-11178
▁Kimono	-11179
▁Senior	-11180
▁Soviet	-11181
▁U.S.A.	-11182
▁blamed	-11183
▁humble	-11184
▁lenses	-11185
▁nerves	-11186
▁poeple	-11187
▁purple	-11188
▁satell	-11189
▁speedy	-11190
▁wheels	-11191
▁Council	-11192
▁destiny	-11193
▁engines	-11194
▁environ	-11195
▁gaining	-11196
▁updated	-11197
▁visitor	-11198
opulation	-11199
▁Mountain	-11200
▁approval	-11201
▁convince	-11202
▁defeated	-11203
▁dramatic	-11204
▁failures	-11205
▁injuries	-11206
▁insisted	-11207
▁monetary	-11208
▁operates	-11209
▁pensions	-11210
▁recentry	-11211
▁shipping	-11212
▁theories	-11213
▁unlikely	-11214
▁Different	-11215
▁occurring	-11216
▁officials	-11217
▁preferred	-11218
▁prototype	-11219
▁substance	-11220
▁components	-11221
▁hairstyles	-11222
▁penicillin	-11223
▁thoroughly	-11224
▁watermelon	-11225
▁agriculture	-11226
.org/info/inf	-11227
▁dictionaries	-11228
▁organisation	-11229
.8	-11230
99	-11231
UB	-11232
-to	-11233
.cn	-11234
IVE	-11235
han	-11236
ini	-11237
▁Ho	-11238
▁LO	-11239
bank	-11240
hiko	-11241
mble	-11242
odia	-11243
ulse	-11244
unes	-11245
user	-11246
▁Gal	-11247
▁Jac	-11248
▁Mix	-11249
▁NYC	-11250
▁Swe	-11251
▁aer	-11252
▁cel	-11253
▁ink	-11254
▁nut	-11255
▁re-	-11256
allow	-11257
ierce	-11258
pread	-11259
topic	-11260
▁Form	-11261
▁coud	-11262
▁frog	-11263
▁hook	-11264
▁neut	-11265
▁shit	-11266
▁whit	-11267
▁owing	-11268
▁pecul	-11269
igraphy	-11270
roadmap	-11271
▁Church	-11272
▁cookie	-11273
▁editor	-11274
▁insert	-11275
▁locked	-11276
▁praise	-11277
▁splend	-11278
▁//news.	-11279
▁Product	-11280
▁artwork	-11281
▁broaden	-11282
▁council	-11283
▁monthes	-11284
▁stepped	-11285
▁superst	-11286
▁agencies	-11287
▁generous	-11288
▁managing	-11289
▁rainning	-11290
▁//nuclear	-11291
▁Thesedays	-11292
▁breathing	-11293
▁celebrity	-11294
▁intensive	-11295
▁shoulders	-11296
▁Television	-11297
▁compromise	-11298
▁connecting	-11299
▁organizing	-11300
▁specialist	-11301
▁ultimately	-11302
▁worthwhile	-11303
▁Maintenance	-11304
▁Organization	-11305
▁explanations	-11306
▁independence	-11307
/e	-11308
AV	-11309
BS	-11310
DA	-11311
KS	-11312
bal	-11313
bbc	-11314
nia	-11315
uta	-11316
▁42	-11317
▁66	-11318
▁CA	-11319
atha	-11320
hour	-11321
mail	-11322
▁Dou	-11323
▁Hat	-11324
▁OMG	-11325
▁PSP	-11326
▁Ros	-11327
▁Say	-11328
▁Tam	-11329
▁bri	-11330
▁gro	-11331
▁oxy	-11332
field	-11333
imasu	-11334
iners	-11335
worth	-11336
▁Sand	-11337
▁atom	-11338
▁blew	-11339
▁dele	-11340
▁dign	-11341
▁dive	-11342
▁eyel	-11343
▁hers	-11344
▁jail	-11345
▁rebu	-11346
▁shif	-11347
▁sigh	-11348
▁trop	-11349
▁vend	-11350
abetes	-11351
sticks	-11352
▁Dutch	-11353
▁Fukui	-11354
▁Girls	-11355
▁Sally	-11356
▁Titan	-11357
▁bikes	-11358
▁defic	-11359
▁depth	-11360
▁dilem	-11361
▁escal	-11362
▁merch	-11363
▁pains	-11364
▁payed	-11365
▁unden	-11366
▁wider	-11367
▁witch	-11368
▁wrist	-11369
entions	-11370
lements	-11371
▁Square	-11372
▁forign	-11373
▁harmon	-11374
▁horses	-11375
▁listed	-11376
▁puzzle	-11377
▁string	-11378
▁theore	-11379
▁thrown	-11380
▁vessel	-11381
▁Charles	-11382
▁Studies	-11383
▁Website	-11384
▁desired	-11385
▁natives	-11386
▁obliged	-11387
▁perfume	-11388
▁returns	-11389
▁soldier	-11390
▁usefull	-11391
▁comedian	-11392
▁exploded	-11393
▁humanity	-11394
▁laziness	-11395
▁occupied	-11396
▁producer	-11397
▁promises	-11398
▁requests	-11399
▁supplies	-11400
▁treating	-11401
▁vocation	-11402
▁distances	-11403
▁impatient	-11404
▁singapore	-11405
▁tiredness	-11406
▁voluntary	-11407
▁Management	-11408
▁complaints	-11409
▁forgetting	-11410
▁substances	-11411
▁supporters	-11412
▁well-being	-11413
▁Considering	-11414
▁accommodate	-11415
▁genetically	-11416
▁conservative	-11417
▁refrigerators	-11418
▁competitiveness	-11419
LI	-11420
fr	-11421
INA	-11422
iga	-11423
tub	-11424
▁AK	-11425
▁PL	-11426
▁SE	-11427
.nih	-11428
iden	-11429
keys	-11430
oman	-11431
oors	-11432
rows	-11433
stat	-11434
▁900	-11435
▁Tay	-11436
▁bee	-11437
▁bis	-11438
▁gam	-11439
▁han	-11440
▁wil	-11441
hesis	-11442
icked	-11443
oster	-11444
rieve	-11445
ubble	-11446
▁1994	-11447
▁Bali	-11448
▁Cook	-11449
▁HAVE	-11450
▁MCYS	-11451
▁Sout	-11452
▁TIME	-11453
▁inqu	-11454
▁myth	-11455
▁pile	-11456
▁span	-11457
▁stab	-11458
▁triv	-11459
ashimi	-11460
▁Light	-11461
▁banks	-11462
▁bones	-11463
▁cares	-11464
▁dates	-11465
▁fears	-11466
▁grant	-11467
▁merit	-11468
▁wides	-11469
ivalent	-11470
▁Castle	-11471
▁carrot	-11472
▁dragon	-11473
▁german	-11474
▁heated	-11475
▁liquor	-11476
-powered	-11477
ineering	-11478
▁Ireland	-11479
▁Library	-11480
▁divorce	-11481
▁italian	-11482
▁knowled	-11483
▁majored	-11484
▁mixture	-11485
▁prolong	-11486
▁slipped	-11487
▁staring	-11488
▁Normally	-11489
▁cellular	-11490
▁energies	-11491
▁invasion	-11492
▁peculiar	-11493
▁portrait	-11494
▁recycled	-11495
▁remenber	-11496
▁sympathy	-11497
▁withdraw	-11498
/documents	-11499
▁Cantonese	-11500
▁Financial	-11501
▁addressed	-11502
▁diverting	-11503
▁involving	-11504
▁afterwards	-11505
▁categories	-11506
▁supplement	-11507
▁Examination	-11508
▁encountered	-11509
▁interviewer	-11510
▁expenditures	-11511
▁experiencing	-11512
▁unexpectedly	-11513
▁indispensable	-11514
▁conventionally	-11515
.0	-11516
95	-11517
bi	-11518
pa	-11519
END	-11520
Eng	-11521
izz	-11522
▁08	-11523
▁FR	-11524
▁oy	-11525
▁si	-11526
▁wi	-11527
lept	-11528
oked	-11529
omer	-11530
rous	-11531
udon	-11532
▁000	-11533
▁Ash	-11534
▁DOE	-11535
▁Fre	-11536
▁Hmm	-11537
▁Leg	-11538
▁tho	-11539
books	-11540
ciate	-11541
esity	-11542
ikido	-11543
othes	-11544
range	-11545
uther	-11546
▁26th	-11547
▁Guam	-11548
▁Shir	-11549
▁craw	-11550
▁fate	-11551
▁irre	-11552
▁lets	-11553
▁pear	-11554
▁stem	-11555
▁worm	-11556
▁yuan	-11557
change	-11558
▁Charl	-11559
▁Jones	-11560
▁Media	-11561
▁Short	-11562
▁aloud	-11563
▁befor	-11564
▁belly	-11565
▁devil	-11566
▁flied	-11567
▁frind	-11568
▁pitch	-11569
▁recre	-11570
▁spons	-11571
▁toxic	-11572
unities	-11573
▁Access	-11574
▁Ichiro	-11575
▁Thomas	-11576
▁mutual	-11577
▁notion	-11578
▁organs	-11579
▁orient	-11580
▁poured	-11581
▁racing	-11582
▁serial	-11583
▁wooden	-11584
▁Hunting	-11585
▁acceler	-11586
▁dicided	-11587
▁privile	-11588
▁readily	-11589
▁targets	-11590
▁Building	-11591
▁Remember	-11592
▁decorate	-11593
▁ensuring	-11594
▁eyesight	-11595
▁mistaken	-11596
▁officers	-11597
▁splendid	-11598
▁terminal	-11599
▁upcoming	-11600
▁ambulance	-11601
▁inspection	-11602
▁maintained	-11603
▁reasonably	-11604
▁refreshing	-11605
▁regulation	-11606
▁widespread	-11607
▁Okonomiyaki	-11608
▁destruction	-11609
▁inexpensive	-11610
▁contemporary	-11611
▁understandable	-11612
OB	-11613
PT	-11614
eda	-11615
▁CL	-11616
▁Wi	-11617
▁ry	-11618
ints	-11619
izer	-11620
▁Bay	-11621
▁Bib	-11622
▁Cop	-11623
▁Ent	-11624
▁Got	-11625
▁KFC	-11626
▁Kum	-11627
▁Nat	-11628
▁Nin	-11629
▁nit	-11630
▁ted	-11631
cribe	-11632
umped	-11633
urope	-11634
▁2014	-11635
▁Baby	-11636
▁Bull	-11637
▁Cars	-11638
▁Leon	-11639
▁Prin	-11640
▁Town	-11641
▁WITH	-11642
▁bang	-11643
▁barg	-11644
▁budd	-11645
▁damn	-11646
▁loan	-11647
perate	-11648
▁Champ	-11649
▁Ocean	-11650
▁Roman	-11651
▁Yahoo	-11652
▁amate	-11653
▁chase	-11654
▁inhab	-11655
▁lemon	-11656
▁rehab	-11657
▁ships	-11658
▁woods	-11659
.com/st	-11660
▁Alison	-11661
▁Enlish	-11662
▁Middle	-11663
▁affair	-11664
▁farmer	-11665
▁fertil	-11666
▁kilogr	-11667
▁palace	-11668
▁stoped	-11669
▁vacuum	-11670
▁Airport	-11671
▁bathtub	-11672
▁blowing	-11673
▁browser	-11674
▁cricket	-11675
▁elegant	-11676
▁laptops	-11677
▁scratch	-11678
▁skipped	-11679
▁threats	-11680
bbc.co.uk	-11681
fficiency	-11682
▁Michigan	-11683
▁Spending	-11684
▁absorbed	-11685
▁delicate	-11686
▁grammars	-11687
▁minority	-11688
▁moderate	-11689
▁pressing	-11690
▁printing	-11691
▁shouting	-11692
▁someting	-11693
▁utilized	-11694
▁Comparing	-11695
▁infection	-11696
▁meanwhile	-11697
cys.gov.sg/	-11698
▁Apparently	-11699
▁Democratic	-11700
▁biological	-11701
▁disappoint	-11702
▁prohibited	-11703
▁backgrounds	-11704
▁drastically	-11705
▁interviewed	-11706
▁observation	-11707
▁environments	-11708
▁misunderstood	-11709
/v	-11710
75	-11711
_t	-11712
cn	-11713
ELL	-11714
ERE	-11715
nut	-11716
▁AR	-11717
▁CV	-11718
▁QQ	-11719
▁ah	-11720
ctic	-11721
eber	-11722
onda	-11723
▁Far	-11724
▁Fer	-11725
▁Ill	-11726
▁Luc	-11727
▁Rub	-11728
▁cer	-11729
▁sho	-11730
▁vig	-11731
cking	-11732
tedly	-11733
▁Anne	-11734
▁Hang	-11735
▁NASA	-11736
▁arom	-11737
▁beha	-11738
▁enab	-11739
▁reck	-11740
▁ruin	-11741
▁saus	-11742
▁tens	-11743
▁toug	-11744
▁Camer	-11745
▁Eiken	-11746
▁Incre	-11747
▁Peace	-11748
▁advis	-11749
▁angel	-11750
▁angle	-11751
▁cured	-11752
▁domin	-11753
▁grasp	-11754
▁hired	-11755
▁nerve	-11756
▁poems	-11757
▁thief	-11758
▁towel	-11759
▁truck	-11760
jective	-11761
veloped	-11762
▁Corpor	-11763
▁Famous	-11764
▁bakery	-11765
▁betray	-11766
▁buried	-11767
▁corros	-11768
▁couldn	-11769
▁drives	-11770
▁engage	-11771
▁fixing	-11772
▁oxygen	-11773
▁relate	-11774
▁solely	-11775
children	-11776
▁Culture	-11777
▁Graying	-11778
▁amusing	-11779
▁beating	-11780
▁dilemma	-11781
▁enemies	-11782
▁ourself	-11783
▁packing	-11784
▁partial	-11785
▁reconst	-11786
▁tuesday	-11787
.inl.gov/	-11788
.nih.gov/	-11789
▁Buddhist	-11790
▁Takoyaki	-11791
▁Yamagata	-11792
▁downturn	-11793
▁examined	-11794
▁happiest	-11795
▁landlord	-11796
▁opposing	-11797
▁pharmacy	-11798
▁resolved	-11799
▁stresses	-11800
▁Economics	-11801
▁Ikebukuro	-11802
▁analyzing	-11803
▁appliance	-11804
▁belonging	-11805
▁bothering	-11806
▁indicated	-11807
▁marvelous	-11808
Engineering	-11809
▁Originally	-11810
▁Portuguese	-11811
▁Restaurant	-11812
▁animations	-11813
▁cigarettes	-11814
▁evaluation	-11815
▁journalist	-11816
▁medication	-11817
▁passionate	-11818
▁unemployed	-11819
▁celebrating	-11820
▁potentially	-11821
▁proficiency	-11822
-S	-11823
MA	-11824
OY	-11825
_s	-11826
ALL	-11827
AST	-11828
IES	-11829
USE	-11830
aks	-11831
ika	-11832
omo	-11833
rav	-11834
▁03	-11835
▁Ye	-11836
aion	-11837
into	-11838
lers	-11839
pose	-11840
quet	-11841
rive	-11842
vell	-11843
▁250	-11844
▁hyd	-11845
▁msn	-11846
▁sav	-11847
▁stu	-11848
arter	-11849
ensus	-11850
liest	-11851
ockey	-11852
omore	-11853
phony	-11854
techn	-11855
▁30th	-11856
▁Belg	-11857
▁Flor	-11858
▁Nort	-11859
▁UNIQ	-11860
▁deem	-11861
▁deer	-11862
▁disl	-11863
▁enjo	-11864
▁outf	-11865
▁puri	-11866
▁soba	-11867
ophone	-11868
visory	-11869
▁Faith	-11870
▁brake	-11871
▁chart	-11872
▁colon	-11873
▁invis	-11874
▁owned	-11875
▁restr	-11876
▁rises	-11877
▁stady	-11878
▁stall	-11879
▁tiger	-11880
▁winds	-11881
.com/sc	-11882
atholic	-11883
▁Silver	-11884
▁assets	-11885
▁exclus	-11886
▁guiter	-11887
▁hinder	-11888
▁hiring	-11889
▁poetry	-11890
▁quarre	-11891
▁spouse	-11892
▁sticky	-11893
oubtedly	-11894
▁Welcome	-11895
▁authors	-11896
▁congest	-11897
▁desktop	-11898
▁diamond	-11899
▁ranking	-11900
▁revenge	-11901
▁sandwic	-11902
▁travels	-11903
▁unclear	-11904
▁Advisory	-11905
▁Filipino	-11906
▁Football	-11907
▁bacteria	-11908
▁contries	-11909
▁diabetes	-11910
▁incurred	-11911
▁mutation	-11912
▁profound	-11913
▁scenario	-11914
▁severely	-11915
▁survived	-11916
▁thursday	-11917
▁Japanease	-11918
▁achieving	-11919
▁affecting	-11920
▁conductor	-11921
▁conflicts	-11922
▁residence	-11923
▁Commission	-11924
▁applicants	-11925
▁integrated	-11926
▁intresting	-11927
▁prosperity	-11928
▁Governments	-11929
▁populations	-11930
▁constructing	-11931
▁participating	-11932
▁simultaneously	-11933
-a	-11934
3/	-11935
49	-11936
lv	-11937
IST	-11938
OUN	-11939
bor	-11940
ede	-11941
omi	-11942
▁3G	-11943
▁CS	-11944
▁LC	-11945
Book	-11946
brev	-11947
erer	-11948
ulpt	-11949
wich	-11950
yaki	-11951
zech	-11952
zona	-11953
▁Del	-11954
▁III	-11955
▁Jew	-11956
▁Key	-11957
▁Lab	-11958
▁Ram	-11959
▁Tar	-11960
▁tum	-11961
▁wan	-11962
aceut	-11963
ashes	-11964
bucks	-11965
chers	-11966
enter	-11967
▁1960	-11968
▁Dise	-11969
▁Lost	-11970
▁Prop	-11971
▁Rice	-11972
▁cave	-11973
▁clip	-11974
▁daug	-11975
▁evey	-11976
▁recc	-11977
▁rewr	-11978
▁stew	-11979
▁stun	-11980
plants	-11981
▁Const	-11982
▁Drama	-11983
▁Lunch	-11984
▁Sarah	-11985
▁Seven	-11986
▁alike	-11987
▁boast	-11988
▁fragr	-11989
▁genre	-11990
▁label	-11991
▁lasts	-11992
▁legis	-11993
▁natto	-11994
▁rocks	-11995
▁roots	-11996
▁sixth	-11997
▁theft	-11998
mission	-11999
▁Mobile	-12000
▁Shakes	-12001
▁abbrev	-12002
▁absorb	-12003
▁dancer	-12004
▁defend	-12005
▁nostal	-12006
▁pillow	-12007
▁prince	-12008
▁raises	-12009
▁rubber	-12010
▁yogurt	-12011
▁//www.h	-12012
▁Arizona	-12013
▁Imagine	-12014
▁Japanes	-12015
▁Turkish	-12016
▁Uranium	-12017
▁captain	-12018
▁cheered	-12019
▁eclipse	-12020
▁gallery	-12021
▁gardens	-12022
▁haircut	-12023
▁harmony	-12024
▁painter	-12025
▁vending	-12026
▁enrolled	-12027
▁icecream	-12028
▁isolated	-12029
▁rational	-12030
▁restroom	-12031
▁screamed	-12032
▁tropical	-12033
▁Diffusion	-12034
▁Universal	-12035
▁consisted	-12036
▁expertise	-12037
▁instantly	-12038
▁magnitude	-12039
▁timetable	-12040
▁unpredict	-12041
▁acceptance	-12042
▁consultant	-12043
▁eliminated	-12044
▁enviroment	-12045
▁organising	-12046
▁perception	-12047
▁demographic	-12048
▁desperately	-12049
▁frustration	-12050
▁embarrassing	-12051
07	-12052
oi	-12053
OST	-12054
OUS	-12055
ker	-12056
lle	-12057
oco	-12058
ulu	-12059
won	-12060
▁HE	-12061
▁mp	-12062
.stm	-12063
educ	-12064
ierd	-12065
lock	-12066
onna	-12067
oust	-12068
tail	-12069
▁Dam	-12070
▁Hop	-12071
▁Ira	-12072
▁Pub	-12073
▁WOR	-12074
▁Wal	-12075
▁bio	-12076
▁hmm	-12077
▁wip	-12078
ycles	-12079
▁1950	-12080
▁Card	-12081
▁LIFE	-12082
▁Lord	-12083
▁deaf	-12084
▁hits	-12085
▁lent	-12086
▁rehe	-12087
▁scat	-12088
▁shoe	-12089
▁univ	-12090
anches	-12091
giving	-12092
inator	-12093
liness	-12094
master	-12095
▁Aichi	-12096
▁Chile	-12097
▁Dance	-12098
▁Liber	-12099
▁Saint	-12100
▁kitty	-12101
▁naked	-12102
▁taked	-12103
▁thats	-12104
▁toeic	-12105
▁vegit	-12106
keeping	-12107
ructure	-12108
▁2weeks	-12109
▁Coffee	-12110
▁Eating	-12111
▁apples	-12112
▁browse	-12113
▁fridge	-12114
▁mornig	-12115
▁parked	-12116
▁patent	-12117
▁priest	-12118
▁rating	-12119
▁roller	-12120
▁salmon	-12121
▁sculpt	-12122
▁Correct	-12123
▁assured	-12124
▁contrad	-12125
▁curtain	-12126
▁dischar	-12127
▁foreing	-12128
▁obesity	-12129
▁quietly	-12130
▁ringing	-12131
▁trading	-12132
▁trivial	-12133
▁Marathon	-12134
▁Republic	-12135
▁appropri	-12136
▁barriers	-12137
▁cheating	-12138
▁consumed	-12139
▁deserves	-12140
▁determin	-12141
▁foremost	-12142
▁historic	-12143
▁operator	-12144
▁stereoty	-12145
▁Kagoshima	-12146
▁cancelled	-12147
▁committee	-12148
▁evolution	-12149
▁submitted	-12150
▁Scientists	-12151
▁challenged	-12152
▁illustrate	-12153
▁corporation	-12154
▁enterprises	-12155
▁instruction	-12156
▁intervention	-12157
▁photographer	-12158
▁Administration	-12159
▁infrastructures	-12160
2/	-12161
47	-12162
CP	-12163
FA	-12164
UD	-12165
_d	-12166
HER	-12167
OGR	-12168
OME	-12169
ORT	-12170
ags	-12171
eem	-12172
ibi	-12173
ipt	-12174
oli	-12175
uru	-12176
▁85	-12177
▁DC	-12178
▁Iv	-12179
▁ka	-12180
▁oz	-12181
....	-12182
acts	-12183
jing	-12184
rail	-12185
text	-12186
uros	-12187
ushu	-12188
yoza	-12189
▁Dar	-12190
▁Equ	-12191
▁Joe	-12192
▁Set	-12193
▁cro	-12194
▁lap	-12195
▁pp.	-12196
▁sib	-12197
▁tog	-12198
GLISH	-12199
akana	-12200
angle	-12201
icult	-12202
ongol	-12203
▁1500	-12204
▁Mrs.	-12205
▁STAR	-12206
▁Sent	-12207
▁debt	-12208
▁guns	-12209
▁peel	-12210
▁pine	-12211
▁rack	-12212
▁rect	-12213
▁refe	-12214
▁terr	-12215
▁wage	-12216
6.html	-12217
former	-12218
▁Jason	-12219
▁Opera	-12220
▁acute	-12221
▁afflu	-12222
▁aroud	-12223
▁flaws	-12224
▁infin	-12225
▁poses	-12226
▁scool	-12227
▁seoul	-12228
▁steep	-12229
▁swear	-12230
▁union	-12231
▁Avatar	-12232
▁Change	-12233
▁Studio	-12234
▁Univer	-12235
▁boxing	-12236
▁chiken	-12237
▁contry	-12238
▁costed	-12239
▁digest	-12240
▁ghosts	-12241
▁glance	-12242
▁locate	-12243
▁parson	-12244
▁shapes	-12245
▁thougt	-12246
▁viable	-12247
▁writen	-12248
systems/	-12249
▁Eastern	-12250
▁capture	-12251
▁confess	-12252
▁dignity	-12253
▁failing	-12254
▁focuses	-12255
▁forests	-12256
▁forword	-12257
▁hasband	-12258
▁inherit	-12259
▁opposed	-12260
▁outline	-12261
▁protest	-12262
▁pudding	-12263
▁vitamin	-12264
-4.org/Te	-12265
uccessful	-12266
▁Genetics	-12267
▁Hongkong	-12268
▁approved	-12269
▁bachelor	-12270
▁cheering	-12271
▁colleage	-12272
▁covering	-12273
▁develops	-12274
▁estimate	-12275
▁guidance	-12276
▁manpower	-12277
▁obstacle	-12278
▁punished	-12279
▁sections	-12280
▁ultimate	-12281
▁Specially	-12282
▁answering	-12283
▁hairstyle	-12284
▁screaming	-12285
▁travelled	-12286
ogeneration	-12287
▁Innovation	-12288
▁references	-12289
▁controlling	-12290
▁entertaining	-12291
4/	-12292
HT	-12293
ARA	-12294
ESS	-12295
Res	-12296
fty	-12297
ran	-12298
run	-12299
▁09	-12300
▁2B	-12301
▁Az	-12302
▁BR	-12303
▁nu	-12304
Asia	-12305
aing	-12306
arer	-12307
cool	-12308
ualy	-12309
uine	-12310
utan	-12311
▁//d	-12312
▁Ang	-12313
▁Val	-12314
▁lin	-12315
arbon	-12316
eches	-12317
ieves	-12318
igers	-12319
orian	-12320
paper	-12321
sians	-12322
words	-12323
▁BECA	-12324
▁Disc	-12325
▁Dist	-12326
▁Geor	-12327
▁Happ	-12328
▁Past	-12329
▁Penn	-12330
▁View	-12331
▁Yest	-12332
▁beet	-12333
▁emit	-12334
▁mile	-12335
▁wins	-12336
▁wrap	-12337
▁yong	-12338
/topic	-12339
ashing	-12340
▁Creat	-12341
▁HongK	-12342
▁Onsen	-12343
▁Stand	-12344
▁Video	-12345
▁dread	-12346
▁maked	-12347
▁renov	-12348
▁scarf	-12349
oration	-12350
▁Agatha	-12351
▁Andrew	-12352
▁Daniel	-12353
▁Iphone	-12354
▁Prince	-12355
▁Temple	-12356
▁barber	-12357
▁brains	-12358
▁buffet	-12359
▁crowed	-12360
▁faults	-12361
▁fierce	-12362
▁gloves	-12363
▁issued	-12364
▁phoned	-12365
▁richer	-12366
▁runner	-12367
▁strive	-12368
▁useing	-12369
▁wright	-12370
▁ENGLISH	-12371
▁Holland	-12372
▁Morning	-12373
▁assumed	-12374
▁bacause	-12375
▁british	-12376
▁couldnt	-12377
▁devoted	-12378
▁filling	-12379
▁leaking	-12380
▁monkeys	-12381
▁recipes	-12382
▁simpler	-12383
ictionary	-12384
▁Cambodia	-12385
▁Manpower	-12386
▁cosmetic	-12387
▁dementia	-12388
▁informal	-12389
▁lighting	-12390
▁reporter	-12391
▁steadily	-12392
▁alleviate	-12393
▁attendant	-12394
▁collapsed	-12395
▁confusion	-12396
▁dictation	-12397
▁diversity	-12398
▁luxurious	-12399
▁overslept	-12400
▁postponed	-12401
▁precisely	-12402
▁prominent	-12403
▁sophomore	-12404
▁strongest	-12405
▁unwilling	-12406
▁violation	-12407
▁waterfall	-12408
▁Indonesian	-12409
▁combustion	-12410
▁criticized	-12411
▁directions	-12412
▁functional	-12413
▁inadequate	-12414
▁traditions	-12415
▁accompanied	-12416
▁conditioning	-12417
▁significance	-12418
▁Supercritical-W	-12419
'T	-12420
/P	-12421
jy	-12422
sa	-12423
/hi	-12424
AMA	-12425
OOD	-12426
abu	-12427
esh	-12428
ico	-12429
kei	-12430
▁43	-12431
▁Bh	-12432
▁GW	-12433
▁HR	-12434
aire	-12435
assy	-12436
cell	-12437
gish	-12438
helf	-12439
nese	-12440
omes	-12441
ucle	-12442
▁Dai	-12443
▁Dev	-12444
▁Fac	-12445
▁Fun	-12446
▁Mao	-12447
▁Nep	-12448
▁Sat	-12449
▁Tax	-12450
▁Tok	-12451
▁Ult	-12452
▁ank	-12453
▁aug	-12454
▁bou	-12455
▁exs	-12456
▁lip	-12457
-free	-12458
ained	-12459
ayama	-12460
azine	-12461
isher	-12462
lings	-12463
stein	-12464
▁28th	-12465
▁Auth	-12466
▁Bern	-12467
▁Haha	-12468
▁Hans	-12469
▁Iraq	-12470
▁Pict	-12471
▁Sher	-12472
▁Tanz	-12473
▁Team	-12474
▁Yosh	-12475
▁bugs	-12476
▁conj	-12477
▁engl	-12478
▁knit	-12479
▁mins	-12480
▁proc	-12481
▁warn	-12482
approp	-12483
arming	-12484
global	-12485
panese	-12486
unicip	-12487
▁Angel	-12488
▁Heath	-12489
▁Irish	-12490
▁Plant	-12491
▁Scott	-12492
▁advoc	-12493
▁asian	-12494
▁bears	-12495
▁chess	-12496
▁decay	-12497
▁eleph	-12498
▁femal	-12499
▁haird	-12500
▁heads	-12501
▁kyoto	-12502
▁salts	-12503
▁shamp	-12504
channel	-12505
etition	-12506
▁Englsh	-12507
▁Rather	-12508
▁assemb	-12509
▁dances	-12510
▁detrim	-12511
▁excurs	-12512
▁lawyer	-12513
▁panels	-12514
▁rolled	-12515
▁ruined	-12516
▁titles	-12517
▁//www.t	-12518
▁BECAUSE	-12519
▁Finland	-12520
▁Japanse	-12521
▁Somehow	-12522
▁amateur	-12523
▁automob	-12524
▁beloved	-12525
▁burdens	-12526
▁closest	-12527
▁elected	-12528
▁graying	-12529
▁hottest	-12530
▁imitate	-12531
▁imposed	-12532
▁refrain	-12533
▁rehabil	-12534
▁trigger	-12535
▁wishing	-12536
aceutical	-12537
effective	-12538
ortunatly	-12539
▁Engineer	-12540
▁HongKong	-12541
▁accuracy	-12542
▁creature	-12543
▁hardware	-12544
▁outgoing	-12545
▁relating	-12546
▁secretly	-12547
▁upstairs	-12548
.com/news/	-12549
▁Beautiful	-12550
▁Programme	-12551
▁accepting	-12552
▁alcoholic	-12553
▁calculate	-12554
▁competent	-12555
▁dumplings	-12556
▁geography	-12557
▁injection	-12558
▁invisible	-12559
▁occasions	-12560
▁provision	-12561
▁reflected	-12562
▁restarted	-12563
▁starbucks	-12564
▁approached	-12565
▁attracting	-12566
▁occurrence	-12567
▁profitable	-12568
▁purchasing	-12569
▁satisfying	-12570
▁youngsters	-12571
▁accessories	-12572
▁exhibitions	-12573
▁flexibility	-12574
▁restriction	-12575
▁civilization	-12576
▁disabilities	-12577
▁overwhelming	-12578
▁neighbourhood	-12579
AW	-12580
HA	-12581
II	-12582
ONG	-12583
ads	-12584
boy	-12585
fin	-12586
iro	-12587
udy	-12588
▁49	-12589
▁AF	-12590
▁IC	-12591
▁IF	-12592
▁OR	-12593
IECE	-12594
agen	-12595
aser	-12596
asse	-12597
cult	-12598
esse	-12599
gami	-12600
iens	-12601
lick	-12602
nuts	-12603
okes	-12604
pled	-12605
rick	-12606
yram	-12607
▁Dig	-12608
▁Ext	-12609
▁Miz	-12610
▁Pod	-12611
▁SUM	-12612
▁mp3	-12613
▁pep	-12614
▁sir	-12615
▁vow	-12616
.inel	-12617
/2/hi	-12618
azawa	-12619
ether	-12620
guard	-12621
oding	-12622
otion	-12623
▁Golf	-12624
▁Qing	-12625
▁Soba	-12626
▁arro	-12627
▁cans	-12628
▁dies	-12629
▁expe	-12630
▁incl	-12631
▁lamp	-12632
▁mere	-12633
▁obey	-12634
▁p.m.	-12635
▁sees	-12636
▁synt	-12637
imited	-12638
otland	-12639
▁Civil	-12640
▁Hallo	-12641
▁Honda	-12642
▁Linux	-12643
▁Louis	-12644
▁Phill	-12645
▁Saudi	-12646
▁drops	-12647
▁fails	-12648
▁ferry	-12649
▁futon	-12650
▁hypot	-12651
▁lacks	-12652
▁maths	-12653
▁mayor	-12654
▁moist	-12655
▁panel	-12656
▁rings	-12657
▁shore	-12658
▁stove	-12659
▁units	-12660
aterday	-12661
fection	-12662
iations	-12663
▁Aikido	-12664
▁Budget	-12665
▁Junior	-12666
▁Michel	-12667
▁Reason	-12668
▁Soccer	-12669
▁assure	-12670
▁bubble	-12671
▁curren	-12672
▁distur	-12673
▁guidel	-12674
▁learns	-12675
▁prayed	-12676
▁sensor	-12677
▁shrimp	-12678
▁spider	-12679
▁tricks	-12680
▁turkey	-12681
▁//www.g	-12682
▁//www.p	-12683
▁Florida	-12684
▁Samurai	-12685
▁combine	-12686
▁crossed	-12687
▁eastern	-12688
▁hurried	-12689
▁knocked	-12690
▁scolded	-12691
▁shrines	-12692
▁shuttle	-12693
▁stylish	-12694
▁viewers	-12695
ropolitan	-12696
▁Medicine	-12697
▁Practice	-12698
▁artistic	-12699
▁dropping	-12700
▁instruct	-12701
▁lifespan	-12702
▁societal	-12703
▁villages	-12704
.inel.gov/	-12705
/topicpage	-12706
▁Frequency	-12707
▁Guangzhou	-12708
▁Insurance	-12709
▁countless	-12710
▁purchased	-12711
▁spiritual	-12712
▁struggled	-12713
▁wandering	-12714
▁classified	-12715
▁landscapes	-12716
▁repeatedly	-12717
▁suspicious	-12718
▁discussions	-12719
▁identifying	-12720
.com/scitable	-12721
▁dissapointed	-12722
bbc.co.uk/2/hi	-12723
▁20Engineering	-12724
▁manufacturers	-12725
▁unpredictable	-12726
▁conversational	-12727
42	-12728
82	-12729
PO	-12730
__	-12731
ez	-12732
CTV	-12733
MER	-12734
agu	-12735
bac	-12736
ela	-12737
nan	-12738
oda	-12739
▁AP	-12740
▁BC	-12741
▁CG	-12742
▁IK	-12743
▁iT	-12744
▁ji	-12745
hend	-12746
ishi	-12747
mans	-12748
▁Die	-12749
▁Fle	-12750
▁GRE	-12751
▁Lar	-12752
▁Van	-12753
▁aqu	-12754
▁blo	-12755
▁plz	-12756
oyama	-12757
press	-12758
▁CCTV	-12759
▁Gran	-12760
▁Much	-12761
▁Prep	-12762
▁Till	-12763
▁comf	-12764
▁foll	-12765
▁lane	-12766
▁lips	-12767
▁mang	-12768
▁mock	-12769
▁poly	-12770
▁toll	-12771
▁urge	-12772
astics	-12773
forced	-12774
istant	-12775
itched	-12776
umbers	-12777
▁Andre	-12778
▁Often	-12779
▁Smart	-12780
▁https	-12781
▁idiot	-12782
▁loser	-12783
▁pengu	-12784
▁peple	-12785
▁quote	-12786
▁rival	-12787
▁self-	-12788
▁sould	-12789
raction	-12790
science	-12791
▁Peters	-12792
▁Resort	-12793
▁Secret	-12794
▁adress	-12795
▁beaten	-12796
▁bosses	-12797
▁closet	-12798
▁hiding	-12799
▁hockey	-12800
▁leaved	-12801
▁modest	-12802
▁moring	-12803
▁terrif	-12804
▁trends	-12805
aturally	-12806
▁Whereas	-12807
▁austral	-12808
▁budgets	-12809
▁careers	-12810
▁deposit	-12811
▁exhaust	-12812
▁females	-12813
▁genuine	-12814
▁langage	-12815
▁pancake	-12816
▁smokers	-12817
▁suffers	-12818
▁suscept	-12819
▁trusted	-12820
▁unavoid	-12821
▁whoever	-12822
liography	-12823
▁Advanced	-12824
▁Buddhism	-12825
▁Shakespe	-12826
▁ambition	-12827
▁bankrupt	-12828
▁costumes	-12829
▁distress	-12830
▁mosquito	-12831
▁needless	-12832
▁sacrific	-12833
▁seasonal	-12834
▁themself	-12835
▁Countries	-12836
▁addiction	-12837
▁allowance	-12838
▁compelled	-12839
▁component	-12840
▁criticize	-12841
▁expansion	-12842
▁fortunate	-12843
▁libraries	-12844
▁memorable	-12845
▁memorized	-12846
▁oversleep	-12847
▁specialty	-12848
▁Disneyland	-12849
▁Faithfully	-12850
▁allocation	-12851
▁equivalent	-12852
▁preventive	-12853
▁principles	-12854
▁relaxation	-12855
▁sandwiches	-12856
▁vegitables	-12857
▁temporarily	-12858
▁availability	-12859
▁registration	-12860
.7	-12861
62	-12862
hl	-12863
▁°	-12864
ERS	-12865
OUT	-12866
_in	-12867
imb	-12868
▁DJ	-12869
▁Ol	-12870
▁Po	-12871
▁Ut	-12872
▁fm	-12873
-res	-12874
anas	-12875
away	-12876
cano	-12877
corp	-12878
edge	-12879
emic	-12880
fere	-12881
iked	-12882
moon	-12883
onia	-12884
oung	-12885
some	-12886
▁Ans	-12887
▁Gun	-12888
▁Kab	-12889
▁USD	-12890
▁Var	-12891
▁bin	-12892
▁lav	-12893
▁ven	-12894
arted	-12895
ellow	-12896
ienna	-12897
ifies	-12898
naire	-12899
omori	-12900
overs	-12901
riage	-12902
▁Clin	-12903
▁Code	-12904
▁Java	-12905
▁beds	-12906
▁brid	-12907
▁encl	-12908
▁fart	-12909
▁gear	-12910
▁pics	-12911
▁solo	-12912
orious	-12913
otatsu	-12914
person	-12915
▁Citiz	-12916
▁Liter	-12917
▁bible	-12918
▁ceram	-12919
▁cheat	-12920
▁deals	-12921
▁dealt	-12922
▁indul	-12923
▁nasty	-12924
▁prost	-12925
▁salty	-12926
▁shark	-12927
▁twins	-12928
▁wings	-12929
essions	-12930
feature	-12931
library	-12932
▁Karate	-12933
▁Palace	-12934
▁combat	-12935
▁disast	-12936
▁enjoys	-12937
▁finals	-12938
▁funded	-12939
▁reccom	-12940
▁senses	-12941
▁tablet	-12942
▁weaker	-12943
security	-12944
▁Gallery	-12945
▁Keeping	-12946
▁Meeting	-12947
▁Present	-12948
▁choosed	-12949
▁dynamic	-12950
▁ensured	-12951
▁essence	-12952
▁flowing	-12953
▁grabbed	-12954
▁heavier	-12955
▁heroine	-12956
▁inspire	-12957
▁octopus	-12958
▁pouring	-12959
▁pumpkin	-12960
▁recieve	-12961
▁relying	-12962
▁samurai	-12963
▁signals	-12964
▁thirsty	-12965
▁trainer	-12966
▁wrapped	-12967
▁Heritage	-12968
▁Ofcourse	-12969
▁Training	-12970
▁Victoria	-12971
▁alphabet	-12972
▁boarding	-12973
▁branches	-12974
▁counties	-12975
▁dialogue	-12976
▁oriented	-12977
▁reliance	-12978
▁cockroach	-12979
▁concluded	-12980
▁describes	-12981
▁economies	-12982
▁educating	-12983
▁favorites	-12984
▁inflation	-12985
▁prejudice	-12986
▁satellite	-12987
▁secretary	-12988
▁unlimited	-12989
▁Foundation	-12990
▁Huntington	-12991
▁appriciate	-12992
▁dependence	-12993
▁knowledges	-12994
▁emotionally	-12995
▁investigate	-12996
▁lead-cooled	-12997
▁utilization	-12998
▁advancements	-12999
▁capabilities	-13000
▁constitution	-13001
▁appropriately	-13002
08	-13003
5/	-13004
D.	-13005
eb	-13006
yy	-13007
-it	-13008
APH	-13009
ATE	-13010
ATS	-13011
RC&	-13012
cgi	-13013
iac	-13014
▁3M	-13015
▁Ip	-13016
▁Lu	-13017
▁Ve	-13018
etly	-13019
hiro	-13020
iche	-13021
ilsh	-13022
late	-13023
tles	-13024
▁Alt	-13025
▁Dif	-13026
▁Dri	-13027
▁Est	-13028
▁FRI	-13029
▁Ger	-13030
▁Had	-13031
▁Jen	-13032
▁MBA	-13033
▁Moh	-13034
▁Sak	-13035
▁XXX	-13036
▁rac	-13037
▁tub	-13038
actly	-13039
cakes	-13040
inity	-13041
pload	-13042
space	-13043
think	-13044
ughty	-13045
urary	-13046
▁1900	-13047
▁Half	-13048
▁Iron	-13049
▁Jobs	-13050
▁Line	-13051
▁Soph	-13052
▁Trip	-13053
▁Yang	-13054
▁anch	-13055
▁carb	-13056
▁coke	-13057
▁cows	-13058
▁geek	-13059
▁moun	-13060
▁muff	-13061
▁negl	-13062
▁pant	-13063
▁pays	-13064
▁pier	-13065
▁stam	-13066
▁twin	-13067
▁wast	-13068
▁yest	-13069
▁conso	-13070
▁freak	-13071
▁handy	-13072
▁hates	-13073
▁hered	-13074
▁hills	-13075
▁imper	-13076
▁knees	-13077
▁metro	-13078
▁rugby	-13079
▁wirte	-13080
aration	-13081
osphere	-13082
raining	-13083
station	-13084
▁Muslim	-13085
▁Police	-13086
▁Shrine	-13087
▁UNIQLO	-13088
▁arises	-13089
▁fabric	-13090
▁facial	-13091
▁onions	-13092
▁traine	-13093
-related	-13094
ondition	-13095
▁Clearly	-13096
▁Natural	-13097
▁Overall	-13098
▁bargain	-13099
▁coaster	-13100
▁conquer	-13101
▁favorit	-13102
▁fucking	-13103
▁inhabit	-13104
▁pressed	-13105
▁rehears	-13106
▁rolling	-13107
▁shampoo	-13108
▁stretch	-13109
▁sunburn	-13110
▁visible	-13111
/articles	-13112
▁//www.ne	-13113
▁Swimming	-13114
▁animated	-13115
▁cucumber	-13116
▁dificult	-13117
▁dumpling	-13118
▁globally	-13119
▁handmade	-13120
▁nutshell	-13121
▁prevents	-13122
▁referred	-13123
▁surgeons	-13124
▁MacDonald	-13125
▁campaigns	-13126
▁christian	-13127
▁informing	-13128
▁partially	-13129
▁pertinent	-13130
urveillance	-13131
▁attributed	-13132
▁generators	-13133
▁recovering	-13134
▁automobiles	-13135
▁beautifully	-13136
▁circulation	-13137
▁departments	-13138
▁frustrating	-13139
▁practically	-13140
▁remembering	-13141
▁catastrophic	-13142
▁corporations	-13143
▁psychologists	-13144
.b	-13145
16	-13146
lm	-13147
ECD	-13148
bra	-13149
htr	-13150
imp	-13151
whe	-13152
▁54	-13153
▁Ay	-13154
▁Di	-13155
▁F.	-13156
▁Gy	-13157
▁KN	-13158
▁MA	-13159
▁Ra	-13160
ALLY	-13161
aily	-13162
asal	-13163
ault	-13164
racy	-13165
rary	-13166
vere	-13167
▁Hik	-13168
▁MAR	-13169
▁Pos	-13170
▁Ref	-13171
▁Rev	-13172
▁Way	-13173
▁apt	-13174
▁dor	-13175
▁ome	-13176
▁roy	-13177
▁yam	-13178
/full	-13179
assed	-13180
erent	-13181
utter	-13182
ystem	-13183
▁1993	-13184
▁27th	-13185
▁Blog	-13186
▁Boys	-13187
▁E.M.	-13188
▁Lisa	-13189
▁OECD	-13190
▁Obon	-13191
▁Roll	-13192
▁Walk	-13193
▁bold	-13194
▁crab	-13195
▁harb	-13196
▁lied	-13197
▁pess	-13198
▁prat	-13199
▁tomb	-13200
▁wact	-13201
▁wool	-13202
acious	-13203
ciated	-13204
ndrome	-13205
vation	-13206
▁2days	-13207
▁Europ	-13208
▁Lucky	-13209
▁Small	-13210
▁Solar	-13211
▁blond	-13212
▁cashi	-13213
▁crush	-13214
▁jelly	-13215
▁liver	-13216
▁naive	-13217
▁piled	-13218
▁shots	-13219
▁unpre	-13220
Reactor	-13221
rations	-13222
ulatory	-13223
uration	-13224
▁2hours	-13225
▁Angels	-13226
▁Giants	-13227
▁Mongol	-13228
▁Native	-13229
▁Season	-13230
▁Unless	-13231
▁becase	-13232
▁bitten	-13233
▁chairs	-13234
▁cought	-13235
▁deadly	-13236
▁garage	-13237
▁hanged	-13238
▁impose	-13239
▁shcool	-13240
▁tunnel	-13241
▁warned	-13242
/content	-13243
icularly	-13244
newsasia	-13245
▁Archite	-13246
▁Country	-13247
▁Titanic	-13248
▁adapted	-13249
▁arising	-13250
▁briefly	-13251
▁console	-13252
▁eagerly	-13253
▁enforce	-13254
▁healing	-13255
▁marvell	-13256
▁mistook	-13257
▁pollute	-13258
▁puzzled	-13259
▁reverse	-13260
▁seaside	-13261
▁spectac	-13262
▁swallow	-13263
▁thereby	-13264
▁adoption	-13265
▁earliest	-13266
▁knitting	-13267
▁measured	-13268
▁nonsense	-13269
▁regreted	-13270
▁bookshelf	-13271
▁drawbacks	-13272
▁generates	-13273
▁monuments	-13274
▁projected	-13275
▁realizing	-13276
appropriate	-13277
▁chopsticks	-13278
▁commitment	-13279
▁disastrous	-13280
▁hesitation	-13281
▁incredibly	-13282
▁introduces	-13283
▁microphone	-13284
▁officially	-13285
▁paperbacks	-13286
▁preference	-13287
▁publishing	-13288
▁smartphone	-13289
▁Shakespeare	-13290
▁coincidence	-13291
▁constraints	-13292
▁instructions	-13293
▁consciousness	-13294
▁qualifications	-13295
&m	-13296
.9	-13297
ML	-13298
PL	-13299
PR	-13300
.ca	-13301
AMI	-13302
AND	-13303
TRE	-13304
eer	-13305
low	-13306
rug	-13307
▁52	-13308
▁56	-13309
▁Cy	-13310
▁IP	-13311
ASHI	-13312
born	-13313
ener	-13314
ercy	-13315
hent	-13316
itly	-13317
lace	-13318
lett	-13319
oker	-13320
pool	-13321
roke	-13322
upun	-13323
▁Asa	-13324
▁Bat	-13325
▁Kon	-13326
▁MP3	-13327
▁Mer	-13328
▁Occ	-13329
▁Six	-13330
▁Umm	-13331
▁asp	-13332
▁ses	-13333
▁tat	-13334
ample	-13335
ccess	-13336
ergic	-13337
inson	-13338
nning	-13339
stats	-13340
▁.The	-13341
▁Adam	-13342
▁Beer	-13343
▁Conf	-13344
▁Lion	-13345
▁Mess	-13346
▁deci	-13347
▁fits	-13348
▁pand	-13349
▁tran	-13350
/pdfs/	-13351
atched	-13352
cribed	-13353
okemon	-13354
▁Crist	-13355
▁Disco	-13356
▁Henry	-13357
▁Meiji	-13358
▁Motor	-13359
▁Nepal	-13360
▁chaos	-13361
▁creep	-13362
▁incap	-13363
▁mochi	-13364
▁olymp	-13365
▁panda	-13366
▁perse	-13367
▁relay	-13368
▁squee	-13369
▁Colomb	-13370
▁Custom	-13371
▁Edison	-13372
▁Effect	-13373
▁Finaly	-13374
▁Resear	-13375
▁albums	-13376
▁backup	-13377
▁commod	-13378
▁elabor	-13379
▁exceed	-13380
▁fiance	-13381
▁forese	-13382
▁marked	-13383
▁pedest	-13384
▁physic	-13385
▁powers	-13386
▁recite	-13387
▁refuge	-13388
▁sincer	-13389
▁sitcom	-13390
▁superi	-13391
▁yelled	-13392
electric	-13393
unicipal	-13394
▁bathing	-13395
▁beliefs	-13396
▁compose	-13397
▁defects	-13398
▁drought	-13399
▁feather	-13400
▁melting	-13401
▁prefect	-13402
▁tightly	-13403
▁vampire	-13404
▁venture	-13405
▁watashi	-13406
▁Likewise	-13407
▁acquired	-13408
▁contacts	-13409
▁divorced	-13410
▁eighteen	-13411
▁recalled	-13412
▁reviewed	-13413
▁threaten	-13414
▁thriller	-13415
▁Anonymous	-13416
▁Economist	-13417
▁Materials	-13418
▁believing	-13419
▁commented	-13420
▁container	-13421
▁diagnosis	-13422
▁enhancing	-13423
▁intersted	-13424
▁pressures	-13425
▁responses	-13426
▁schedules	-13427
▁assistants	-13428
▁consulting	-13429
▁transfered	-13430
▁undeniable	-13431
▁weaknesses	-13432
▁catastrophe	-13433
▁detrimental	-13434
▁handicapped	-13435
▁necessities	-13436
▁obligations	-13437
.com/articles	-13438
▁Bibliography	-13439
▁congratulate	-13440
▁demonstrated	-13441
▁satisfactory	-13442
▁unconsciously	-13443
-D	-13444
/D	-13445
db	-13446
ml	-13447
vd	-13448
-ch	-13449
AYS	-13450
ONE	-13451
hol	-13452
inc	-13453
iva	-13454
war	-13455
▁41	-13456
▁Ba	-13457
▁LE	-13458
▁mi	-13459
2007	-13460
aied	-13461
asis	-13462
cued	-13463
iaea	-13464
isha	-13465
real	-13466
sylv	-13467
▁Aff	-13468
▁Cra	-13469
▁Hit	-13470
▁Jam	-13471
▁Jay	-13472
▁Sem	-13473
▁Sex	-13474
▁Sri	-13475
▁Yen	-13476
▁Zoo	-13477
▁apr	-13478
▁awa	-13479
▁hid	-13480
▁inp	-13481
▁kar	-13482
▁kin	-13483
▁mit	-13484
▁nag	-13485
▁pip	-13486
▁sew	-13487
apple	-13488
attan	-13489
fting	-13490
icate	-13491
limin	-13492
matic	-13493
print	-13494
urant	-13495
ussie	-13496
▁Band	-13497
▁Carl	-13498
▁Dora	-13499
▁Gene	-13500
▁Jeff	-13501
▁Sake	-13502
▁Shen	-13503
▁Tree	-13504
▁Xmas	-13505
▁avoc	-13506
▁cite	-13507
▁cozy	-13508
▁dubb	-13509
▁pale	-13510
▁publ	-13511
▁taht	-13512
▁tape	-13513
▁torn	-13514
▁wors	-13515
▁york	-13516
hedral	-13517
nature	-13518
orized	-13519
▁19.00	-13520
▁Books	-13521
▁Phone	-13522
▁Stone	-13523
▁Vinci	-13524
▁malls	-13525
▁revol	-13526
▁sized	-13527
▁twent	-13528
atories	-13529
ocation	-13530
▁Ethics	-13531
▁Invest	-13532
▁calmly	-13533
▁crowds	-13534
▁diplom	-13535
▁firend	-13536
▁frends	-13537
▁marine	-13538
▁melted	-13539
▁mounth	-13540
▁noises	-13541
▁pessim	-13542
▁poorer	-13543
▁spends	-13544
▁worlds	-13545
ciations	-13546
▁Angeles	-13547
▁Brother	-13548
▁Express	-13549
▁Fleming	-13550
▁Highway	-13551
▁Running	-13552
▁debates	-13553
▁farming	-13554
▁infring	-13555
▁jewelry	-13556
▁longing	-13557
▁magical	-13558
▁ongoing	-13559
▁periods	-13560
▁remeber	-13561
▁samples	-13562
▁shortly	-13563
▁vinegar	-13564
▁wealthy	-13565
▁worship	-13566
ationally	-13567
▁clinical	-13568
▁declared	-13569
▁finishes	-13570
▁floating	-13571
▁homesick	-13572
▁instinct	-13573
▁password	-13574
▁reserves	-13575
▁starving	-13576
employment	-13577
▁exploring	-13578
▁fulfilled	-13579
▁minimized	-13580
▁pacemaker	-13581
▁screening	-13582
▁summarize	-13583
▁very-high	-13584
ortunatelly	-13585
▁exhausting	-13586
▁priorities	-13587
▁respective	-13588
▁separation	-13589
▁undergoing	-13590
▁vegetarian	-13591
▁acknowledge	-13592
▁demonstrate	-13593
▁continuation	-13594
▁experimental	-13595
▁independently	-13596
▁questionnaire	-13597
/B	-13598
59	-13599
En	-13600
va	-13601
UST	-13602
gas	-13603
ogo	-13604
oni	-13605
▁46	-13606
▁FF	-13607
▁ko	-13608
▁ps	-13609
▁um	-13610
empl	-13611
enth	-13612
gree	-13613
olis	-13614
sien	-13615
uten	-13616
▁//g	-13617
▁ARE	-13618
▁Buy	-13619
▁DIS	-13620
▁Ess	-13621
▁HAD	-13622
▁Kin	-13623
▁MAN	-13624
▁MIT	-13625
▁Mai	-13626
▁Mie	-13627
▁Suz	-13628
▁vom	-13629
acked	-13630
etion	-13631
ical-	-13632
lders	-13633
oning	-13634
plete	-13635
proof	-13636
udget	-13637
▁Dark	-13638
▁Dead	-13639
▁Pers	-13640
▁Stop	-13641
▁TEST	-13642
▁bust	-13643
▁cage	-13644
▁coup	-13645
▁dens	-13646
▁dyed	-13647
▁exit	-13648
▁palm	-13649
▁porn	-13650
▁pubs	-13651
▁rods	-13652
▁tact	-13653
▁thir	-13654
▁viet	-13655
family	-13656
oguchi	-13657
ometer	-13658
ortune	-13659
rticle	-13660
uality	-13661
upload	-13662
urrent	-13663
▁Hsien	-13664
▁Loong	-13665
▁Otaku	-13666
▁PIECE	-13667
▁Royal	-13668
▁actin	-13669
▁babys	-13670
▁compr	-13671
▁crane	-13672
▁cryst	-13673
▁dimin	-13674
▁diner	-13675
▁links	-13676
▁merry	-13677
▁monop	-13678
▁nails	-13679
▁scoot	-13680
▁seawe	-13681
▁undes	-13682
▁unint	-13683
▁whith	-13684
▁wives	-13685
▁Buddha	-13686
▁Contin	-13687
▁Norway	-13688
▁Taylor	-13689
▁Vienna	-13690
▁Yellow	-13691
▁Yukata	-13692
▁baking	-13693
▁cotton	-13694
▁expose	-13695
▁fourty	-13696
▁grants	-13697
▁grapes	-13698
▁joking	-13699
▁laught	-13700
▁margin	-13701
▁sleeps	-13702
▁tenses	-13703
▁usualy	-13704
▁valley	-13705
sylvania	-13706
▁Austria	-13707
▁Exactly	-13708
▁Regards	-13709
▁Thought	-13710
▁cashier	-13711
▁donated	-13712
▁incomes	-13713
▁lantern	-13714
▁naughty	-13715
▁posture	-13716
▁recived	-13717
▁romance	-13718
▁tedious	-13719
▁tracked	-13720
▁transit	-13721
imes.com/	-13722
upuncture	-13723
▁Problems	-13724
▁arrogant	-13725
▁browsing	-13726
▁charging	-13727
▁commuter	-13728
▁coughing	-13729
▁counting	-13730
▁defining	-13731
▁detected	-13732
▁sciences	-13733
▁shanghai	-13734
▁suitcase	-13735
oh.gov.sg/	-13736
▁Naturally	-13737
▁charactor	-13738
▁corrosion	-13739
▁extension	-13740
▁favorable	-13741
▁hazardous	-13742
▁inventing	-13743
▁monitored	-13744
▁policeman	-13745
▁sensation	-13746
▁suspected	-13747
▁universal	-13748
▁witnessed	-13749
▁apologized	-13750
▁classrooms	-13751
▁guaranteed	-13752
▁marvellous	-13753
▁Australians	-13754
▁Corporation	-13755
▁Pennsylvania	-13756
▁installation	-13757
▁volunteering	-13758
▁corresponding	-13759
▁grammatically	-13760
▁pharmaceutical	-13761
▁transportations	-13762
/M	-13763
/W	-13764
01	-13765
BT	-13766
UG	-13767
...	-13768
IKE	-13769
avy	-13770
efl	-13771
hma	-13772
moh	-13773
ras	-13774
urd	-13775
▁47	-13776
▁OT	-13777
▁WR	-13778
▁du	-13779
▁iv	-13780
-the	-13781
bert	-13782
hard	-13783
ibet	-13784
rell	-13785
▁101	-13786
▁HOW	-13787
▁Hay	-13788
▁Lan	-13789
▁NUS	-13790
▁PS3	-13791
▁Pak	-13792
▁Sus	-13793
▁Ted	-13794
▁agg	-13795
▁hou	-13796
▁loy	-13797
▁nob	-13798
▁owe	-13799
▁rou	-13800
▁yuk	-13801
/2008	-13802
acter	-13803
arded	-13804
bacco	-13805
thics	-13806
▁//in	-13807
▁2020	-13808
▁2052	-13809
▁4000	-13810
▁Bell	-13811
▁Core	-13812
▁Dick	-13813
▁Fant	-13814
▁LOVE	-13815
▁bele	-13816
▁clam	-13817
▁cogn	-13818
▁deck	-13819
▁gods	-13820
▁paly	-13821
▁prog	-13822
▁rust	-13823
▁semi	-13824
▁soda	-13825
▁vain	-13826
OGRAPH	-13827
alysis	-13828
ashita	-13829
ersion	-13830
igible	-13831
lderly	-13832
orical	-13833
ounded	-13834
umbled	-13835
▁Blood	-13836
▁Czech	-13837
▁Early	-13838
▁Memor	-13839
▁Sleep	-13840
▁Swiss	-13841
▁alter	-13842
▁flute	-13843
▁glory	-13844
▁logic	-13845
▁login	-13846
▁overc	-13847
▁proff	-13848
▁rally	-13849
▁stair	-13850
▁subur	-13851
▁trace	-13852
▁trump	-13853
▁walks	-13854
▁wheat	-13855
&parent	-13856
inating	-13857
itating	-13858
mohcorp	-13859
version	-13860
▁Garden	-13861
▁Hakone	-13862
▁checks	-13863
▁deemed	-13864
▁exotic	-13865
▁feared	-13866
▁fisher	-13867
▁havent	-13868
▁median	-13869
▁radish	-13870
▁sakura	-13871
▁scarce	-13872
▁tragic	-13873
▁unsafe	-13874
▁viewed	-13875
▁visits	-13876
▁wisely	-13877
-Testing	-13878
_reactor	-13879
cedented	-13880
pectives	-13881
▁buttons	-13882
▁caption	-13883
▁desided	-13884
▁explode	-13885
▁fighter	-13886
▁firends	-13887
▁grounds	-13888
▁learing	-13889
▁lightly	-13890
▁lisence	-13891
▁mosquit	-13892
▁nowhere	-13893
▁organis	-13894
▁runners	-13895
▁sashimi	-13896
▁sympath	-13897
▁teenage	-13898
▁turbine	-13899
▁watches	-13900
identally	-13901
versation	-13902
▁Hakodate	-13903
▁Twilight	-13904
▁declined	-13905
▁dressing	-13906
▁elephant	-13907
▁goodness	-13908
▁impolite	-13909
▁inherent	-13910
▁literacy	-13911
▁maximize	-13912
▁meantime	-13913
▁postpone	-13914
▁twilight	-13915
▁//www.sci	-13916
▁Chemistry	-13917
▁Introduce	-13918
▁Malaysian	-13919
▁chemicals	-13920
▁eachother	-13921
▁excercise	-13922
▁fashioned	-13923
▁hairdress	-13924
▁incentive	-13925
▁mushrooms	-13926
▁repairing	-13927
▁territory	-13928
▁//www.iaea	-13929
▁//www.rfid	-13930
▁Challenger	-13931
▁Petersburg	-13932
▁completion	-13933
▁emphasized	-13934
▁institutes	-13935
▁accumulated	-13936
▁considerate	-13937
▁orientation	-13938
▁unavoidable	-13939
▁willingness	-13940
▁compositions	-13941
▁Environmental	-13942
▁discriminated	-13943
▁entrepreneurs	-13944
Genetic-Testing	-13945
/3	-13946
43	-13947
_c	-13948
_h	-13949
/10	-13950
651	-13951
ARD	-13952
ICE	-13953
Ret	-13954
anb	-13955
ati	-13956
eor	-13957
imo	-13958
isb	-13959
▁05	-13960
▁67	-13961
▁DP	-13962
▁Ep	-13963
▁Fi	-13964
▁RP	-13965
▁cm	-13966
▁ze	-13967
----	-13968
aman	-13969
chin	-13970
file	-13971
ghan	-13972
ifer	-13973
long	-13974
oder	-13975
rade	-13976
rots	-13977
vals	-13978
west	-13979
with	-13980
▁ABC	-13981
▁Dr.	-13982
▁Enc	-13983
▁FIF	-13984
▁Hor	-13985
▁Kid	-13986
▁Nap	-13987
▁Nih	-13988
▁Sib	-13989
▁ads	-13990
▁fox	-13991
▁jan	-13992
▁sed	-13993
/2007	-13994
cards	-13995
cents	-13996
ifest	-13997
isite	-13998
omnia	-13999
ouses	-14000
plays	-14001
ville	-14002
▁1987	-14003
▁Brad	-14004
▁Dawn	-14005
▁Hara	-14006
▁WILL	-14007
▁Wang	-14008
▁apps	-14009
▁cuts	-14010
▁duck	-14011
▁ende	-14012
▁lawn	-14013
▁punk	-14014
▁sail	-14015
▁tecn	-14016
▁wipe	-14017
▁wnat	-14018
-aging	-14019
2009/0	-14020
aneous	-14021
atable	-14022
ficult	-14023
hester	-14024
unting	-14025
▁10.00	-14026
▁1990s	-14027
▁20000	-14028
▁Islam	-14029
▁Merry	-14030
▁cents	-14031
▁firms	-14032
▁manip	-14033
▁moive	-14034
▁reads	-14035
▁tales	-14036
/report	-14037
liament	-14038
▁Altern	-14039
▁Anyhow	-14040
▁Chocol	-14041
▁Hanami	-14042
▁Heaven	-14043
▁Hellow	-14044
▁Market	-14045
▁Naruto	-14046
▁Shinto	-14047
▁august	-14048
▁cerebr	-14049
▁cruise	-14050
▁ethnic	-14051
▁firmly	-14052
▁fitted	-14053
▁format	-14054
▁greedy	-14055
▁hurted	-14056
▁immune	-14057
▁insult	-14058
▁merits	-14059
▁mister	-14060
▁observ	-14061
▁oneday	-14062
▁plural	-14063
▁potter	-14064
▁proves	-14065
▁remedy	-14066
▁rocket	-14067
▁sliced	-14068
▁thread	-14069
▁unreal	-14070
enditure	-14071
liminary	-14072
singstat	-14073
▁Disease	-14074
▁Formula	-14075
▁Outside	-14076
▁admired	-14077
▁charges	-14078
▁counted	-14079
▁credits	-14080
▁desires	-14081
▁drunken	-14082
▁enought	-14083
▁execute	-14084
▁formula	-14085
▁lerning	-14086
▁protein	-14087
▁renewal	-14088
▁steamed	-14089
▁surgeon	-14090
▁sweated	-14091
▁Princess	-14092
▁Teachers	-14093
▁Tommorow	-14094
▁affluent	-14095
▁allocate	-14096
▁beverage	-14097
▁currency	-14098
▁domitory	-14099
▁handicap	-14100
▁helpless	-14101
▁paradise	-14102
▁resigned	-14103
▁sequence	-14104
▁Althought	-14105
▁adjective	-14106
▁beggining	-14107
▁complains	-14108
▁developer	-14109
▁dissatisf	-14110
▁excursion	-14111
▁gardening	-14112
▁travelers	-14113
▁Penicillin	-14114
▁depressing	-14115
▁initiative	-14116
▁paragraphs	-14117
▁questioned	-14118
▁similarity	-14119
▁sleepiness	-14120
▁substitute	-14121
▁discouraged	-14122
▁discovering	-14123
▁impressions	-14124
▁neighboring	-14125
▁precautions	-14126
▁spectacular	-14127
▁undoubtedly	-14128
▁agricultural	-14129
▁governmental	-14130
▁receptionist	-14131
▁tremendously	-14132
▁architectural	-14133
channelnewsasia	-14134
▁rehabilitation	-14135
sk	-14136
/te	-14137
ACK	-14138
ECT	-14139
INT	-14140
Ins	-14141
KYO	-14142
aud	-14143
gia	-14144
oen	-14145
ogy	-14146
ova	-14147
ums	-14148
▁GC	-14149
▁HT	-14150
▁Oz	-14151
▁TS	-14152
ENDS	-14153
adas	-14154
alia	-14155
heal	-14156
iana	-14157
kyou	-14158
owed	-14159
reme	-14160
umin	-14161
utor	-14162
▁//m	-14163
▁Add	-14164
▁Hai	-14165
▁Hem	-14166
▁Kou	-14167
▁Mir	-14168
▁Pir	-14169
▁Sin	-14170
▁TED	-14171
▁Ver	-14172
▁WBC	-14173
▁Wak	-14174
▁Win	-14175
▁hal	-14176
▁nig	-14177
after	-14178
asive	-14179
eking	-14180
inion	-14181
owers	-14182
rator	-14183
▁Ibar	-14184
▁Link	-14185
▁Manc	-14186
▁Nabe	-14187
▁Prom	-14188
▁SHOW	-14189
▁Want	-14190
▁Wars	-14191
▁cann	-14192
▁clay	-14193
▁cola	-14194
▁funn	-14195
▁gast	-14196
▁inch	-14197
▁loun	-14198
▁maid	-14199
▁mast	-14200
▁redu	-14201
▁rend	-14202
▁udon	-14203
/news/	-14204
ailing	-14205
screen	-14206
uating	-14207
▁Asahi	-14208
▁Begin	-14209
▁Chris	-14210
▁Sadly	-14211
▁TOKYO	-14212
▁Tiger	-14213
▁cooks	-14214
▁hilar	-14215
▁lakes	-14216
▁overt	-14217
▁pills	-14218
▁queen	-14219
▁royal	-14220
▁scarc	-14221
▁Active	-14222
▁Kyushu	-14223
▁League	-14224
▁Prison	-14225
▁SUMMER	-14226
▁Venice	-14227
▁asthma	-14228
▁busier	-14229
▁guided	-14230
▁kicked	-14231
▁landed	-14232
▁louder	-14233
▁matern	-14234
▁robber	-14235
▁sponge	-14236
▁suited	-14237
▁united	-14238
▁worsen	-14239
/genetic	-14240
asonable	-14241
▁Belgium	-14242
▁Congrat	-14243
▁Control	-14244
▁Richard	-14245
▁Walking	-14246
▁authent	-14247
▁awarded	-14248
▁booking	-14249
▁circuit	-14250
▁compact	-14251
▁deliber	-14252
▁iPhone4	-14253
▁lasting	-14254
▁outlook	-14255
▁pickled	-14256
▁ranging	-14257
▁reserch	-14258
▁sixteen	-14259
▁workout	-14260
▁worring	-14261
▁Changing	-14262
▁Doraemon	-14263
▁Question	-14264
▁Scotland	-14265
▁annually	-14266
▁attracts	-14267
▁backache	-14268
▁definite	-14269
▁finances	-14270
▁monsters	-14271
▁mornings	-14272
▁regional	-14273
▁salaries	-14274
▁spectrum	-14275
▁sweating	-14276
▁teamwork	-14277
▁uniforms	-14278
/singapore	-14279
▁Macdonald	-14280
▁appealing	-14281
▁astronaut	-14282
▁converted	-14283
▁offspring	-14284
▁organizer	-14285
▁primarily	-14286
▁recognise	-14287
▁suspended	-14288
▁unnatural	-14289
▁Conclusion	-14290
▁convinient	-14291
▁describing	-14292
▁hamburgers	-14293
▁simplified	-14294
▁Traditional	-14295
▁butterflies	-14296
▁compromised	-14297
▁connections	-14298
▁imformation	-14299
▁inefficient	-14300
▁masterpiece	-14301
▁supplements	-14302
▁entrepreneur	-14303
▁hospitalized	-14304
▁comparatively	-14305
▁inappropriate	-14306
▁administrative	-14307
▁interpretation	-14308
IO	-14309
IX	-14310
dd	-14311
vy	-14312
ECH	-14313
TIS	-14314
aii	-14315
aug	-14316
cal	-14317
fan	-14318
i10	-14319
thy	-14320
wen	-14321
▁AG	-14322
▁Du	-14323
▁Sn	-14324
▁Tv	-14325
▁mu	-14326
.doe	-14327
Page	-14328
anka	-14329
iano	-14330
jima	-14331
redy	-14332
usyu	-14333
▁Abs	-14334
▁BIG	-14335
▁Cas	-14336
▁Eco	-14337
▁Gar	-14338
▁ICE	-14339
▁McC	-14340
▁Ple	-14341
▁abo	-14342
▁arc	-14343
▁kat	-14344
▁pee	-14345
▁phy	-14346
▁pit	-14347
achel	-14348
ighed	-14349
ights	-14350
opher	-14351
ridge	-14352
wheat	-14353
▁Bulg	-14354
▁Decl	-14355
▁FIFA	-14356
▁Gaga	-14357
▁Head	-14358
▁Mixi	-14359
▁aven	-14360
▁chir	-14361
▁disk	-14362
▁dump	-14363
▁glow	-14364
▁horn	-14365
▁pipe	-14366
▁pitc	-14367
▁rear	-14368
▁yeas	-14369
000yen	-14370
ieties	-14371
keeper	-14372
orable	-14373
rained	-14374
verted	-14375
▁1980s	-14376
▁4days	-14377
▁Doing	-14378
▁Iwate	-14379
▁Photo	-14380
▁Pizza	-14381
▁Place	-14382
▁Rainy	-14383
▁brace	-14384
▁cafes	-14385
▁fries	-14386
▁helic	-14387
▁irreg	-14388
▁muggy	-14389
▁punct	-14390
▁screw	-14391
▁sizes	-14392
▁timer	-14393
▁versa	-14394
OGRAPHY	-14395
agnetic	-14396
ighters	-14397
ivities	-14398
olicies	-14399
onation	-14400
uckland	-14401
versely	-14402
versity	-14403
▁Aussie	-14404
▁Haneda	-14405
▁Helium	-14406
▁achive	-14407
▁alchol	-14408
▁behalf	-14409
▁centim	-14410
▁deploy	-14411
▁europe	-14412
▁finaly	-14413
▁infant	-14414
▁kissed	-14415
▁laying	-14416
▁redund	-14417
▁sketch	-14418
▁softly	-14419
▁subord	-14420
▁themes	-14421
▁thoght	-14422
▁weared	-14423
▁Hearing	-14424
▁Musical	-14425
▁Physics	-14426
▁Roadmap	-14427
▁Tourism	-14428
▁amongst	-14429
▁analyse	-14430
▁approve	-14431
▁chasing	-14432
▁cheated	-14433
▁emitted	-14434
▁emperor	-14435
▁frineds	-14436
▁imaging	-14437
▁immense	-14438
▁individ	-14439
▁mineral	-14440
▁nowdays	-14441
▁removal	-14442
▁secured	-14443
▁servant	-14444
▁trapped	-14445
▁Baseball	-14446
▁Catholic	-14447
▁Policies	-14448
▁audition	-14449
▁entitled	-14450
▁evenings	-14451
▁forehead	-14452
▁juggling	-14453
▁necklace	-14454
▁obsessed	-14455
▁ofcourse	-14456
▁overwork	-14457
▁removing	-14458
▁stimulus	-14459
▁unsatisf	-14460
▁Greenwich	-14461
▁Inception	-14462
▁Upgrading	-14463
▁airplanes	-14464
▁competing	-14465
▁decreases	-14466
▁forbidden	-14467
▁hilarious	-14468
▁pretended	-14469
▁prevalent	-14470
lm.nih.gov/	-14471
otechnology	-14472
▁accidental	-14473
▁adventures	-14474
▁beforehand	-14475
▁congestion	-14476
▁counseling	-14477
▁differents	-14478
▁ecological	-14479
▁enterprise	-14480
▁hereditary	-14481
▁Photography	-14482
▁continually	-14483
▁friendships	-14484
▁threatening	-14485
▁Particularly	-14486
▁laboratories	-14487
▁translations	-14488
▁demonstration	-14489
▁employability	-14490
▁encouragement	-14491
▁recommendations	-14492
▁technologically	-14493
/N	-14494
21	-14495
24	-14496
58	-14497
CH	-14498
HO	-14499
IE	-14500
JI	-14501
OA	-14502
_1	-14503
/09	-14504
AGE	-14505
cha	-14506
job	-14507
kel	-14508
olo	-14509
sle	-14510
uko	-14511
uld	-14512
▁DE	-14513
▁PH	-14514
alsa	-14515
amel	-14516
bble	-14517
dney	-14518
uing	-14519
▁Ast	-14520
▁BIB	-14521
▁Doc	-14522
▁Ell	-14523
▁Fif	-14524
▁HER	-14525
▁Inv	-14526
▁LCD	-14527
▁Mah	-14528
▁Mia	-14529
▁Mos	-14530
▁Pad	-14531
▁SAT	-14532
▁VOA	-14533
▁fot	-14534
▁lob	-14535
▁luc	-14536
▁ren	-14537
▁rul	-14538
▁sax	-14539
▁wal	-14540
▁wii	-14541
amber	-14542
anese	-14543
beans	-14544
farin	-14545
renew	-14546
▁21th	-14547
▁22nd	-14548
▁Bird	-14549
▁Dest	-14550
▁Dome	-14551
▁EVER	-14552
▁Expo	-14553
▁Fern	-14554
▁Hold	-14555
▁Jean	-14556
▁KARA	-14557
▁RAIN	-14558
▁Site	-14559
▁Term	-14560
▁Triv	-14561
▁alth	-14562
▁dumb	-14563
▁espe	-14564
▁gall	-14565
▁mole	-14566
▁mout	-14567
▁navy	-14568
▁orph	-14569
▁shed	-14570
▁tort	-14571
▁tram	-14572
▁trek	-14573
cology	-14574
iguous	-14575
insula	-14576
ocracy	-14577
online	-14578
▁Cross	-14579
▁Defin	-14580
▁Emily	-14581
▁Excel	-14582
▁Major	-14583
▁exert	-14584
▁flesh	-14585
▁imply	-14586
▁males	-14587
▁masks	-14588
▁onsen	-14589
▁paras	-14590
▁spain	-14591
▁squid	-14592
▁tours	-14593
▁tunes	-14594
berries	-14595
edical-	-14596
umbling	-14597
visions	-14598
▁Berlin	-14599
▁Danish	-14600
▁Listen	-14601
▁Plants	-14602
▁Result	-14603
▁Strong	-14604
▁Valley	-14605
▁aliens	-14606
▁antibi	-14607
▁argues	-14608
▁backst	-14609
▁clerks	-14610
▁delete	-14611
▁docter	-14612
▁esteem	-14613
▁ethics	-14614
▁extrem	-14615
▁fulfil	-14616
▁gifted	-14617
▁grocer	-14618
▁logged	-14619
▁menber	-14620
▁pollut	-14621
▁prayer	-14622
▁restra	-14623
▁skirts	-14624
▁taiwan	-14625
▁taller	-14626
▁weaken	-14627
▁Anybody	-14628
▁Develop	-14629
▁Eschede	-14630
▁apology	-14631
▁arguing	-14632
▁cabinet	-14633
▁carries	-14634
▁carrots	-14635
▁catched	-14636
▁density	-14637
▁enabled	-14638
▁fellows	-14639
▁foregin	-14640
▁helicop	-14641
▁honesty	-14642
▁lighten	-14643
▁loyalty	-14644
▁midterm	-14645
▁rewrite	-14646
▁shoping	-14647
▁swimmer	-14648
.doe.gov/	-14649
yclopedia	-14650
▁Auckland	-14651
▁Congress	-14652
▁Consumer	-14653
▁Teaching	-14654
▁accessed	-14655
▁duration	-14656
▁findings	-14657
▁laughter	-14658
▁postcard	-14659
▁protagon	-14660
▁scarcity	-14661
▁sensible	-14662
▁sessions	-14663
ologically	-14664
▁Chocolate	-14665
▁atmospher	-14666
▁colourful	-14667
▁depleting	-14668
▁desirable	-14669
▁exclusive	-14670
▁financing	-14671
▁locations	-14672
▁pregnancy	-14673
▁preserved	-14674
▁processed	-14675
▁repeating	-14676
▁soooooooo	-14677
▁tolerance	-14678
▁Individual	-14679
▁complement	-14680
▁controller	-14681
▁discourage	-14682
▁originated	-14683
▁separately	-14684
▁threatened	-14685
▁preliminary	-14686
▁compensation	-14687
▁restrictions	-14688
▁grandchildren	-14689
▁nationalities	-14690
▁unprecedented	-14691
▁//www.scienced	-14692
singstat.gov.sg/	-14693
-8	-14694
-P	-14695
.t	-14696
41	-14697
NY	-14698
_f	-14699
je	-14700
zo	-14701
▁…	-14702
ATA	-14703
_id	-14704
aba	-14705
alo	-14706
atu	-14707
aws	-14708
hig	-14709
n't	-14710
oos	-14711
tly	-14712
uda	-14713
ugo	-14714
▁63	-14715
▁HK	-14716
▁KL	-14717
▁Yo	-14718
▁ba	-14719
▁mm	-14720
-car	-14721
IGHT	-14722
USHI	-14723
ador	-14724
amas	-14725
andy	-14726
ayao	-14727
enda	-14728
ilst	-14729
ourt	-14730
rock	-14731
uced	-14732
yard	-14733
▁CAM	-14734
▁Cab	-14735
▁DPJ	-14736
▁EIK	-14737
▁Ele	-14738
▁Gym	-14739
▁Mik	-14740
▁Mun	-14741
▁Rap	-14742
▁Suk	-14743
▁enj	-14744
▁ram	-14745
▁wiz	-14746
-reli	-14747
ahara	-14748
atomy	-14749
gence	-14750
hibli	-14751
ieces	-14752
iller	-14753
isoba	-14754
ochem	-14755
ooper	-14756
rates	-14757
rings	-14758
ureau	-14759
▁1985	-14760
▁Euro	-14761
▁Fiji	-14762
▁Hawk	-14763
▁Priv	-14764
▁Ring	-14765
▁Shar	-14766
▁Talk	-14767
▁Ther	-14768
▁Tube	-14769
▁ants	-14770
▁auto	-14771
▁blur	-14772
▁carn	-14773
▁heel	-14774
▁hint	-14775
▁jung	-14776
▁lern	-14777
▁nabe	-14778
▁neat	-14779
▁owns	-14780
▁plug	-14781
▁silk	-14782
▁soak	-14783
-power	-14784
aments	-14785
ctural	-14786
encive	-14787
hattan	-14788
isbane	-14789
isplay	-14790
omsday	-14791
ricane	-14792
stream	-14793
▁1hour	-14794
▁1year	-14795
▁BIBLI	-14796
▁Coast	-14797
▁Words	-14798
▁alumn	-14799
▁ankle	-14800
▁breed	-14801
▁doesn	-14802
▁embar	-14803
▁fence	-14804
▁forie	-14805
▁hairs	-14806
▁lined	-14807
▁livel	-14808
▁loads	-14809
▁melon	-14810
▁punch	-14811
▁reall	-14812
▁recon	-14813
▁reson	-14814
▁scent	-14815
▁scope	-14816
▁spice	-14817
▁spoil	-14818
▁utter	-14819
▁veter	-14820
▁whale	-14821
▁wired	-14822
-energy	-14823
/Ethics	-14824
angered	-14825
ignific	-14826
imental	-14827
istance	-14828
▁3years	-14829
▁Bhutan	-14830
▁Cooled	-14831
▁Within	-14832
▁alredy	-14833
▁bloody	-14834
▁conver	-14835
▁grader	-14836
▁hectic	-14837
▁hosted	-14838
▁iTunes	-14839
▁liking	-14840
▁shorts	-14841
▁sydney	-14842
▁treats	-14843
▁tricky	-14844
▁versus	-14845
▁Clothes	-14846
▁FRIENDS	-14847
▁Forrest	-14848
▁MacBook	-14849
▁Micheal	-14850
▁anyways	-14851
▁beijing	-14852
▁dolphin	-14853
▁founder	-14854
▁halfway	-14855
▁justify	-14856
▁locates	-14857
▁old-age	-14858
[...]
