<unk>	0
<s>	0
</s>	0
▁t	-0
▁a	-1
he	-2
in	-3
▁.	-4
▁w	-5
▁s	-6
▁I	-7
re	-8
▁the	-9
▁m	-10
▁,	-11
er	-12
▁o	-13
is	-14
▁to	-15
▁c	-16
▁b	-17
en	-18
▁f	-19
an	-20
at	-21
it	-22
ou	-23
ing	-24
on	-25
or	-26
▁h	-27
▁p	-28
es	-29
▁an	-30
▁d	-31
ed	-32
▁n	-33
▁l	-34
▁th	-35
ar	-36
as	-37
▁in	-38
ll	-39
▁and	-40
om	-41
▁of	-42
ve	-43
▁g	-44
le	-45
ic	-46
ay	-47
▁is	-48
▁be	-49
us	-50
▁e	-51
▁T	-52
ent	-53
ot	-54
▁ha	-55
ow	-56
ut	-57
ver	-58
al	-59
▁'	-60
▁my	-61
▁re	-62
ion	-63
ld	-64
▁y	-65
im	-66
et	-67
▁it	-68
▁for	-69
▁st	-70
▁that	-71
ch	-72
ly	-73
▁on	-74
st	-75
▁we	-76
oo	-77
ct	-78
id	-79
▁was	-80
ke	-81
▁he	-82
▁A	-83
am	-84
op	-85
ri	-86
▁S	-87
▁have	-88
▁you	-89
gh	-90
ce	-91
ro	-92
▁wh	-93
▁me	-94
ir	-95
ad	-96
un	-97
ur	-98
▁li	-99
ore	-100
ill	-101
▁The	-102
ter	-103
▁so	-104
all	-105
ith	-106
her	-107
▁E	-108
se	-109
ap	-110
▁with	-111
▁are	-112
▁do	-113
ome	-114
very	-115
▁`	-116
ish	-117
't	-118
▁n't	-119
ould	-120
ation	-121
ant	-122
use	-123
▁``	-124
end	-125
▁!	-126
▁'s	-127
▁not	-128
▁ne	-129
▁M	-130
▁W	-131
▁as	-132
▁at	-133
▁B	-134
▁ab	-135
ng	-136
if	-137
▁H	-138
▁this	-139
lish	-140
out	-141
▁wor	-142
ul	-143
▁but	-144
ear	-145
▁can	-146
▁sh	-147
▁go	-148
▁Eng	-149
▁J	-150
▁ex	-151
day	-152
▁k	-153
▁will	-154
ca	-155
▁English	-156
▁It	-157
ra	-158
▁al	-159
ght	-160
ime	-161
▁se	-162
ud	-163
ge	-164
rom	-165
ally	-166
▁con	-167
th	-168
oun	-169
▁)	-170
cause	-171
▁su	-172
▁sp	-173
▁time	-174
ak	-175
▁j	-176
▁like	-177
▁about	-178
ac	-179
▁very	-180
▁-	-181
▁from	-182
il	-183
ood	-184
▁de	-185
▁com	-186
apan	-187
▁(	-188
▁ch	-189
ess	-190
▁pro	-191
▁C	-192
▁?	-193
▁pe	-194
fe	-195
est	-196
ople	-197
hen	-198
ort	-199
▁or	-200
▁Japan	-201
ink	-202
▁te	-203
▁en	-204
ers	-205
art	-206
ol	-207
▁people	-208
▁because	-209
ment	-210
pp	-211
ble	-212
ate	-213
ake	-214
▁F	-215
▁'m	-216
el	-217
ust	-218
▁pl	-219
and	-220
ry	-221
ure	-222
▁stud	-223
▁want	-224
▁Th	-225
▁some	-226
ig	-227
one	-228
ity	-229
ast	-230
▁am	-231
riend	-232
▁2	-233
ook	-234
ite	-235
▁there	-236
▁un	-237
▁day	-238
any	-239
▁by	-240
ist	-241
now	-242
▁they	-243
▁had	-244
ain	-245
▁think	-246
ard	-247
▁In	-248
ost	-249
ren	-250
▁O	-251
ther	-252
▁friend	-253
▁us	-254
▁more	-255
ong	-256
▁v	-257
▁N	-258
ive	-259
▁work	-260
ich	-261
ese	-262
os	-263
▁all	-264
▁im	-265
ci	-266
▁wr	-267
▁know	-268
▁P	-269
ind	-270
▁one	-271
▁:	-272
▁r	-273
ies	-274
▁fe	-275
qu	-276
our	-277
▁D	-278
▁cl	-279
ame	-280
ang	-281
▁good	-282
up	-283
ice	-284
▁them	-285
▁But	-286
▁which	-287
ie	-288
▁sa	-289
um	-290
▁1	-291
▁has	-292
▁ca	-293
▁year	-294
▁ag	-295
▁when	-296
▁their	-297
ous	-298
▁who	-299
00	-300
▁other	-301
▁R	-302
▁would	-303
▁L	-304
so	-305
der	-306
▁many	-307
ough	-308
▁imp	-309
red	-310
res	-311
irst	-312
▁To	-313
▁comp	-314
fter	-315
▁int	-316
em	-317
ool	-318
▁get	-319
ight	-320
▁could	-321
▁up	-322
ob	-323
ep	-324
ount	-325
uc	-326
ven	-327
ide	-328
▁Japanese	-329
▁My	-330
ary	-331
▁An	-332
ound	-333
act	-334
▁every	-335
▁So	-336
▁exp	-337
ult	-338
ag	-339
▁if	-340
og	-341
ass	-342
▁her	-343
▁were	-344
▁We	-345
▁spe	-346
▁been	-347
ine	-348
age	-349
way	-350
▁also	-351
▁new	-352
▁went	-353
▁study	-354
▁too	-355
iv	-356
▁our	-357
▁ar	-358
▁she	-359
▁Y	-360
oy	-361
▁now	-362
ning	-363
▁should	-364
▁lot	-365
vel	-366
ack	-367
▁dif	-368
omet	-369
ase	-370
▁gr	-371
▁what	-372
▁than	-373
▁This	-374
▁ad	-375
▁le	-376
▁out	-377
▁your	-378
▁G	-379
▁any	-380
chool	-381
uch	-382
▁first	-383
ov	-384
▁did	-385
cc	-386
▁K	-387
▁co	-388
▁lear	-389
ance	-390
▁friends	-391
▁school	-392
ans	-393
▁wat	-394
▁thing	-395
rent	-396
▁just	-397
▁make	-398
▁How	-399
alk	-400
ever	-401
▁feel	-402
ect	-403
▁only	-404
▁dis	-405
od	-406
ign	-407
fore	-408
▁his	-409
▁tr	-410
▁really	-411
▁hel	-412
ach	-413
▁need	-414
▁much	-415
▁He	-416
▁help	-417
▁use	-418
▁today	-419
itt	-420
ue	-421
▁count	-422
ought	-423
ove	-424
able	-425
lf	-426
ace	-427
▁There	-428
▁200	-429
▁how	-430
ence	-431
▁read	-432
ily	-433
ek	-434
▁U	-435
other	-436
mer	-437
▁look	-438
▁somet	-439
▁tra	-440
▁no	-441
ub	-442
▁happ	-443
▁di	-444
▁part	-445
▁after	-446
ents	-447
▁res	-448
▁fam	-449
▁start	-450
▁pre	-451
▁way	-452
ated	-453
vers	-454
fic	-455
▁qu	-456
▁play	-457
▁And	-458
iz	-459
ree	-460
ild	-461
▁tw	-462
▁speak	-463
hing	-464
hed	-465
▁see	-466
con	-467
▁going	-468
ress	-469
▁life	-470
▁Ch	-471
ab	-472
▁long	-473
ition	-474
▁bet	-475
▁week	-476
▁Today	-477
ope	-478
▁years	-479
ving	-480
xt	-481
ade	-482
ile	-483
ince	-484
▁/	-485
eri	-486
▁If	-487
▁When	-488
▁home	-489
iting	-490
oc	-491
▁cont	-492
▁However	-493
▁take	-494
lic	-495
▁pr	-496
▁say	-497
ical	-498
▁exam	-499
▁Wh	-500
▁last	-501
▁got	-502
igh	-503
olog	-504
▁even	-505
▁learn	-506
orm	-507
ne	-508
▁him	-509
ose	-510
▁bu	-511
▁said	-512
▁most	-513
▁write	-514
▁well	-515
reat	-516
ber	-517
▁such	-518
imes	-519
ved	-520
▁talk	-521
pe	-522
ually	-523
ways	-524
blem	-525
▁ro	-526
▁under	-527
▁3	-528
lear	-529
▁fin	-530
ions	-531
▁hard	-532
▁problem	-533
▁book	-534
▁mov	-535
▁rec	-536
▁class	-537
ere	-538
▁two	-539
here	-540
▁act	-541
▁always	-542
▁old	-543
▁job	-544
▁back	-545
pt	-546
ester	-547
si	-548
▁dec	-549
▁lang	-550
ick	-551
▁car	-552
▁inc	-553
▁may	-554
ces	-555
ason	-556
▁Be	-557
▁things	-558
▁mon	-559
ful	-560
ple	-561
▁dr	-562
du	-563
▁days	-564
▁'ve	-565
▁sk	-566
▁bec	-567
av	-568
ory	-569
▁made	-570
chn	-571
▁over	-572
▁hope	-573
row	-574
▁these	-575
joy	-576
▁diffe	-577
▁des	-578
ip	-579
▁world	-580
▁bus	-581
▁enjoy	-582
▁app	-583
ors	-584
ations	-585
ting	-586
▁before	-587
erest	-588
▁pers	-589
oin	-590
▁sm	-591
▁ph	-592
▁ke	-593
▁"	-594
▁high	-595
▁ra	-596
▁still	-597
▁They	-598
▁rel	-599
▁interest	-600
▁'ll	-601
ittle	-602
▁try	-603
ouse	-604
ise	-605
▁kind	-606
oney	-607
▁since	-608
▁fun	-609
▁eng	-610
ather	-611
▁acc	-612
esterday	-613
▁little	-614
uclear	-615
velop	-616
▁something	-617
▁show	-618
▁love	-619
ict	-620
ail	-621
per	-622
▁country	-623
tern	-624
▁off	-625
▁thought	-626
▁langu	-627
▁watch	-628
▁person	-629
▁money	-630
▁8	-631
▁techn	-632
▁here	-633
▁import	-634
self	-635
are	-636
▁call	-637
▁As	-638
▁impro	-639
ently	-640
▁She	-641
ology	-642
▁find	-643
we	-644
▁next	-645
rect	-646
▁ear	-647
▁Al	-648
form	-649
fect	-650
▁After	-651
▁child	-652
ange	-653
▁month	-654
cial	-655
ivers	-656
ens	-657
▁gen	-658
les	-659
▁eat	-660
▁sur	-661
▁develop	-662
akes	-663
▁shop	-664
▁sc	-665
ff	-666
ark	-667
get	-668
▁ent	-669
▁again	-670
wn	-671
▁underst	-672
▁better	-673
▁ask	-674
tt	-675
▁used	-676
▁bl	-677
cess	-678
▁tri	-679
▁man	-680
ert	-681
▁fl	-682
▁family	-683
▁br	-684
▁conc	-685
ited	-686
ower	-687
ds	-688
▁then	-689
own	-690
▁str	-691
▁che	-692
be	-693
ract	-694
▁Chin	-695
▁per	-696
▁list	-697
ia	-698
▁big	-699
▁fore	-700
ries	-701
▁important	-702
▁diffic	-703
▁att	-704
▁come	-705
▁For	-706
ck	-707
▁difficult	-708
▁comm	-709
▁live	-710
▁into	-711
▁happy	-712
▁mus	-713
▁writing	-714
▁cor	-715
▁understand	-716
▁best	-717
▁house	-718
iversity	-719
▁diary	-720
▁why	-721
▁different	-722
▁pub	-723
ave	-724
lease	-725
▁same	-726
▁food	-727
ities	-728
▁pop	-729
ious	-730
hes	-731
▁V	-732
▁gu	-733
port	-734
▁test	-735
▁great	-736
▁rest	-737
▁eas	-738
▁never	-739
aking	-740
▁found	-741
pl	-742
alth	-743
▁Re	-744
uring	-745
▁teac	-746
ety	-747
ten	-748
vent	-749
▁mor	-750
▁able	-751
▁pos	-752
▁reason	-753
thing	-754
▁care	-755
ky	-756
▁where	-757
▁started	-758
▁Now	-759
▁meet	-760
ody	-761
als	-762
▁spend	-763
ank	-764
te	-765
gy	-766
▁Because	-767
▁keep	-768
▁sle	-769
ward	-770
▁listen	-771
▁place	-772
▁teacher	-773
ves	-774
gr	-775
vern	-776
▁ago	-777
▁ri	-778
lder	-779
▁What	-780
▁bel	-781
▁pa	-782
▁students	-783
▁must	-784
▁buy	-785
▁night	-786
▁language	-787
▁improve	-788
▁nuclear	-789
▁tell	-790
vernment	-791
▁around	-792
ours	-793
▁;	-794
lect	-795
▁public	-796
▁morning	-797
▁em	-798
▁real	-799
▁bad	-800
▁popul	-801
▁won	-802
▁came	-803
▁mat	-804
▁trans	-805
ull	-806
▁sum	-807
▁took	-808
mor	-809
ire	-810
uture	-811
▁cons	-812
▁5	-813
▁movie	-814
▁4	-815
oint	-816
duct	-817
▁while	-818
▁On	-819
▁stay	-820
ner	-821
▁vis	-822
▁op	-823
ics	-824
▁government	-825
read	-826
▁less	-827
▁its	-828
cond	-829
▁does	-830
▁sy	-831
▁give	-832
cially	-833
▁fact	-834
▁hand	-835
▁future	-836
ied	-837
ord	-838
▁correct	-839
ided	-840
▁studying	-841
▁few	-842
▁elder	-843
▁myself	-844
urn	-845
▁rem	-846
▁That	-847
▁each	-848
ork	-849
dition	-850
▁health	-851
▁ind	-852
▁foreign	-853
▁inst	-854
ature	-855
▁You	-856
▁sleep	-857
▁supp	-858
▁technology	-859
▁met	-860
ative	-861
▁company	-862
▁working	-863
▁let	-864
▁skill	-865
ft	-866
▁2009	-867
▁another	-868
ired	-869
ttp	-870
elt	-871
▁da	-872
oll	-873
▁//	-874
▁university	-875
▁http	-876
▁cour	-877
▁seem	-878
▁plan	-879
▁children	-880
▁20	-881
▁Kore	-882
▁result	-883
▁yesterday	-884
ual	-885
▁gir	-886
though	-887
iday	-888
▁felt	-889
▁being	-890
▁hot	-891
▁experi	-892
▁sent	-893
ru	-894
ages	-895
▁though	-896
▁end	-897
▁pass	-898
▁example	-899
ian	-900
▁called	-901
▁Amer	-902
aut	-903
▁Un	-904
▁music	-905
▁train	-906
▁without	-907
▁Americ	-908
pecially	-909
ident	-910
▁countries	-911
ately	-912
oth	-913
▁coll	-914
ping	-915
▁elderly	-916
bs	-917
stem	-918
▁min	-919
▁design	-920
▁At	-921
▁cost	-922
▁looking	-923
▁right	-924
ility	-925
▁told	-926
▁Ne	-927
▁disc	-928
ational	-929
▁ener	-930
▁reg	-931
ai	-932
arch	-933
iew	-934
▁power	-935
▁course	-936
▁Do	-937
▁student	-938
rough	-939
▁down	-940
▁adv	-941
ream	-942
▁One	-943
▁become	-944
▁during	-945
▁react	-946
▁rain	-947
▁ef	-948
▁beaut	-949
▁summer	-950
▁es	-951
▁First	-952
▁St	-953
▁often	-954
▁beg	-955
conom	-956
erv	-957
▁wanted	-958
▁soon	-959
▁pract	-960
pr	-961
iness	-962
▁inform	-963
rents	-964
▁words	-965
ings	-966
▁energy	-967
ieve	-968
▁art	-969
▁room	-970
ortun	-971
▁gl	-972
▁own	-973
ments	-974
ates	-975
▁gener	-976
▁using	-977
▁process	-978
az	-979
erm	-980
▁might	-981
most	-982
▁city	-983
▁wa	-984
▁reading	-985
▁learning	-986
▁put	-987
▁system	-988
▁Then	-989
▁sit	-990
sible	-991
ok	-992
▁sol	-993
▁hum	-994
▁name	-995
▁ide	-996
▁fav	-997
▁young	-998
▁pol	-999
▁english	-1000
ember	-1001
ised	-1002
▁saw	-1003
ating	-1004
ject	-1005
▁pres	-1006
▁incre	-1007
▁sometimes	-1008
▁three	-1009
arm	-1010
iful	-1011
▁decided	-1012
▁through	-1013
iss	-1014
▁cold	-1015
▁interesting	-1016
▁someone	-1017
ched	-1018
▁problems	-1019
ug	-1020
▁enough	-1021
▁those	-1022
▁nice	-1023
▁travel	-1024
ures	-1025
▁econom	-1026
▁near	-1027
enc	-1028
▁TV	-1029
▁bought	-1030
ried	-1031
cept	-1032
aur	-1033
ater	-1034
▁girl	-1035
▁parents	-1036
ock	-1037
morrow	-1038
▁Se	-1039
ric	-1040
ial	-1041
▁med	-1042
▁drink	-1043
▁wonder	-1044
▁books	-1045
▁main	-1046
kyo	-1047
▁tomorrow	-1048
▁product	-1049
▁beautiful	-1050
▁rese	-1051
▁^	-1052
ternet	-1053
ingap	-1054
▁Chinese	-1055
oon	-1056
ute	-1057
ished	-1058
ingapore	-1059
▁Lang	-1060
▁6	-1061
▁run	-1062
▁dep	-1063
▁small	-1064
gram	-1065
ready	-1066
aurant	-1067
▁song	-1068
▁chang	-1069
▁happen	-1070
▁mean	-1071
ys	-1072
▁asked	-1073
▁already	-1074
oliday	-1075
▁site	-1076
▁Tokyo	-1077
ween	-1078
ering	-1079
▁May	-1080
▁walk	-1081
ugh	-1082
▁change	-1083
▁especially	-1084
▁mem	-1085
▁almost	-1086
▁elect	-1087
▁commun	-1088
▁ed	-1089
▁news	-1090
▁inv	-1091
ath	-1092
▁exc	-1093
▁between	-1094
▁restaurant	-1095
▁free	-1096
ell	-1097
ared	-1098
▁pict	-1099
ient	-1100
▁forward	-1101
▁Singapore	-1102
▁holiday	-1103
ize	-1104
▁ac	-1105
hi	-1106
▁development	-1107
▁hours	-1108
▁19	-1109
▁10	-1110
▁mother	-1111
▁unt	-1112
aw	-1113
led	-1114
▁sim	-1115
▁heard	-1116
▁times	-1117
▁program	-1118
▁Some	-1119
com	-1120
▁Therefore	-1121
▁information	-1122
▁sub	-1123
w.	-1124
duc	-1125
oup	-1126
over	-1127
ww.	-1128
▁point	-1129
▁game	-1130
▁quest	-1131
▁famous	-1132
▁water	-1133
ax	-1134
▁prep	-1135
▁story	-1136
ues	-1137
▁//w	-1138
ann	-1139
▁means	-1140
atur	-1141
▁cr	-1142
▁order	-1143
▁colle	-1144
▁experience	-1145
▁shopping	-1146
ific	-1147
▁Although	-1148
work	-1149
▁//www.	-1150
▁makes	-1151
▁ret	-1152
▁sport	-1153
▁'d	-1154
ier	-1155
oor	-1156
▁grad	-1157
its	-1158
anc	-1159
▁stop	-1160
▁doing	-1161
ote	-1162
▁hear	-1163
▁air	-1164
▁getting	-1165
▁usually	-1166
▁living	-1167
▁Any	-1168
duce	-1169
ont	-1170
uation	-1171
▁comput	-1172
▁please	-1173
▁believe	-1174
▁]	-1175
ased	-1176
▁age	-1177
▁until	-1178
ences	-1179
▁engine	-1180
▁Sh	-1181
▁[	-1182
▁trip	-1183
▁conf	-1184
ball	-1185
▁dream	-1186
pect	-1187
ph	-1188
ets	-1189
▁favor	-1190
▁pri	-1191
ene	-1192
▁tired	-1193
▁second	-1194
▁mind	-1195
oss	-1196
app	-1197
omm	-1198
▁everyone	-1199
▁ty	-1200
br	-1201
▁sw	-1202
▁bit	-1203
▁research	-1204
▁inter	-1205
▁party	-1206
▁wom	-1207
rie	-1208
▁cur	-1209
ized	-1210
▁clot	-1211
▁aged	-1212
▁cult	-1213
▁soci	-1214
▁sure	-1215
unch	-1216
▁sl	-1217
▁having	-1218
road	-1219
etic	-1220
▁cook	-1221
less	-1222
▁educ	-1223
▁sing	-1224
iron	-1225
▁speaking	-1226
▁env	-1227
osed	-1228
▁prov	-1229
inner	-1230
fer	-1231
▁opp	-1232
▁ins	-1233
▁dri	-1234
land	-1235
▁af	-1236
ger	-1237
ond	-1238
▁weather	-1239
▁watching	-1240
▁both	-1241
▁possible	-1242
▁boy	-1243
▁char	-1244
▁transport	-1245
▁contin	-1246
▁build	-1247
▁watched	-1248
▁%	-1249
▁thinking	-1250
▁tem	-1251
ix	-1252
▁fr	-1253
▁short	-1254
▁pain	-1255
▁Thank	-1256
▁plant	-1257
ital	-1258
ife	-1259
▁Every	-1260
▁population	-1261
▁spending	-1262
io	-1263
▁visit	-1264
new	-1265
hip	-1266
ness	-1267
▁Yesterday	-1268
▁New	-1269
▁num	-1270
aster	-1271
▁teach	-1272
▁busy	-1273
▁others	-1274
osp	-1275
▁~	-1276
▁easy	-1277
▁team	-1278
▁skills	-1279
▁check	-1280
▁tried	-1281
ER	-1282
▁expl	-1283
▁present	-1284
oke	-1285
ons	-1286
▁favorite	-1287
▁win	-1288
▁surpr	-1289
den	-1290
lud	-1291
▁business	-1292
▁whe	-1293
▁By	-1294
▁mom	-1295
▁American	-1296
▁cat	-1297
▁human	-1298
gether	-1299
▁office	-1300
▁Is	-1301
utes	-1302
▁expect	-1303
▁7	-1304
▁anything	-1305
▁society	-1306
▁effect	-1307
ives	-1308
▁bir	-1309
ered	-1310
aper	-1311
▁strong	-1312
▁communic	-1313
▁Please	-1314
▁clothes	-1315
▁together	-1316
▁ma	-1317
▁China	-1318
▁pay	-1319
IN	-1320
▁bor	-1321
▁months	-1322
▁requ	-1323
▁mist	-1324
ironment	-1325
▁bo	-1326
▁ans	-1327
▁everything	-1328
▁interested	-1329
▁idea	-1330
ny	-1331
▁US	-1332
▁finished	-1333
amp	-1334
▁early	-1335
▁support	-1336
ead	-1337
ister	-1338
ted	-1339
▁activ	-1340
▁vac	-1341
▁Act	-1342
▁Rec	-1343
▁sound	-1344
▁intro	-1345
▁weekend	-1346
▁everyday	-1347
▁Anyway	-1348
▁Ret	-1349
▁face	-1350
▁past	-1351
ution	-1352
▁=	-1353
ars	-1354
ists	-1355
▁left	-1356
▁grow	-1357
ides	-1358
▁writt	-1359
gest	-1360
▁bre	-1361
rieved	-1362
▁addition	-1363
▁practice	-1364
▁computer	-1365
▁Last	-1366
▁sun	-1367
ense	-1368
▁open	-1369
▁due	-1370
▁environment	-1371
ention	-1372
ash	-1373
▁aging	-1374
▁recently	-1375
▁seems	-1376
body	-1377
▁listening	-1378
ior	-1379
▁turn	-1380
ency	-1381
▁top	-1382
▁phone	-1383
▁lunch	-1384
▁special	-1385
▁Since	-1386
▁cle	-1387
▁These	-1388
▁gave	-1389
▁away	-1390
rence	-1391
▁far	-1392
▁opin	-1393
old	-1394
bers	-1395
▁lives	-1396
▁Retrieved	-1397
ully	-1398
▁ate	-1399
▁iss	-1400
urther	-1401
▁loc	-1402
▁dinner	-1403
air	-1404
▁var	-1405
▁ob	-1406
▁popular	-1407
▁begin	-1408
▁situation	-1409
▁Of	-1410
ollow	-1411
▁jour	-1412
▁taking	-1413
▁fil	-1414
▁lim	-1415
ploy	-1416
▁cent	-1417
ases	-1418
▁ext	-1419
▁Korean	-1420
▁making	-1421
▁express	-1422
▁rep	-1423
▁minutes	-1424
▁30	-1425
uk	-1426
▁mar	-1427
▁playing	-1428
▁sec	-1429
▁sal	-1430
▁snow	-1431
ik	-1432
▁Recently	-1433
▁season	-1434
ular	-1435
▁av	-1436
ts	-1437
▁Maybe	-1438
▁Also	-1439
▁prof	-1440
ination	-1441
yc	-1442
▁rece	-1443
ices	-1444
▁word	-1445
▁yet	-1446
▁electric	-1447
ral	-1448
▁serv	-1449
▁includ	-1450
▁lar	-1451
▁chance	-1452
ama	-1453
▁earth	-1454
▁lead	-1455
ording	-1456
ival	-1457
▁vo	-1458
▁follow	-1459
▁area	-1460
▁ass	-1461
▁quite	-1462
view	-1463
▁Actually	-1464
▁written	-1465
▁All	-1466
▁comple	-1467
▁seen	-1468
▁group	-1469
ertain	-1470
▁store	-1471
▁Can	-1472
▁wish	-1473
▁feeling	-1474
▁enjoyed	-1475
used	-1476
▁became	-1477
▁education	-1478
▁whether	-1479
ames	-1480
aces	-1481
▁bas	-1482
▁arri	-1483
▁body	-1484
▁webs	-1485
uck	-1486
▁bed	-1487
▁number	-1488
rib	-1489
ays	-1490
icle	-1491
▁looked	-1492
reen	-1493
▁thank	-1494
▁expens	-1495
▁9	-1496
▁maybe	-1497
fety	-1498
▁convers	-1499
▁cool	-1500
ably	-1501
ht	-1502
more	-1503
▁sever	-1504
▁level	-1505
▁Fin	-1506
▁vacation	-1507
▁wear	-1508
fort	-1509
▁Even	-1510
▁birth	-1511
▁ever	-1512
▁join	-1513
▁Korea	-1514
▁wrote	-1515
▁choo	-1516
▁bene	-1517
ium	-1518
▁genetic	-1519
▁pat	-1520
▁mark	-1521
▁talking	-1522
▁once	-1523
ughter	-1524
perature	-1525
▁ref	-1526
▁coming	-1527
▁several	-1528
▁det	-1529
ird	-1530
▁talked	-1531
▁maj	-1532
▁town	-1533
▁answ	-1534
▁phot	-1535
ty	-1536
▁half	-1537
▁clean	-1538
▁wife	-1539
.com	-1540
▁condition	-1541
ortunately	-1542
▁fast	-1543
▁post	-1544
▁done	-1545
ike	-1546
▁played	-1547
ern	-1548
▁late	-1549
▁wind	-1550
▁sad	-1551
▁Sep	-1552
▁whole	-1553
▁break	-1554
▁changed	-1555
▁TO	-1556
ider	-1557
▁ve	-1558
▁college	-1559
ivid	-1560
▁set	-1561
▁movies	-1562
▁More	-1563
▁rad	-1564
▁stand	-1565
me	-1566
ines	-1567
▁social	-1568
sel	-1569
▁abroad	-1570
▁father	-1571
gan	-1572
▁&	-1573
▁entry	-1574
▁daughter	-1575
▁view	-1576
estival	-1577
ring	-1578
▁inf	-1579
ction	-1580
nal	-1581
vert	-1582
▁ey	-1583
▁add	-1584
▁internet	-1585
▁poor	-1586
▁true	-1587
▁stre	-1588
▁aut	-1589
erious	-1590
▁letter	-1591
▁remember	-1592
▁With	-1593
▁opinion	-1594
▁polic	-1595
▁Dear	-1596
▁partic	-1597
▁major	-1598
▁ten	-1599
▁ter	-1600
side	-1601
▁picture	-1602
▁lots	-1603
TR	-1604
ha	-1605
ustom	-1606
▁later	-1607
▁pur	-1608
▁culture	-1609
▁mid	-1610
▁Many	-1611
▁cre	-1612
▁inn	-1613
▁current	-1614
▁head	-1615
oot	-1616
▁safety	-1617
▁Second	-1618
▁concert	-1619
▁lik	-1620
▁sci	-1621
▁charact	-1622
▁miss	-1623
▁col	-1624
▁film	-1625
ising	-1626
▁nothing	-1627
ically	-1628
▁full	-1629
▁actually	-1630
▁case	-1631
▁weeks	-1632
▁heart	-1633
▁employ	-1634
▁perform	-1635
▁tast	-1636
▁Fr	-1637
▁allow	-1638
▁i	-1639
book	-1640
▁Sept	-1641
▁ser	-1642
▁son	-1643
▁reactor	-1644
▁recomm	-1645
sy	-1646
▁happened	-1647
▁oper	-1648
▁def	-1649
ision	-1650
▁website	-1651
▁Somet	-1652
▁aw	-1653
▁individ	-1654
▁hair	-1655
htm	-1656
▁knew	-1657
▁prop	-1658
ught	-1659
▁club	-1660
▁Oct	-1661
▁priv	-1662
ery	-1663
▁learned	-1664
▁dist	-1665
▁la	-1666
fully	-1667
▁swim	-1668
▁needs	-1669
amm	-1670
▁term	-1671
▁finish	-1672
oh	-1673
▁park	-1674
▁prom	-1675
▁bring	-1676
▁reactors	-1677
▁recommend	-1678
by	-1679
ID	-1680
▁warm	-1681
yle	-1682
▁least	-1683
▁hun	-1684
▁japan	-1685
▁studied	-1686
▁surprised	-1687
▁vide	-1688
▁ev	-1689
ding	-1690
ming	-1691
▁resp	-1692
▁members	-1693
▁September	-1694
▁choose	-1695
▁Gen	-1696
ternational	-1697
▁VH	-1698
line	-1699
▁sign	-1700
▁spent	-1701
▁amount	-1702
▁gradu	-1703
▁instead	-1704
▁move	-1705
▁hour	-1706
▁wrong	-1707
▁question	-1708
▁lost	-1709
▁compet	-1710
usion	-1711
▁swe	-1712
erc	-1713
▁wait	-1714
▁Acc	-1715
▁evening	-1716
▁four	-1717
▁known	-1718
▁serious	-1719
▁VHTR	-1720
▁daily	-1721
▁benef	-1722
▁attend	-1723
selves	-1724
▁hosp	-1725
artment	-1726
▁Br	-1727
▁native	-1728
▁expensive	-1729
▁et	-1730
aph	-1731
lement	-1732
▁organ	-1733
ling	-1734
oud	-1735
▁opportun	-1736
▁tick	-1737
asing	-1738
ffe	-1739
▁fall	-1740
ped	-1741
▁_	-1742
ctor	-1743
▁trying	-1744
band	-1745
ality	-1746
▁accident	-1747
▁fac	-1748
▁sug	-1749
▁activities	-1750
uel	-1751
rist	-1752
▁answer	-1753
▁easily	-1754
cture	-1755
▁large	-1756
fortable	-1757
▁languages	-1758
▁custom	-1759
▁sister	-1760
▁increase	-1761
g/	-1762
▁event	-1763
▁Finally	-1764
▁occ	-1765
uly	-1766
.htm	-1767
.com/	-1768
▁winter	-1769
▁anim	-1770
▁succ	-1771
▁Why	-1772
▁innov	-1773
▁concern	-1774
ledge	-1775
▁relax	-1776
▁finally	-1777
▁De	-1778
▁meeting	-1779
▁sports	-1780
▁advert	-1781
duced	-1782
where	-1783
▁earthqu	-1784
▁mess	-1785
▁*	-1786
▁dog	-1787
▁Internet	-1788
▁temperature	-1789
▁dise	-1790
rain	-1791
▁hist	-1792
▁places	-1793
▁economic	-1794
oura	-1795
med	-1796
udden	-1797
▁sentences	-1798
▁Pe	-1799
▁matter	-1800
▁various	-1801
▁lesson	-1802
▁price	-1803
▁leave	-1804
▁consider	-1805
▁enc	-1806
ffic	-1807
▁success	-1808
ros	-1809
aken	-1810
▁conversation	-1811
▁natur	-1812
▁delic	-1813
orry	-1814
▁journal	-1815
▁cut	-1816
ield	-1817
▁'re	-1818
▁hus	-1819
▁prefer	-1820
▁kid	-1821
▁men	-1822
sib	-1823
▁medical	-1824
▁etc	-1825
▁Aust	-1826
▁wo	-1827
▁light	-1828
▁cause	-1829
▁reasons	-1830
night	-1831
▁explain	-1832
▁cap	-1833
▁Tai	-1834
▁contro	-1835
▁score	-1836
ober	-1837
▁low	-1838
▁husband	-1839
▁effic	-1840
lling	-1841
▁quick	-1842
▁cars	-1843
▁ess	-1844
▁bab	-1845
adays	-1846
outh	-1847
▁alone	-1848
▁disapp	-1849
▁compan	-1850
▁Ind	-1851
▁15	-1852
▁areas	-1853
▁front	-1854
▁Moreover	-1855
▁ann	-1856
▁clear	-1857
iven	-1858
▁worked	-1859
▁trad	-1860
▁birthday	-1861
▁mo	-1862
▁eating	-1863
▁mail	-1864
▁sentence	-1865
▁moment	-1866
▁Sometimes	-1867
ressed	-1868
▁October	-1869
▁woman	-1870
▁perfect	-1871
itive	-1872
▁necess	-1873
▁generation	-1874
▁hig	-1875
▁sat	-1876
▁Sp	-1877
▁Sun	-1878
▁knowledge	-1879
▁trou	-1880
sych	-1881
▁products	-1882
▁works	-1883
▁mot	-1884
▁market	-1885
anna	-1886
▁const	-1887
▁send	-1888
▁dra	-1889
▁beh	-1890
▁pot	-1891
ances	-1892
▁fail	-1893
▁songs	-1894
ional	-1895
▁flu	-1896
▁continue	-1897
INK	-1898
bably	-1899
▁form	-1900
ats	-1901
▁delicious	-1902
▁Te	-1903
ret	-1904
▁games	-1905
▁five	-1906
PER	-1907
iced	-1908
ging	-1909
▁waste	-1910
▁useful	-1911
▁kinds	-1912
▁profess	-1913
▁held	-1914
▁results	-1915
llo	-1916
noon	-1917
▁companies	-1918
▁guess	-1919
▁report	-1920
▁ap	-1921
▁service	-1922
▁America	-1923
▁fuel	-1924
▁festival	-1925
▁HY	-1926
▁glad	-1927
▁arrived	-1928
ced	-1929
▁}	-1930
vious	-1931
FID	-1932
▁{	-1933
▁excited	-1934
▁gramm	-1935
▁outside	-1936
lusion	-1937
PERL	-1938
PERLINK	-1939
▁HYPERLINK	-1940
ources	-1941
▁forget	-1942
▁suggest	-1943
▁pictures	-1944
uss	-1945
▁prevent	-1946
▁brother	-1947
ush	-1948
rences	-1949
▁close	-1950
▁wanna	-1951
▁classes	-1952
▁afternoon	-1953
ories	-1954
▁Austral	-1955
▁2008	-1956
▁earthquake	-1957
raid	-1958
▁questions	-1959
▁super	-1960
▁Christ	-1961
ged	-1962
▁technolog	-1963
▁engineering	-1964
fortunately	-1965
▁imag	-1966
▁00	-1967
▁depend	-1968
▁complete	-1969
▁common	-1970
▁RFID	-1971
ism	-1972
▁ability	-1973
▁ill	-1974
esides	-1975
▁Nuclear	-1976
ib	-1977
gin	-1978
▁takes	-1979
▁direct	-1980
▁No	-1981
ived	-1982
▁People	-1983
▁text	-1984
ilar	-1985
▁Tom	-1986
▁certain	-1987
▁web	-1988
▁comes	-1989
▁tot	-1990
▁afraid	-1991
▁project	-1992
wan	-1993
▁Pro	-1994
▁respon	-1995
▁chat	-1996
friend	-1997
▁funny	-1998
ondon	-1999
orld	-2000
une	-2001
▁tradition	-2002
▁hospital	-2003
▁however	-2004
▁spring	-2005
▁station	-2006
▁card	-2007
▁taken	-2008
▁return	-2009
▁mistakes	-2010
▁although	-2011
uddenly	-2012
▁materi	-2013
▁passed	-2014
▁eff	-2015
rible	-2016
▁building	-2017
▁heav	-2018
▁dem	-2019
▁conclusion	-2020
▁July	-2021
ones	-2022
▁University	-2023
▁100	-2024
▁London	-2025
▁effort	-2026
▁According	-2027
ara	-2028
▁From	-2029
▁video	-2030
▁prot	-2031
▁foot	-2032
▁12	-2033
▁rather	-2034
▁eyes	-2035
▁natural	-2036
▁sky	-2037
▁ris	-2038
▁Thus	-2039
▁exerc	-2040
▁bro	-2041
▁article	-2042
▁sea	-2043
▁meaning	-2044
uff	-2045
▁Most	-2046
▁women	-2047
▁waiting	-2048
▁Well	-2049
▁economy	-2050
aly	-2051
▁side	-2052
▁becom	-2053
▁relations	-2054
▁wonderful	-2055
▁bar	-2056
▁ones	-2057
▁older	-2058
uge	-2059
▁TOE	-2060
▁cho	-2061
▁radio	-2062
ilities	-2063
▁comfortable	-2064
ycle	-2065
aring	-2066
▁grand	-2067
▁conven	-2068
ffee	-2069
▁prepare	-2070
anger	-2071
▁subject	-2072
▁needed	-2073
earch	-2074
ants	-2075
▁mag	-2076
▁affect	-2077
iet	-2078
gry	-2079
▁el	-2080
▁arg	-2081
▁paper	-2082
▁ple	-2083
▁plants	-2084
iving	-2085
▁11	-2086
▁rice	-2087
ential	-2088
▁communicate	-2089
▁anyone	-2090
▁tour	-2091
▁difference	-2092
▁finan	-2093
▁tre	-2094
▁forg	-2095
mas	-2096
▁transl	-2097
▁val	-2098
▁save	-2099
aturday	-2100
▁Hi	-2101
ins	-2102
▁ce	-2103
▁realized	-2104
▁norm	-2105
▁Ap	-2106
rely	-2107
▁teachers	-2108
obal	-2109
▁cell	-2110
ili	-2111
▁workers	-2112
▁strange	-2113
▁baby	-2114
ze	-2115
isf	-2116
raph	-2117
▁interview	-2118
▁treat	-2119
▁mil	-2120
iction	-2121
▁electricity	-2122
ada	-2123
▁ways	-2124
▁worried	-2125
▁sorry	-2126
▁del	-2127
▁quickly	-2128
▁lack	-2129
▁attract	-2130
▁step	-2131
▁tend	-2132
▁Taiwan	-2133
care	-2134
IC	-2135
▁style	-2136
▁psych	-2137
▁coffee	-2138
ored	-2139
▁necessary	-2140
200	-2141
▁hur	-2142
omp	-2143
urthermore	-2144
ask	-2145
▁nerv	-2146
▁provide	-2147
▁fre	-2148
man	-2149
▁invest	-2150
▁issue	-2151
▁worry	-2152
amed	-2153
▁iP	-2154
tain	-2155
▁ach	-2156
obile	-2157
▁cra	-2158
▁kill	-2159
▁road	-2160
▁accept	-2161
aff	-2162
▁Sunday	-2163
▁Mon	-2164
dern	-2165
oto	-2166
▁lived	-2167
▁above	-2168
ah	-2169
▁ori	-2170
▁looks	-2171
▁deal	-2172
ands	-2173
▁probably	-2174
ailable	-2175
▁increasing	-2176
ciation	-2177
▁lov	-2178
▁pron	-2179
▁nervous	-2180
▁defin	-2181
▁advertise	-2182
▁Me	-2183
▁dev	-2184
urs	-2185
▁running	-2186
dle	-2187
▁swimming	-2188
▁201	-2189
min	-2190
▁huge	-2191
ountain	-2192
▁themselves	-2193
▁self	-2194
▁grammar	-2195
atives	-2196
▁green	-2197
▁usual	-2198
▁history	-2199
▁hotel	-2200
ril	-2201
ron	-2202
▁decide	-2203
▁higher	-2204
gen	-2205
▁war	-2206
idents	-2207
▁field	-2208
▁discuss	-2209
▁invent	-2210
ule	-2211
allen	-2212
▁cal	-2213
▁Ar	-2214
▁says	-2215
▁expected	-2216
▁relationship	-2217
▁TH	-2218
acy	-2219
▁risk	-2220
▁advant	-2221
▁exciting	-2222
▁While	-2223
▁similar	-2224
▁neg	-2225
▁given	-2226
hod	-2227
oes	-2228
▁encoura	-2229
▁cam	-2230
▁camp	-2231
▁hob	-2232
▁appre	-2233
▁Furthermore	-2234
▁surve	-2235
▁simple	-2236
▁against	-2237
ee	-2238
▁safe	-2239
▁er	-2240
▁equ	-2241
▁law	-2242
▁memor	-2243
resh	-2244
icles	-2245
▁fire	-2246
▁Next	-2247
▁guy	-2248
lu	-2249
▁cou	-2250
▁opportunity	-2251
ible	-2252
▁among	-2253
urity	-2254
▁developed	-2255
▁seemed	-2256
▁character	-2257
▁introduce	-2258
oad	-2259
▁compared	-2260
tty	-2261
ror	-2262
▁began	-2263
▁closed	-2264
▁saying	-2265
iding	-2266
ience	-2267
ney	-2268
▁limited	-2269
▁bur	-2270
▁clim	-2271
▁tele	-2272
▁press	-2273
.or	-2274
▁method	-2275
▁Our	-2276
▁indust	-2277
▁policies	-2278
sia	-2279
ony	-2280
room	-2281
brary	-2282
▁Saturday	-2283
ape	-2284
▁hold	-2285
▁fine	-2286
▁World	-2287
▁jun	-2288
▁financial	-2289
▁foc	-2290
▁Secondly	-2291
▁staff	-2292
ients	-2293
▁helped	-2294
▁pretty	-2295
▁Besides	-2296
▁satisf	-2297
▁Another	-2298
▁testing	-2299
ying	-2300
▁contrib	-2301
▁voice	-2302
▁individual	-2303
▁regard	-2304
▁gone	-2305
▁Yours	-2306
▁X	-2307
illance	-2308
▁traditional	-2309
▁solve	-2310
▁share	-2311
▁japanese	-2312
▁Eur	-2313
▁creat	-2314
▁attention	-2315
▁type	-2316
▁exch	-2317
▁received	-2318
iqu	-2319
▁$	-2320
sian	-2321
▁modern	-2322
▁reduce	-2323
▁Es	-2324
▁phys	-2325
ata	-2326
▁boss	-2327
nt	-2328
▁six	-2329
▁agree	-2330
▁walking	-2331
gress	-2332
▁cele	-2333
▁boyfriend	-2334
▁forgot	-2335
▁draw	-2336
▁weight	-2337
rench	-2338
▁ord	-2339
▁goal	-2340
▁ta	-2341
ears	-2342
▁training	-2343
for	-2344
▁suit	-2345
▁wants	-2346
sibility	-2347
ator	-2348
▁Hello	-2349
▁stress	-2350
▁mach	-2351
▁fish	-2352
▁effective	-2353
ashion	-2354
astic	-2355
▁except	-2356
▁Ex	-2357
▁longer	-2358
▁drinking	-2359
▁Ph	-2360
▁Though	-2361
▁stayed	-2362
▁protect	-2363
▁final	-2364
▁girls	-2365
▁mountain	-2366
▁2007	-2367
▁mod	-2368
▁contact	-2369
▁shows	-2370
▁mention	-2371
▁Aug	-2372
▁red	-2373
▁pick	-2374
▁visited	-2375
ane	-2376
▁challen	-2377
▁Australia	-2378
▁purp	-2379
ither	-2380
▁Gener	-2381
▁Ky	-2382
▁local	-2383
▁April	-2384
▁rainy	-2385
▁Z	-2386
AN	-2387
ots	-2388
▁mobile	-2389
▁account	-2390
▁beginning	-2391
▁amaz	-2392
ude	-2393
▁IV	-2394
▁His	-2395
▁Europe	-2396
▁available	-2397
▁including	-2398
▁heavy	-2399
come	-2400
eriod	-2401
▁lose	-2402
▁helps	-2403
▁Firstly	-2404
▁appreci	-2405
time	-2406
▁abs	-2407
▁vol	-2408
ource	-2409
▁bath	-2410
▁global	-2411
▁Germ	-2412
ability	-2413
▁stuff	-2414
rop	-2415
▁track	-2416
irc	-2417
▁blog	-2418
▁deep	-2419
.html	-2420
idence	-2421
▁Christmas	-2422
▁younger	-2423
▁Before	-2424
▁sounds	-2425
ined	-2426
▁kids	-2427
▁celebr	-2428
▁homework	-2429
▁advertisement	-2430
the	-2431
nect	-2432
wards	-2433
▁Hence	-2434
.org/	-2435
▁period	-2436
▁engineers	-2437
▁hearing	-2438
iter	-2439
▁danger	-2440
▁third	-2441
▁international	-2442
ON	-2443
ables	-2444
▁terrible	-2445
▁doctor	-2446
▁origin	-2447
zy	-2448
orrow	-2449
▁disease	-2450
aka	-2451
▁lab	-2452
▁suddenly	-2453
▁seeing	-2454
medi	-2455
illion	-2456
▁slow	-2457
▁boring	-2458
▁trouble	-2459
ler	-2460
▁Tw	-2461
▁deg	-2462
▁quality	-2463
nis	-2464
▁born	-2465
▁cute	-2466
ager	-2467
itiz	-2468
▁March	-2469
▁foods	-2470
▁hate	-2471
▁199	-2472
▁sick	-2473
ograph	-2474
ma	-2475
und	-2476
utions	-2477
▁Not	-2478
▁disappoint	-2479
▁further	-2480
▁control	-2481
▁moved	-2482
▁PC	-2483
▁classm	-2484
▁sense	-2485
▁middle	-2486
▁jobs	-2487
unk	-2488
▁Oh	-2489
▁Have	-2490
▁aff	-2491
yd	-2492
▁private	-2493
orn	-2494
▁mistake	-2495
▁Day	-2496
▁costs	-2497
▁worse	-2498
▁black	-2499
▁catch	-2500
▁issues	-2501
▁following	-2502
▁dou	-2503
▁national	-2504
▁benefits	-2505
▁state	-2506
▁personal	-2507
▁During	-2508
▁competition	-2509
▁fa	-2510
▁ball	-2511
▁goes	-2512
▁Thanks	-2513
hib	-2514
▁couple	-2515
▁liked	-2516
▁security	-2517
atre	-2518
anced	-2519
▁healthy	-2520
ization	-2521
bo	-2522
ji	-2523
ross	-2524
▁caused	-2525
ured	-2526
▁choice	-2527
▁manage	-2528
▁Ad	-2529
▁gas	-2530
▁Refe	-2531
▁taste	-2532
▁crow	-2533
▁respect	-2534
▁ideas	-2535
▁foreigners	-2536
▁performance	-2537
mber	-2538
▁guys	-2539
▁everybody	-2540
cast	-2541
▁connect	-2542
▁Unfortunately	-2543
▁library	-2544
▁easier	-2545
▁typ	-2546
▁Just	-2547
▁poll	-2548
▁effici	-2549
▁compl	-2550
▁street	-2551
▁ticket	-2552
.g	-2553
ccer	-2554
▁communication	-2555
▁August	-2556
pd	-2557
▁log	-2558
▁>	-2559
▁Ab	-2560
▁Mr	-2561
▁sus	-2562
▁line	-2563
itting	-2564
▁medic	-2565
▁lessons	-2566
▁base	-2567
▁graduate	-2568
▁na	-2569
hone	-2570
ton	-2571
▁dest	-2572
▁holidays	-2573
▁bag	-2574
▁resources	-2575
▁sen	-2576
hern	-2577
▁drama	-2578
▁brought	-2579
s/	-2580
▁appro	-2581
▁along	-2582
ume	-2583
▁soft	-2584
▁Pat	-2585
▁suff	-2586
▁search	-2587
▁Rus	-2588
▁science	-2589
▁June	-2590
▁online	-2591
uri	-2592
▁USA	-2593
tle	-2594
▁normal	-2595
sh	-2596
▁focus	-2597
▁dam	-2598
ina	-2599
▁completely	-2600
ural	-2601
▁planning	-2602
itical	-2603
▁exercise	-2604
▁woke	-2605
▁wed	-2606
omed	-2607
▁colleag	-2608
ned	-2609
▁particular	-2610
pite	-2611
▁Canada	-2612
▁leg	-2613
▁influ	-2614
▁citiz	-2615
▁tax	-2616
▁French	-2617
apt	-2618
▁Cl	-2619
▁color	-2620
ima	-2621
▁white	-2622
oid	-2623
ges	-2624
pdf	-2625
▁shops	-2626
▁2004	-2627
▁tennis	-2628
aki	-2629
▁healthcare	-2630
▁tea	-2631
▁surf	-2632
▁fresh	-2633
▁touch	-2634
▁applic	-2635
enced	-2636
▁member	-2637
cent	-2638
▁enter	-2639
▁stopped	-2640
▁repl	-2641
▁clock	-2642
▁growth	-2643
▁hands	-2644
▁Tomorrow	-2645
ami	-2646
▁hor	-2647
▁advice	-2648
▁soccer	-2649
▁mis	-2650
▁noticed	-2651
▁ste	-2652
▁door	-2653
▁fell	-2654
▁related	-2655
▁particip	-2656
▁Especially	-2657
▁surveillance	-2658
▁beer	-2659
▁exist	-2660
▁joined	-2661
cab	-2662
uth	-2663
▁speaker	-2664
▁Os	-2665
AT	-2666
▁instance	-2667
aps	-2668
▁junior	-2669
▁Con	-2670
▁message	-2671
▁nature	-2672
000	-2673
▁friendly	-2674
▁Her	-2675
▁starting	-2676
▁rate	-2677
▁weak	-2678
▁TOEIC	-2679
▁drive	-2680
▁married	-2681
▁examination	-2682
▁aspect	-2683
▁tit	-2684
▁turned	-2685
▁mine	-2686
awa	-2687
▁pie	-2688
▁novel	-2689
▁sight	-2690
▁doll	-2691
▁topic	-2692
▁hous	-2693
▁relatives	-2694
▁technologies	-2695
▁cooking	-2696
▁painting	-2697
oms	-2698
itely	-2699
▁space	-2700
▁50	-2701
▁Fe	-2702
▁inside	-2703
▁net	-2704
▁14	-2705
anish	-2706
▁veget	-2707
▁developing	-2708
▁stage	-2709
▁camer	-2710
▁tonight	-2711
▁Nowadays	-2712
▁bask	-2713
▁solution	-2714
▁ens	-2715
istic	-2716
▁window	-2717
▁imagine	-2718
▁Monday	-2719
ued	-2720
▁vocab	-2721
▁feelings	-2722
▁Kyoto	-2723
▁amazing	-2724
right	-2725
▁musical	-2726
▁Let	-2727
▁thus	-2728
▁progress	-2729
ental	-2730
▁Friday	-2731
▁previous	-2732
▁0	-2733
▁series	-2734
ieved	-2735
▁access	-2736
▁disappointed	-2737
▁else	-2738
▁shock	-2739
▁est	-2740
▁2005	-2741
▁driving	-2742
useum	-2743
de	-2744
EN	-2745
▁desc	-2746
▁factors	-2747
sequ	-2748
▁role	-2749
irement	-2750
▁positive	-2751
▁Or	-2752
.gov	-2753
▁points	-2754
obody	-2755
▁named	-2756
▁football	-2757
ises	-2758
▁sweet	-2759
▁center	-2760
▁implement	-2761
▁purpose	-2762
▁fashion	-2763
▁adult	-2764
▁teaching	-2765
▁Pl	-2766
etball	-2767
▁totally	-2768
▁complain	-2769
▁cher	-2770
▁immedi	-2771
▁Go	-2772
phone	-2773
▁rele	-2774
▁invol	-2775
▁exchange	-2776
ucky	-2777
▁13	-2778
▁task	-2779
▁18	-2780
aving	-2781
ption	-2782
▁yen	-2783
▁angry	-2784
▁sleeping	-2785
▁exams	-2786
▁flow	-2787
ym	-2788
rast	-2789
▁speakers	-2790
▁gain	-2791
▁diction	-2792
▁box	-2793
▁achieve	-2794
▁dance	-2795
▁scient	-2796
▁supposed	-2797
co	-2798
ech	-2799
set	-2800
▁lat	-2801
▁materials	-2802
hood	-2803
▁25	-2804
▁position	-2805
▁Mich	-2806
▁signific	-2807
▁taught	-2808
▁apply	-2809
▁sca	-2810
rate	-2811
▁hit	-2812
ache	-2813
▁recent	-2814
ded	-2815
▁Des	-2816
▁appreciate	-2817
rance	-2818
▁wake	-2819
▁key	-2820
▁band	-2821
els	-2822
▁cry	-2823
ules	-2824
▁master	-2825
▁create	-2826
▁<	-2827
▁cake	-2828
ilt	-2829
▁traffic	-2830
▁cheap	-2831
▁realize	-2832
▁Q	-2833
▁ease	-2834
▁sold	-2835
▁consum	-2836
▁player	-2837
int	-2838
▁constru	-2839
fast	-2840
▁likes	-2841
▁belong	-2842
▁grade	-2843
▁receive	-2844
▁16	-2845
▁proper	-2846
▁host	-2847
▁wedding	-2848
onest	-2849
▁kept	-2850
▁limit	-2851
ex	-2852
irt	-2853
ocol	-2854
▁newsp	-2855
▁phr	-2856
▁trave	-2857
▁favour	-2858
▁pleas	-2859
ique	-2860
▁homet	-2861
▁Osaka	-2862
▁floor	-2863
▁keeping	-2864
VD	-2865
▁fig	-2866
omeday	-2867
▁Ok	-2868
▁bic	-2869
▁Am	-2870
▁Gr	-2871
ift	-2872
▁DVD	-2873
lfriend	-2874
▁gre	-2875
▁staying	-2876
▁hometown	-2877
▁Are	-2878
▁circ	-2879
▁harder	-2880
ken	-2881
ury	-2882
ached	-2883
▁speed	-2884
▁theatre	-2885
aged	-2886
▁convenient	-2887
▁adm	-2888
▁within	-2889
▁Min	-2890
▁Brit	-2891
▁sched	-2892
.s	-2893
gle	-2894
▁worth	-2895
30	-2896
▁either	-2897
▁Us	-2898
▁thanks	-2899
▁presentation	-2900
▁sleepy	-2901
works	-2902
▁wall	-2903
▁exact	-2904
ires	-2905
▁pressure	-2906
mp	-2907
ump	-2908
aves	-2909
imin	-2910
▁sell	-2911
▁occur	-2912
▁Le	-2913
▁discount	-2914
load	-2915
ulary	-2916
▁disaster	-2917
▁laz	-2918
▁Comp	-2919
▁animals	-2920
▁concent	-2921
▁accidents	-2922
▁Sky	-2923
▁par	-2924
▁land	-2925
▁definitely	-2926
▁girlfriend	-2927
ipp	-2928
▁based	-2929
ighb	-2930
▁pronun	-2931
▁z	-2932
▁bat	-2933
AR	-2934
yl	-2935
▁innovation	-2936
ians	-2937
▁fat	-2938
ilies	-2939
▁motiv	-2940
▁atm	-2941
▁changes	-2942
vant	-2943
▁fight	-2944
.pdf	-2945
aries	-2946
▁Year	-2947
▁policy	-2948
uses	-2949
▁drop	-2950
▁bot	-2951
▁basketball	-2952
bit	-2953
▁2006	-2954
▁significant	-2955
ogn	-2956
lier	-2957
ael	-2958
▁decision	-2959
▁heat	-2960
▁impress	-2961
▁entrance	-2962
▁THE	-2963
▁climb	-2964
▁offic	-2965
▁United	-2966
▁schools	-2967
▁raining	-2968
▁detail	-2969
▁ur	-2970
▁don	-2971
umn	-2972
enty	-2973
▁Res	-2974
▁activity	-2975
▁cup	-2976
itude	-2977
▁atmosp	-2978
lled	-2979
▁therefore	-2980
iy	-2981
▁lower	-2982
▁remain	-2983
▁improved	-2984
▁breakfast	-2985
▁photo	-2986
ube	-2987
▁sn	-2988
▁non	-2989
▁dead	-2990
▁actor	-2991
▁ice	-2992
por	-2993
acks	-2994
▁death	-2995
▁prepared	-2996
uals	-2997
ivity	-2998
▁crazy	-2999
▁anymore	-3000
za	-3001
gg	-3002
▁ok	-3003
▁dangerous	-3004
▁located	-3005
▁citizens	-3006
▁instru	-3007
▁neighb	-3008
mark	-3009
orth	-3010
▁reach	-3011
▁dictionary	-3012
▁mentioned	-3013
▁About	-3014
ches	-3015
▁gives	-3016
ission	-3017
▁transportation	-3018
▁shoes	-3019
▁element	-3020
▁medicine	-3021
iver	-3022
vision	-3023
▁psychology	-3024
▁truth	-3025
▁beach	-3026
▁department	-3027
-c	-3028
▁Mar	-3029
▁avoid	-3030
▁percent	-3031
▁improving	-3032
▁contain	-3033
▁table	-3034
▁bank	-3035
▁emot	-3036
▁gon	-3037
▁brain	-3038
▁carry	-3039
▁stories	-3040
alif	-3041
▁cafe	-3042
▁chocol	-3043
to	-3044
▁concept	-3045
▁Har	-3046
▁volun	-3047
▁assist	-3048
▁families	-3049
iety	-3050
▁apartment	-3051
▁favourite	-3052
▁ident	-3053
▁po	-3054
▁Good	-3055
ration	-3056
▁Cent	-3057
▁broken	-3058
▁essay	-3059
ison	-3060
▁bloss	-3061
▁saving	-3062
▁basic	-3063
▁according	-3064
▁References	-3065
▁drank	-3066
▁hobby	-3067
▁Michael	-3068
▁vocabulary	-3069
▁decre	-3070
▁Generation	-3071
▁Inst	-3072
▁wide	-3073
▁National	-3074
▁bud	-3075
oul	-3076
▁17	-3077
▁rules	-3078
▁hang	-3079
board	-3080
itter	-3081
▁exce	-3082
▁blood	-3083
▁spec	-3084
arden	-3085
chnology	-3086
▁rob	-3087
ancing	-3088
▁efficiency	-3089
▁immediately	-3090
▁singing	-3091
▁introduced	-3092
▁Sum	-3093
▁biggest	-3094
▁pronunciation	-3095
▁reve	-3096
▁enjoyable	-3097
iling	-3098
▁sem	-3099
▁dishes	-3100
▁studies	-3101
▁+	-3102
eng	-3103
▁star	-3104
▁atmosphere	-3105
▁dark	-3106
▁laugh	-3107
▁kore	-3108
▁meal	-3109
▁scen	-3110
▁impact	-3111
▁feature	-3112
▁advance	-3113
▁magaz	-3114
▁walked	-3115
▁International	-3116
▁oil	-3117
phoon	-3118
▁Stud	-3119
▁source	-3120
▁cities	-3121
nam	-3122
▁fix	-3123
▁blue	-3124
▁cere	-3125
ground	-3126
▁tickets	-3127
▁broad	-3128
▁cherry	-3129
mat	-3130
▁earlier	-3131
▁Jan	-3132
itary	-3133
▁becoming	-3134
▁industry	-3135
reme	-3136
▁caught	-3137
▁privacy	-3138
ites	-3139
▁Here	-3140
▁smile	-3141
▁police	-3142
▁pack	-3143
▁mass	-3144
▁speech	-3145
▁patients	-3146
▁vi	-3147
ublic	-3148
▁community	-3149
idered	-3150
▁opened	-3151
▁appl	-3152
▁paid	-3153
▁camera	-3154
▁programs	-3155
▁doub	-3156
▁tool	-3157
▁produce	-3158
▁negative	-3159
▁confidence	-3160
▁changing	-3161
▁recogn	-3162
ees	-3163
actor	-3164
▁memory	-3165
▁terms	-3166
▁nood	-3167
cu	-3168
▁date	-3169
▁till	-3170
▁travelling	-3171
nd	-3172
eth	-3173
▁lucky	-3174
cer	-3175
▁senior	-3176
▁require	-3177
▁effects	-3178
▁God	-3179
▁considered	-3180
OU	-3181
umb	-3182
▁auth	-3183
▁classmates	-3184
▁listened	-3185
▁sincerely	-3186
▁bicycle	-3187
▁nowadays	-3188
▁harm	-3189
▁ride	-3190
▁baseball	-3191
▁events	-3192
▁island	-3193
AS	-3194
▁veh	-3195
urance	-3196
▁customers	-3197
▁aud	-3198
▁parts	-3199
▁glass	-3200
▁retirement	-3201
like	-3202
▁hop	-3203
▁built	-3204
▁luck	-3205
ung	-3206
▁match	-3207
▁helping	-3208
osing	-3209
▁Spanish	-3210
▁entries	-3211
duction	-3212
▁active	-3213
▁collect	-3214
▁lif	-3215
ducing	-3216
▁Skype	-3217
▁afford	-3218
▁characters	-3219
▁vers	-3220
mb	-3221
▁prin	-3222
▁chose	-3223
▁remind	-3224
alent	-3225
▁lazy	-3226
▁reveal	-3227
▁benefit	-3228
iation	-3229
▁photos	-3230
▁Everyone	-3231
▁experiences	-3232
▁hurt	-3233
▁title	-3234
▁demand	-3235
▁slept	-3236
▁physical	-3237
ES	-3238
atory	-3239
▁behav	-3240
▁individuals	-3241
▁23	-3242
cious	-3243
▁appear	-3244
▁increased	-3245
▁wondering	-3246
aim	-3247
▁single	-3248
▁meas	-3249
▁enjoying	-3250
IS	-3251
▁cab	-3252
▁rock	-3253
▁plans	-3254
osition	-3255
▁ageing	-3256
▁rich	-3257
ooled	-3258
▁created	-3259
ana	-3260
▁general	-3261
▁yourself	-3262
▁smart	-3263
▁mood	-3264
OR	-3265
▁aim	-3266
▁argue	-3267
▁someday	-3268
ey	-3269
▁ran	-3270
▁nobody	-3271
apers	-3272
▁fill	-3273
▁maintain	-3274
overed	-3275
▁peace	-3276
itar	-3277
▁required	-3278
adem	-3279
▁ensure	-3280
▁suitable	-3281
▁potential	-3282
ware	-3283
▁extreme	-3284
▁machine	-3285
FR	-3286
▁twice	-3287
▁notice	-3288
▁services	-3289
▁loved	-3290
▁reply	-3291
▁standard	-3292
▁pet	-3293
▁smok	-3294
▁giving	-3295
▁satisfied	-3296
▁showed	-3297
▁arm	-3298
aptop	-3299
▁somebody	-3300
▁advantages	-3301
▁Yes	-3302
▁patient	-3303
rier	-3304
▁Dis	-3305
ference	-3306
▁died	-3307
▁growing	-3308
▁offer	-3309
▁sales	-3310
▁fant	-3311
▁size	-3312
coh	-3313
▁funds	-3314
▁impos	-3315
▁confused	-3316
istry	-3317
▁volunte	-3318
uku	-3319
▁Pr	-3320
▁hom	-3321
▁record	-3322
▁bal	-3323
▁concerned	-3324
▁becomes	-3325
▁iPhone	-3326
▁happiness	-3327
▁behind	-3328
▁UK	-3329
▁40	-3330
▁Med	-3331
▁towards	-3332
▁worker	-3333
▁original	-3334
▁Pet	-3335
▁sunny	-3336
▁cerem	-3337
▁ready	-3338
▁appe	-3339
▁likely	-3340
▁regular	-3341
ips	-3342
▁gym	-3343
ators	-3344
▁systems	-3345
let	-3346
▁chin	-3347
▁laptop	-3348
▁item	-3349
▁stat	-3350
▁England	-3351
▁wearing	-3352
▁bored	-3353
nes	-3354
▁egg	-3355
▁mix	-3356
▁solutions	-3357
fecture	-3358
▁river	-3359
▁smell	-3360
▁Fortunately	-3361
inary	-3362
▁mainly	-3363
▁action	-3364
▁garden	-3365
▁Other	-3366
▁starts	-3367
rend	-3368
fficient	-3369
▁checked	-3370
wh	-3371
▁fru	-3372
▁port	-3373
▁knows	-3374
50	-3375
▁South	-3376
▁request	-3377
▁haha	-3378
▁burden	-3379
ydro	-3380
▁pool	-3381
▁facilities	-3382
▁impossible	-3383
▁Feb	-3384
▁museum	-3385
▁elementary	-3386
cher	-3387
.sg/	-3388
▁emb	-3389
iliar	-3390
▁note	-3391
ification	-3392
▁thous	-3393
▁honest	-3394
▁typhoon	-3395
▁21	-3396
leep	-3397
par	-3398
▁cream	-3399
▁somewhere	-3400
▁bike	-3401
▁earn	-3402
▁hardly	-3403
cohol	-3404
▁plays	-3405
▁million	-3406
▁careful	-3407
▁vegetables	-3408
active	-3409
▁Never	-3410
▁guitar	-3411
anny	-3412
ady	-3413
nergy	-3414
ronic	-3415
▁trees	-3416
▁gets	-3417
▁degree	-3418
▁Im	-3419
hernob	-3420
▁drunk	-3421
go	-3422
▁moving	-3423
▁id	-3424
▁ele	-3425
▁States	-3426
▁fan	-3427
▁Could	-3428
▁email	-3429
▁ground	-3430
▁select	-3431
eed	-3432
iled	-3433
▁tough	-3434
▁York	-3435
▁page	-3436
▁determ	-3437
▁faith	-3438
.d	-3439
▁preparing	-3440
▁crowded	-3441
10	-3442
▁nation	-3443
▁resear	-3444
▁App	-3445
▁2000	-3446
▁frequ	-3447
▁flowers	-3448
▁professional	-3449
▁tests	-3450
▁Tr	-3451
irty	-3452
uary	-3453
istics	-3454
▁author	-3455
ining	-3456
itted	-3457
▁alcohol	-3458
alian	-3459
▁British	-3460
▁allowed	-3461
theless	-3462
▁chinese	-3463
▁24	-3464
estern	-3465
▁German	-3466
hernobyl	-3467
▁diseases	-3468
ceed	-3469
▁airport	-3470
▁buildings	-3471
▁experienced	-3472
haps	-3473
▁television	-3474
▁Two	-3475
▁exactly	-3476
▁treatment	-3477
▁stra	-3478
▁pollution	-3479
▁excell	-3480
▁thoughts	-3481
▁chocolate	-3482
▁OK	-3483
▁bread	-3484
▁buying	-3485
▁pian	-3486
oom	-3487
▁types	-3488
▁ceremony	-3489
▁schedule	-3490
ples	-3491
▁shr	-3492
▁meat	-3493
ka	-3494
atic	-3495
▁Nag	-3496
▁soup	-3497
verage	-3498
▁Their	-3499
▁fluently	-3500
▁..	-3501
appy	-3502
▁Energy	-3503
▁regret	-3504
▁efficient	-3505
itor	-3506
▁subs	-3507
▁faster	-3508
▁rap	-3509
▁cheaper	-3510
▁responsibility	-3511
▁Man	-3512
▁below	-3513
▁lecture	-3514
lig	-3515
▁military	-3516
▁Bl	-3517
▁mel	-3518
▁secret	-3519
▁Comm	-3520
▁surprise	-3521
ulation	-3522
▁semester	-3523
▁fit	-3524
▁importance	-3525
iture	-3526
▁production	-3527
▁claim	-3528
hest	-3529
▁budget	-3530
▁funding	-3531
▁himself	-3532
▁u	-3533
ief	-3534
ply	-3535
▁relative	-3536
▁specific	-3537
▁employees	-3538
oph	-3539
▁extra	-3540
ological	-3541
▁essential	-3542
▁docu	-3543
▁prize	-3544
▁encourage	-3545
uted	-3546
▁fly	-3547
aked	-3548
▁Calif	-3549
arb	-3550
▁surv	-3551
atever	-3552
▁newspaper	-3553
itic	-3554
▁altern	-3555
▁Sir	-3556
AM	-3557
▁Per	-3558
eing	-3559
▁scared	-3560
ended	-3561
▁articles	-3562
▁198	-3563
ydrogen	-3564
▁figure	-3565
▁Californ	-3566
▁excellent	-3567
ners	-3568
▁race	-3569
▁successful	-3570
▁restaurants	-3571
▁media	-3572
stand	-3573
▁Kim	-3574
izing	-3575
▁differences	-3576
ef	-3577
erve	-3578
▁Mad	-3579
▁annoy	-3580
▁traveling	-3581
▁users	-3582
▁innovations	-3583
▁Hope	-3584
uesday	-3585
▁material	-3586
▁Ry	-3587
▁En	-3588
▁uses	-3589
▁chick	-3590
▁clearly	-3591
round	-3592
▁rent	-3593
▁computers	-3594
▁colleagues	-3595
▁supermark	-3596
ify	-3597
ters	-3598
usted	-3599
▁exper	-3600
▁object	-3601
▁situ	-3602
▁sushi	-3603
upid	-3604
▁goods	-3605
EL	-3606
▁Sci	-3607
▁pan	-3608
▁whose	-3609
▁anyway	-3610
▁scene	-3611
▁helpful	-3612
▁California	-3613
▁application	-3614
ox	-3615
ij	-3616
▁dram	-3617
ura	-3618
airs	-3619
olute	-3620
▁throw	-3621
▁announ	-3622
▁comment	-3623
▁advanced	-3624
▁processes	-3625
▁operation	-3626
▁quit	-3627
▁opportunities	-3628
▁gra	-3629
▁attended	-3630
▁advantage	-3631
▁equip	-3632
▁lic	-3633
epend	-3634
▁released	-3635
▁understood	-3636
▁div	-3637
▁math	-3638
▁die	-3639
▁Over	-3640
▁sil	-3641
▁dress	-3642
▁overse	-3643
▁graduated	-3644
▁2003	-3645
ctions	-3646
▁impressed	-3647
▁hund	-3648
▁opt	-3649
▁cases	-3650
▁foreigner	-3651
▁professor	-3652
▁cooked	-3653
oken	-3654
▁review	-3655
▁Reactor	-3656
▁willing	-3657
▁consequ	-3658
▁sitting	-3659
▁conditions	-3660
▁Viet	-3661
▁stru	-3662
▁stars	-3663
ashi	-3664
▁entered	-3665
▁exha	-3666
▁stupid	-3667
▁dont	-3668
▁warming	-3669
▁ordered	-3670
▁players	-3671
cember	-3672
▁experim	-3673
▁Face	-3674
▁22	-3675
ified	-3676
▁milk	-3677
▁challenge	-3678
ading	-3679
▁income	-3680
▁IT	-3681
▁Spe	-3682
▁aspects	-3683
▁include	-3684
gency	-3685
▁Chernobyl	-3686
▁corrected	-3687
▁Technology	-3688
▁hundred	-3689
pa	-3690
▁January	-3691
▁invited	-3692
▁Sa	-3693
▁coun	-3694
▁Does	-3695
▁diet	-3696
▁pray	-3697
cl	-3698
how	-3699
▁esc	-3700
▁lol	-3701
▁tur	-3702
▁function	-3703
days	-3704
▁data	-3705
▁spoke	-3706
▁comments	-3707
sit	-3708
▁arr	-3709
▁Once	-3710
▁dreams	-3711
▁expression	-3712
▁1st	-3713
▁happens	-3714
aced	-3715
▁Your	-3716
ishes	-3717
15	-3718
▁career	-3719
▁descri	-3720
▁Its	-3721
▁piano	-3722
▁houses	-3723
▁Italian	-3724
.n	-3725
▁failed	-3726
▁Sw	-3727
▁regist	-3728
▁pen	-3729
▁Russian	-3730
▁entertain	-3731
▁prefecture	-3732
▁CD	-3733
wered	-3734
▁stores	-3735
▁management	-3736
▁comb	-3737
advant	-3738
ography	-3739
▁Usually	-3740
▁planned	-3741
▁extremely	-3742
using	-3743
▁academ	-3744
▁highly	-3745
▁sens	-3746
▁autom	-3747
▁Summer	-3748
arr	-3749
icing	-3750
▁hall	-3751
▁address	-3752
▁insurance	-3753
▁eye	-3754
▁singer	-3755
▁fantastic	-3756
na	-3757
gery	-3758
▁cru	-3759
erson	-3760
▁France	-3761
▁construction	-3762
▁unique	-3763
▁complic	-3764
▁concentrate	-3765
▁Nevertheless	-3766
li	-3767
▁Hong	-3768
▁version	-3769
▁imm	-3770
▁Third	-3771
▁hesit	-3772
▁Tuesday	-3773
▁software	-3774
▁understanding	-3775
een	-3776
ows	-3777
▁minim	-3778
/p	-3779
▁welf	-3780
▁whenever	-3781
▁driver	-3782
▁terror	-3783
▁strongly	-3784
▁latest	-3785
key	-3786
▁Who	-3787
▁total	-3788
▁possibility	-3789
▁Hel	-3790
▁cop	-3791
▁cheer	-3792
▁doubt	-3793
▁capital	-3794
▁welfare	-3795
▁December	-3796
▁answered	-3797
▁surround	-3798
▁governments	-3799
itute	-3800
▁separ	-3801
▁pm	-3802
▁Wed	-3803
▁viol	-3804
force	-3805
▁produced	-3806
tery	-3807
wise	-3808
▁obs	-3809
▁stom	-3810
▁shocked	-3811
▁ut	-3812
▁wel	-3813
▁Engine	-3814
▁distance	-3815
rest	-3816
▁fever	-3817
▁piece	-3818
rew	-3819
▁absolute	-3820
▁midnight	-3821
IT	-3822
▁ant	-3823
ctors	-3824
▁oblig	-3825
▁itself	-3826
under	-3827
▁emer	-3828
▁India	-3829
▁asleep	-3830
▁everywhere	-3831
▁worst	-3832
▁Festival	-3833
▁loud	-3834
▁vict	-3835
▁memories	-3836
▁image	-3837
▁flight	-3838
▁customer	-3839
play	-3840
▁quiet	-3841
▁troub	-3842
▁illness	-3843
rees	-3844
▁n.d	-3845
▁Danny	-3846
▁ended	-3847
▁ourselves	-3848
ode	-3849
▁SC	-3850
▁Which	-3851
▁labor	-3852
▁lovely	-3853
▁Brook	-3854
▁leaves	-3855
▁High	-3856
▁sort	-3857
▁graduation	-3858
▁unc	-3859
▁calm	-3860
▁subjects	-3861
▁inj	-3862
▁rapid	-3863
FL	-3864
pm	-3865
▁chem	-3866
▁enh	-3867
▁wet	-3868
antly	-3869
WR	-3870
ING	-3871
▁seven	-3872
▁solar	-3873
▁ver	-3874
▁liter	-3875
▁familiar	-3876
ev	-3877
▁curry	-3878
ald	-3879
ously	-3880
▁attitude	-3881
▁gradually	-3882
ano	-3883
tit	-3884
▁fort	-3885
▁charge	-3886
▁Facebook	-3887
▁textbook	-3888
▁fear	-3889
▁habit	-3890
uce	-3891
▁spread	-3892
▁currently	-3893
▁dogs	-3894
▁technological	-3895
▁Ear	-3896
▁skin	-3897
▁Butler	-3898
▁Sur	-3899
▁unf	-3900
▁Only	-3901
▁brow	-3902
▁seriously	-3903
▁rev	-3904
urch	-3905
▁diver	-3906
▁simply	-3907
nesday	-3908
▁autumn	-3909
ority	-3910
▁fair	-3911
▁ir	-3912
ades	-3913
▁acqu	-3914
▁gift	-3915
▁radioactive	-3916
rim	-3917
▁je	-3918
▁desk	-3919
▁convenience	-3920
ED	-3921
▁relig	-3922
▁bigger	-3923
▁causes	-3924
anga	-3925
overy	-3926
▁Af	-3927
▁conduct	-3928
▁Rob	-3929
▁faithfully	-3930
▁2010	-3931
▁Very	-3932
▁broke	-3933
▁Pa	-3934
iring	-3935
▁Mac	-3936
▁wine	-3937
▁approp	-3938
▁humans	-3939
▁dollars	-3940
▁...	-3941
oogle	-3942
▁screen	-3943
▁stomach	-3944
itics	-3945
▁deb	-3946
▁cris	-3947
ially	-3948
▁dancing	-3949
▁variety	-3950
uz	-3951
isure	-3952
ruary	-3953
lished	-3954
▁killed	-3955
▁moon	-3956
▁pred	-3957
▁sche	-3958
▁bill	-3959
ustain	-3960
rict	-3961
▁gold	-3962
▁damage	-3963
▁despite	-3964
▁leaving	-3965
▁hydrogen	-3966
▁disadvant	-3967
irm	-3968
▁ep	-3969
▁eight	-3970
▁motor	-3971
▁nearly	-3972
riate	-3973
▁spir	-3974
ension	-3975
▁anywhere	-3976
▁expressions	-3977
ossil	-3978
▁Health	-3979
▁finding	-3980
▁manager	-3981
val	-3982
▁Gu	-3983
▁groups	-3984
▁anime	-3985
▁confident	-3986
▁Pol	-3987
EC	-3988
▁hungry	-3989
▁neighbor	-3990
▁MS	-3991
▁shown	-3992
▁chicken	-3993
erg	-3994
bies	-3995
▁theater	-3996
▁value	-3997
▁efforts	-3998
▁designed	-3999
▁flat	-4000
▁musc	-4001
▁yell	-4002
▁films	-4003
▁spoken	-4004
▁cultures	-4005
▁involved	-4006
uf	-4007
▁CP	-4008
▁loss	-4009
▁install	-4010
▁assign	-4011
2009	-4012
▁argu	-4013
▁lone	-4014
▁recommended	-4015
urious	-4016
▁Public	-4017
▁kit	-4018
▁Despite	-4019
▁requires	-4020
▁happening	-4021
▁BB	-4022
ooth	-4023
▁tar	-4024
▁lifest	-4025
uts	-4026
▁magazine	-4027
▁Sc	-4028
▁subtit	-4029
▁relaxed	-4030
▁discovered	-4031
▁ign	-4032
▁clos	-4033
▁ther	-4034
▁cancer	-4035
ugg	-4036
idge	-4037
▁dig	-4038
▁Germany	-4039
▁applied	-4040
▁environmental	-4041
ustr	-4042
▁whom	-4043
▁Those	-4044
▁intern	-4045
▁February	-4046
▁difficulty	-4047
▁century	-4048
▁corrections	-4049
▁mouth	-4050
▁blossoms	-4051
▁celebrate	-4052
ido	-4053
▁Vietnam	-4054
▁suffering	-4055
▁Mal	-4056
▁commer	-4057
▁lately	-4058
▁affected	-4059
▁unfortunately	-4060
▁suc	-4061
▁boys	-4062
▁factor	-4063
ancy	-4064
▁Asian	-4065
▁allows	-4066
▁smoking	-4067
chen	-4068
onents	-4069
▁topics	-4070
▁whatever	-4071
bered	-4072
▁visiting	-4073
▁programme	-4074
xic	-4075
ole	-4076
duces	-4077
▁independ	-4078
emperature	-4079
▁situations	-4080
AL	-4081
▁kn	-4082
▁vill	-4083
▁Genetic	-4084
▁discover	-4085
bon	-4086
▁surfing	-4087
▁overseas	-4088
▁mic	-4089
▁phones	-4090
▁streng	-4091
▁provided	-4092
▁fireworks	-4093
▁Car	-4094
▁tent	-4095
▁remem	-4096
nuclear	-4097
▁Sy	-4098
▁tag	-4099
▁dish	-4100
▁weap	-4101
▁lonely	-4102
lla	-4103
▁via	-4104
▁proud	-4105
▁attack	-4106
▁returned	-4107
▁contribute	-4108
amen	-4109
▁asso	-4110
▁adults	-4111
▁continu	-4112
illy	-4113
▁aid	-4114
▁farm	-4115
▁tree	-4116
▁loves	-4117
▁trains	-4118
▁across	-4119
▁pleased	-4120
af	-4121
ki	-4122
▁repres	-4123
omen	-4124
▁anx	-4125
▁TOEFL	-4126
▁salary	-4127
▁seat	-4128
▁average	-4129
20	-4130
▁cow	-4131
▁rid	-4132
▁sex	-4133
▁arch	-4134
▁minute	-4135
▁broadcast	-4136
pro	-4137
▁bi	-4138
▁dry	-4139
ailand	-4140
▁asking	-4141
▁features	-4142
▁influence	-4143
asc	-4144
rors	-4145
pring	-4146
ourses	-4147
▁phrase	-4148
▁obvious	-4149
mes	-4150
▁jog	-4151
▁jud	-4152
▁cats	-4153
▁Three	-4154
amb	-4155
▁marri	-4156
▁directly	-4157
▁entire	-4158
▁ordinary	-4159
▁60	-4160
▁cast	-4161
▁mult	-4162
▁gotten	-4163
▁45	-4164
▁reci	-4165
-cooled	-4166
▁fossil	-4167
▁carefully	-4168
▁Both	-4169
▁arrive	-4170
▁crisis	-4171
▁drawing	-4172
▁complicated	-4173
▁Pre	-4174
▁rout	-4175
ession	-4176
▁cover	-4177
▁slowly	-4178
▁succeed	-4179
/0	-4180
ommod	-4181
▁board	-4182
▁breat	-4183
▁force	-4184
▁stick	-4185
▁subsid	-4186
▁reality	-4187
▁appeared	-4188
▁radiation	-4189
rd	-4190
rets	-4191
hibition	-4192
▁overcome	-4193
iry	-4194
▁hobbies	-4195
▁chatting	-4196
▁attractive	-4197
edia	-4198
olution	-4199
▁motivation	-4200
▁registered	-4201
iny	-4202
▁feels	-4203
▁beauty	-4204
▁suffer	-4205
▁depressed	-4206
yr	-4207
▁sand	-4208
▁convent	-4209
▁sustain	-4210
.S	-4211
▁SCWR	-4212
▁dorm	-4213
mother	-4214
▁pleasure	-4215
▁volunteer	-4216
▁cart	-4217
▁behavior	-4218
oe	-4219
cel	-4220
light	-4221
▁surgery	-4222
lex	-4223
ateg	-4224
rup	-4225
▁shy	-4226
ster	-4227
▁fif	-4228
▁threat	-4229
asp	-4230
▁Joh	-4231
▁courses	-4232
▁kitchen	-4233
▁network	-4234
▁AN	-4235
▁bow	-4236
▁reduced	-4237
▁absolutely	-4238
▁bra	-4239
▁upset	-4240
▁destro	-4241
▁Wednesday	-4242
ycling	-4243
▁background	-4244
att	-4245
▁difficulties	-4246
rastru	-4247
▁shape	-4248
▁fee	-4249
▁drug	-4250
▁Italy	-4251
idering	-4252
▁korean	-4253
▁fund	-4254
▁accent	-4255
▁actors	-4256
▁content	-4257
▁childhood	-4258
▁continued	-4259
▁cand	-4260
▁accommod	-4261
▁squ	-4262
▁usage	-4263
ovember	-4264
▁bright	-4265
▁alternative	-4266
▁supermarket	-4267
bsp	-4268
▁Where	-4269
▁carrier	-4270
▁headache	-4271
-s	-4272
itable	-4273
rently	-4274
▁failure	-4275
chi	-4276
▁prim	-4277
▁section	-4278
▁god	-4279
▁nbsp	-4280
▁plane	-4281
▁former	-4282
▁practicing	-4283
ET	-4284
esome	-4285
▁meals	-4286
▁model	-4287
▁fing	-4288
▁extent	-4289
▁pronoun	-4290
uy	-4291
bow	-4292
▁Will	-4293
▁fema	-4294
▁twenty	-4295
ams	-4296
ursday	-4297
▁female	-4298
▁skype	-4299
▁translate	-4300
sing	-4301
▁target	-4302
▁partner	-4303
ending	-4304
oof	-4305
unt	-4306
▁chances	-4307
▁eventually	-4308
US	-4309
ship	-4310
▁univers	-4311
▁concerns	-4312
iles	-4313
ita	-4314
nce	-4315
▁Asia	-4316
▁Instead	-4317
▁depends	-4318
order	-4319
▁Camp	-4320
▁nose	-4321
▁errors	-4322
▁x	-4323
▁cloud	-4324
▁sites	-4325
▁borrow	-4326
▁sightse	-4327
▁remembered	-4328
edu	-4329
▁2002	-4330
▁purch	-4331
▁infrastru	-4332
▁rule	-4333
▁weird	-4334
▁cultural	-4335
mon	-4336
▁degrees	-4337
▁passion	-4338
▁reached	-4339
▁European	-4340
ubb	-4341
▁Mc	-4342
▁beat	-4343
▁reli	-4344
▁seek	-4345
▁fully	-4346
▁gather	-4347
unami	-4348
▁smooth	-4349
▁November	-4350
▁cleaning	-4351
▁opinions	-4352
▁Par	-4353
ively	-4354
▁2001	-4355
.gov.sg/	-4356
▁impression	-4357
my	-4358
▁Wr	-4359
▁engineer	-4360
▁improvement	-4361
dered	-4362
▁adop	-4363
▁comed	-4364
▁teeth	-4365
▁mental	-4366
erts	-4367
▁dad	-4368
▁Kong	-4369
▁fried	-4370
▁expend	-4371
▁Thailand	-4372
▁suggested	-4373
▁appropriate	-4374
atch	-4375
atically	-4376
▁approach	-4377
▁transfer	-4378
bum	-4379
itory	-4380
▁bott	-4381
▁cards	-4382
▁missed	-4383
▁Like	-4384
▁Russia	-4385
▁promised	-4386
▁provides	-4387
▁scientists	-4388
oku	-4389
osh	-4390
▁items	-4391
▁details	-4392
▁dom	-4393
▁ing	-4394
▁wash	-4395
▁forever	-4396
▁School	-4397
▁waited	-4398
▁Science	-4399
▁repe	-4400
▁estab	-4401
▁lifestyle	-4402
▁cous	-4403
▁subst	-4404
▁colleague	-4405
▁operating	-4406
▁technical	-4407
ps	-4408
▁strict	-4409
▁29	-4410
▁expenses	-4411
▁workforce	-4412
40	-4413
▁promot	-4414
itch	-4415
aches	-4416
fered	-4417
▁providing	-4418
▁City	-4419
▁pair	-4420
▁flower	-4421
▁mostly	-4422
▁awesome	-4423
icy	-4424
ulf	-4425
.gov/	-4426
uable	-4427
▁disp	-4428
▁init	-4429
▁user	-4430
▁license	-4431
▁troubles	-4432
▁implemented	-4433
▁Ryan	-4434
▁commercial	-4435
ening	-4436
▁uncom	-4437
▁complex	-4438
▁Almost	-4439
rimination	-4440
▁structure	-4441
29	-4442
▁nurs	-4443
▁roomm	-4444
▁climbing	-4445
oka	-4446
ulate	-4447
▁cred	-4448
▁equipment	-4449
oya	-4450
▁seve	-4451
▁greatly	-4452
▁eaten	-4453
▁prices	-4454
▁hunting	-4455
▁methods	-4456
ards	-4457
tion	-4458
▁grandmother	-4459
▁CPF	-4460
ilipp	-4461
▁mall	-4462
▁Afric	-4463
▁conv	-4464
▁slight	-4465
▁rise	-4466
▁deeply	-4467
▁riding	-4468
▁animation	-4469
OM	-4470
inf	-4471
ino	-4472
men	-4473
▁John	-4474
▁teen	-4475
pected	-4476
▁contrast	-4477
▁raise	-4478
▁introduction	-4479
annel	-4480
▁album	-4481
▁obtain	-4482
anned	-4483
▁sources	-4484
▁responsible	-4485
▁28	-4486
▁streets	-4487
▁generations	-4488
▁Hall	-4489
▁feed	-4490
▁tasks	-4491
▁salt	-4492
▁brings	-4493
▁describe	-4494
▁exhausted	-4495
▁frequently	-4496
▁Did	-4497
▁n.d.	-4498
▁thes	-4499
▁homes	-4500
▁range	-4501
▁church	-4502
velopment	-4503
▁accepted	-4504
▁tourists	-4505
ufact	-4506
▁Part	-4507
▁marriage	-4508
▁messages	-4509
▁sightseeing	-4510
▁IN	-4511
know	-4512
▁Art	-4513
riger	-4514
▁drinks	-4515
▁histor	-4516
▁victim	-4517
▁26	-4518
.edu	-4519
house	-4520
rag	-4521
▁lay	-4522
ipped	-4523
▁cross	-4524
ec	-4525
▁aware	-4526
▁noodles	-4527
▁Bra	-4528
▁Earth	-4529
▁telling	-4530
▁relatively	-4531
▁Sm	-4532
head	-4533
▁owner	-4534
▁crying	-4535
▁supply	-4536
▁Time	-4537
▁Park	-4538
▁NY	-4539
▁ski	-4540
▁Work	-4541
▁guest	-4542
▁trust	-4543
▁nearby	-4544
▁knowing	-4545
dom	-4546
asion	-4547
▁devices	-4548
▁Cur	-4549
▁den	-4550
▁Madam	-4551
▁friendship	-4552
▁ts	-4553
aped	-4554
▁analy	-4555
▁dairy	-4556
▁diaries	-4557
▁generate	-4558
▁discounts	-4559
igning	-4560
▁safer	-4561
▁spite	-4562
▁embarr	-4563
▁measures	-4564
uki	-4565
▁Okin	-4566
▁insp	-4567
▁guide	-4568
▁semin	-4569
▁parties	-4570
▁persons	-4571
UR	-4572
ori	-4573
▁recover	-4574
▁decrease	-4575
araoke	-4576
▁vehicles	-4577
▁participate	-4578
aku	-4579
omb	-4580
▁core	-4581
▁valuable	-4582
TS	-4583
▁Ca	-4584
▁quar	-4585
▁Spain	-4586
▁Spring	-4587
▁employment	-4588
alys	-4589
▁Power	-4590
▁meant	-4591
▁journey	-4592
▁Government	-4593
▁Thai	-4594
▁golf	-4595
▁robot	-4596
▁Thursday	-4597
▁archite	-4598
▁welcome	-4599
▁electronic	-4600
▁2011	-4601
▁includes	-4602
▁Gold	-4603
▁goals	-4604
▁picked	-4605
▁president	-4606
ux	-4607
▁cin	-4608
▁brand	-4609
▁facing	-4610
▁balance	-4611
▁Suddenly	-4612
put	-4613
▁rising	-4614
▁managed	-4615
▁thousand	-4616
▁practical	-4617
/1	-4618
▁Ob	-4619
izza	-4620
▁Haw	-4621
▁ham	-4622
▁wore	-4623
▁hence	-4624
▁rights	-4625
▁talent	-4626
▁Central	-4627
▁Philipp	-4628
▁letters	-4629
▁refriger	-4630
ani	-4631
▁fuels	-4632
ointing	-4633
nals	-4634
rill	-4635
▁dut	-4636
▁hello	-4637
▁manufact	-4638
▁political	-4639
▁fruit	-4640
▁Em	-4641
▁Due	-4642
▁lie	-4643
▁telephone	-4644
years	-4645
▁forest	-4646
▁sector	-4647
▁replace	-4648
of	-4649
▁hy	-4650
iant	-4651
rove	-4652
▁epis	-4653
▁comic	-4654
▁humid	-4655
▁sauce	-4656
lly	-4657
▁U.S	-4658
▁parent	-4659
▁shower	-4660
▁glasses	-4661
▁sometime	-4662
down	-4663
▁Disney	-4664
▁tow	-4665
cient	-4666
▁theme	-4667
▁generated	-4668
ened	-4669
▁impl	-4670
▁stri	-4671
▁reasonable	-4672
ns	-4673
hand	-4674
lymp	-4675
place	-4676
itation	-4677
▁videos	-4678
▁housing	-4679
eria	-4680
▁Che	-4681
▁Look	-4682
unic	-4683
▁1000	-4684
▁smoke	-4685
▁fields	-4686
▁destroy	-4687
▁display	-4688
▁examples	-4689
▁standing	-4690
ale	-4691
azz	-4692
▁Yok	-4693
▁link	-4694
▁menu	-4695
▁billion	-4696
▁occurred	-4697
▁wondered	-4698
oses	-4699
▁secrets	-4700
▁27	-4701
▁comfort	-4702
▁coal	-4703
▁projects	-4704
▁Tra	-4705
icted	-4706
▁device	-4707
agers	-4708
▁depress	-4709
▁straight	-4710
oooo	-4711
▁ban	-4712
▁Such	-4713
▁pros	-4714
▁represent	-4715
uman	-4716
aging	-4717
▁graph	-4718
▁spirit	-4719
AP	-4720
OT	-4721
iest	-4722
ament	-4723
ception	-4724
▁beings	-4725
▁region	-4726
▁suppose	-4727
▁North	-4728
▁relaxing	-4729
action	-4730
ficial	-4731
▁audience	-4732
▁invention	-4733
▁dent	-4734
esting	-4735
ushima	-4736
▁round	-4737
▁carbon	-4738
▁filled	-4739
▁yellow	-4740
▁anybody	-4741
chan	-4742
▁Seoul	-4743
cies	-4744
▁shirt	-4745
▁Mic	-4746
▁intell	-4747
▁raised	-4748
▁explained	-4749
edom	-4750
▁Hok	-4751
▁Peter	-4752
eration	-4753
▁academic	-4754
▁infrastructure	-4755
ls	-4756
▁cove	-4757
▁contr	-4758
▁sweets	-4759
▁properly	-4760
▁researcher	-4761
ato	-4762
▁kil	-4763
▁Life	-4764
▁Elect	-4765
▁faced	-4766
▁greater	-4767
▁Av	-4768
▁Would	-4769
▁practiced	-4770
▁3D	-4771
▁bear	-4772
▁considering	-4773
phas	-4774
▁umb	-4775
▁handle	-4776
▁incident	-4777
▁personality	-4778
▁consideration	-4779
km	-4780
▁War	-4781
itals	-4782
▁phrases	-4783
formation	-4784
▁embarrass	-4785
iff	-4786
while	-4787
▁Educ	-4788
▁cinem	-4789
ils	-4790
▁80	-4791
kaido	-4792
▁ju	-4793
▁associ	-4794
-f	-4795
▁ip	-4796
▁San	-4797
▁lady	-4798
▁possib	-4799
▁disorder	-4800
▁regarding	-4801
▁subtitles	-4802
▁hero	-4803
▁western	-4804
▁ren	-4805
▁grate	-4806
▁south	-4807
▁explan	-4808
▁monitor	-4809
▁machines	-4810
▁umbre	-4811
tenance	-4812
▁temple	-4813
▁universities	-4814
▁'t	-4815
osen	-4816
▁Reg	-4817
▁tong	-4818
▁accomp	-4819
▁Okinawa	-4820
▁conversations	-4821
osite	-4822
▁decor	-4823
▁unable	-4824
▁somehow	-4825
▁Ministry	-4826
▁searching	-4827
ijing	-4828
▁discovery	-4829
eg	-4830
▁Bud	-4831
▁animal	-4832
▁desire	-4833
▁mountains	-4834
▁effectively	-4835
▁Ed	-4836
umst	-4837
▁lights	-4838
▁novels	-4839
▁horrible	-4840
▁strength	-4841
▁manga	-4842
▁Island	-4843
▁typical	-4844
▁Research	-4845
▁sufficient	-4846
mal	-4847
▁D.	-4848
ooper	-4849
ctures	-4850
ensive	-4851
▁Friend	-4852
▁Lastly	-4853
▁promise	-4854
▁disadvantages	-4855
▁Harry	-4856
▁cartoon	-4857
▁covered	-4858
▁primary	-4859
▁believed	-4860
▁classmate	-4861
oro	-4862
well	-4863
erved	-4864
▁detect	-4865
▁Perhaps	-4866
▁Mexic	-4867
▁airpl	-4868
eah	-4869
▁yes	-4870
▁flav	-4871
▁Love	-4872
▁burn	-4873
▁eager	-4874
▁uncomfortable	-4875
▁Bar	-4876
▁steps	-4877
▁village	-4878
agn	-4879
news	-4880
▁Kan	-4881
▁lyr	-4882
▁chair	-4883
▁grown	-4884
▁falling	-4885
ew	-4886
▁lo	-4887
▁Google	-4888
▁dropped	-4889
▁certainly	-4890
apped	-4891
oga	-4892
ivil	-4893
▁Sup	-4894
▁reported	-4895
▁statement	-4896
anged	-4897
▁Braz	-4898
▁ages	-4899
rial	-4900
erior	-4901
▁emphas	-4902
athon	-4903
▁sale	-4904
▁crimin	-4905
▁highest	-4906
▁Development	-4907
mm	-4908
▁joy	-4909
▁lyrics	-4910
▁numbers	-4911
ION	-4912
vis	-4913
▁fulf	-4914
▁crime	-4915
▁pieces	-4916
▁missing	-4917
▁Everything	-4918
▁Ke	-4919
▁Shin	-4920
▁prepar	-4921
▁stronger	-4922
▁scientific	-4923
abor	-4924
▁nor	-4925
▁buses	-4926
imately	-4927
▁Hokkaido	-4928
▁journals	-4929
▁exhibition	-4930
ague	-4931
angh	-4932
▁spot	-4933
ildren	-4934
▁faces	-4935
▁toward	-4936
▁Without	-4937
▁generally	-4938
▁ast	-4939
▁bye	-4940
known	-4941
▁male	-4942
▁roll	-4943
▁dramas	-4944
▁noodle	-4945
▁rapidly	-4946
▁perfectly	-4947
OL	-4948
▁Bus	-4949
▁nap	-4950
▁News	-4951
▁upload	-4952
▁circumst	-4953
▁Co	-4954
aker	-4955
onald	-4956
▁fans	-4957
▁delay	-4958
ritical	-4959
▁artists	-4960
▁freedom	-4961
ikip	-4962
▁har	-4963
▁tomat	-4964
▁memorize	-4965
ushed	-4966
▁notes	-4967
▁paint	-4968
▁ingred	-4969
▁vehicle	-4970
▁weekends	-4971
▁expenditure	-4972
NS	-4973
ari	-4974
▁mir	-4975
▁rare	-4976
▁Indian	-4977
▁cowork	-4978
▁indeed	-4979
▁scenery	-4980
asy	-4981
▁2nd	-4982
▁fasc	-4983
ikipedia	-4984
▁curious	-4985
▁factory	-4986
IF	-4987
obe	-4988
eric	-4989
▁Rep	-4990
▁rooms	-4991
▁leader	-4992
▁carried	-4993
▁discrimination	-4994
▁Pot	-4995
▁Apple	-4996
▁Green	-4997
▁apart	-4998
▁ideal	-4999
▁chosen	-5000
▁coolant	-5001
▁putting	-5002
aya	-5003
▁spr	-5004
arily	-5005
▁upon	-5006
▁wild	-5007
▁Nature	-5008
▁precious	-5009
▁response	-5010
mit	-5011
▁eth	-5012
▁names	-5013
▁powerful	-5014
AY	-5015
▁eld	-5016
hered	-5017
▁renew	-5018
▁severe	-5019
▁accommodation	-5020
roat	-5021
▁Fuk	-5022
eting	-5023
uting	-5024
▁noon	-5025
▁ship	-5026
▁Sorry	-5027
▁contents	-5028
AK	-5029
▁Americans	-5030
▁Int	-5031
▁beef	-5032
▁noise	-5033
▁tasty	-5034
▁Nagoya	-5035
▁centre	-5036
▁subway	-5037
▁opposite	-5038
▁Pop	-5039
▁Happy	-5040
▁compare	-5041
▁conclud	-5042
▁leading	-5043
▁shortage	-5044
▁announced	-5045
▁consequences	-5046
uage	-5047
ucks	-5048
▁dirty	-5049
▁appoint	-5050
▁interests	-5051
60	-5052
gn	-5053
iors	-5054
▁uns	-5055
▁pizza	-5056
▁wheel	-5057
▁climate	-5058
▁emergency	-5059
▁Olymp	-5060
▁opening	-5061
▁challenges	-5062
aland	-5063
▁myst	-5064
▁rely	-5065
▁scary	-5066
▁banned	-5067
▁papers	-5068
▁Through	-5069
▁presents	-5070
▁throughout	-5071
▁Dr	-5072
▁pull	-5073
▁larger	-5074
▁majority	-5075
▁AM	-5076
▁Ge	-5077
ourage	-5078
▁actions	-5079
▁survive	-5080
IV	-5081
ohama	-5082
▁release	-5083
▁misunder	-5084
▁Education	-5085
▁economics	-5086
▁functions	-5087
▁disappointing	-5088
▁relationships	-5089
▁Hawai	-5090
▁smaller	-5091
▁designing	-5092
ono	-5093
▁iPad	-5094
▁fault	-5095
▁artist	-5096
▁facebook	-5097
▁65	-5098
▁Ma	-5099
uate	-5100
store	-5101
▁cried	-5102
▁enhance	-5103
▁invented	-5104
▁Engineering	-5105
▁translation	-5106
▁Sim	-5107
▁lands	-5108
▁passing	-5109
▁grateful	-5110
▁hospitals	-5111
▁inventions	-5112
hus	-5113
.asp	-5114
ingu	-5115
▁Mus	-5116
▁tut	-5117
ibility	-5118
▁cinema	-5119
▁solved	-5120
▁tongue	-5121
▁Whenever	-5122
pper	-5123
▁Shop	-5124
▁System	-5125
▁repair	-5126
▁crucial	-5127
▁particularly	-5128
▁31	-5129
cing	-5130
dium	-5131
▁shout	-5132
▁digital	-5133
▁contract	-5134
▁experiment	-5135
OS	-5136
UT	-5137
▁Da	-5138
oshi	-5139
▁rom	-5140
aying	-5141
▁Each	-5142
▁unex	-5143
▁Malay	-5144
▁Beijing	-5145
▁plastic	-5146
▁beneficial	-5147
uton	-5148
▁Air	-5149
▁Rain	-5150
▁wood	-5151
▁Right	-5152
▁tells	-5153
▁tooth	-5154
▁frustr	-5155
▁losing	-5156
▁thinks	-5157
▁decades	-5158
▁encouraged	-5159
▁ge	-5160
▁escape	-5161
▁offered	-5162
▁seminar	-5163
▁correctly	-5164
anghai	-5165
▁sweat	-5166
▁weapons	-5167
▁classroom	-5168
▁forgotten	-5169
▁independent	-5170
hop	-5171
▁util	-5172
▁serve	-5173
▁tents	-5174
▁plenty	-5175
▁leisure	-5176
▁historical	-5177
▁organization	-5178
OW	-5179
▁decl	-5180
▁added	-5181
▁cousin	-5182
▁Someone	-5183
▁kim	-5184
▁soy	-5185
ouver	-5186
▁clin	-5187
▁cabin	-5188
▁Twitter	-5189
▁selling	-5190
▁twitter	-5191
▁diverted	-5192
▁conditioner	-5193
▁Cup	-5194
irect	-5195
rical	-5196
▁alive	-5197
▁widely	-5198
inations	-5199
gu	-5200
▁3rd	-5201
▁pun	-5202
▁King	-5203
▁contest	-5204
▁Ton	-5205
▁pow	-5206
▁sou	-5207
▁spare	-5208
▁option	-5209
▁priority	-5210
▁umbrella	-5211
▁tim	-5212
anted	-5213
▁tall	-5214
▁block	-5215
▁fascin	-5216
▁organiz	-5217
▁parking	-5218
▁learners	-5219
▁psychological	-5220
bed	-5221
yles	-5222
▁lines	-5223
▁analys	-5224
▁download	-5225
▁pleasant	-5226
ko	-5227
▁Ts	-5228
anch	-5229
olley	-5230
▁sang	-5231
▁brush	-5232
▁discussion	-5233
back	-5234
▁neglect	-5235
▁reflect	-5236
▁relieved	-5237
▁constantly	-5238
-p	-5239
▁500	-5240
▁lift	-5241
▁shut	-5242
▁north	-5243
▁describ	-5244
▁designs	-5245
▁surprising	-5246
rab	-5247
▁AND	-5248
▁drove	-5249
▁indic	-5250
▁Econom	-5251
▁arrange	-5252
▁grandpa	-5253
▁Australian	-5254
▁fro	-5255
▁eggs	-5256
▁pace	-5257
▁sore	-5258
▁Brazil	-5259
▁forced	-5260
▁proced	-5261
▁savings	-5262
▁document	-5263
70	-5264
cean	-5265
▁Cor	-5266
▁Yet	-5267
▁upd	-5268
▁resist	-5269
ulations	-5270
▁dentist	-5271
▁correcting	-5272
▁conventional	-5273
rel	-5274
▁Li	-5275
oned	-5276
▁Net	-5277
▁SFR	-5278
▁sear	-5279
▁champ	-5280
▁thesis	-5281
ancouver	-5282
▁herself	-5283
▁Yokohama	-5284
▁sch	-5285
eside	-5286
▁scheme	-5287
▁educational	-5288
bits	-5289
▁mer	-5290
ournal	-5291
▁bloom	-5292
▁consult	-5293
ih	-5294
hab	-5295
▁Ze	-5296
▁Lear	-5297
▁Should	-5298
▁discussed	-5299
ords	-5300
anium	-5301
▁Take	-5302
▁compar	-5303
▁Everybody	-5304
▁iPod	-5305
▁besides	-5306
HI	-5307
LE	-5308
▁300	-5309
▁ramen	-5310
▁corner	-5311
▁answers	-5312
▁credit	-5313
uan	-5314
▁70	-5315
▁legs	-5316
▁thin	-5317
▁washing	-5318
▁entertainment	-5319
husi	-5320
▁cant	-5321
▁throat	-5322
▁unknown	-5323
sequently	-5324
▁U.S.	-5325
▁okay	-5326
▁phen	-5327
▁writer	-5328
▁construct	-5329
▁correction	-5330
▁Singaporeans	-5331
riv	-5332
▁unb	-5333
▁youth	-5334
host	-5335
▁birds	-5336
▁enthusi	-5337
▁leads	-5338
▁roads	-5339
arin	-5340
▁Age	-5341
inking	-5342
▁cooper	-5343
▁shrine	-5344
▁included	-5345
cont	-5346
▁Rog	-5347
unity	-5348
▁path	-5349
▁contains	-5350
▁finishing	-5351
rs	-5352
▁Fu	-5353
▁Vancouver	-5354
▁occup	-5355
▁learnt	-5356
▁bathroom	-5357
▁Id	-5358
omic	-5359
▁unh	-5360
▁shall	-5361
▁snowboard	-5362
▁investment	-5363
▁joke	-5364
angers	-5365
▁shoot	-5366
▁levels	-5367
▁rarely	-5368
rit	-5369
▁M.	-5370
▁Fam	-5371
▁feet	-5372
▁jump	-5373
▁fluent	-5374
akers	-5375
▁Best	-5376
▁Coll	-5377
▁admit	-5378
iveness	-5379
▁mechan	-5380
▁jogging	-5381
▁painful	-5382
▁existing	-5383
▁documents	-5384
irts	-5385
yond	-5386
zing	-5387
▁consist	-5388
▁recognize	-5389
▁und	-5390
▁cakes	-5391
▁multi	-5392
▁speaks	-5393
▁Fukushima	-5394
▁Philippines	-5395
▁Fl	-5396
aint	-5397
ript	-5398
▁led	-5399
▁Canad	-5400
▁counter	-5401
▁creative	-5402
▁phenomen	-5403
▁increases	-5404
/s	-5405
▁jum	-5406
▁sym	-5407
▁bull	-5408
▁downt	-5409
▁resol	-5410
▁teams	-5411
▁tense	-5412
▁volley	-5413
▁consumption	-5414
AC	-5415
▁Qu	-5416
▁cas	-5417
▁summ	-5418
employ	-5419
isions	-5420
▁magic	-5421
▁double	-5422
isc	-5423
▁Mrs	-5424
▁Tur	-5425
father	-5426
▁Having	-5427
▁insist	-5428
▁values	-5429
▁normally	-5430
▁destination	-5431
rief	-5432
minist	-5433
▁Aging	-5434
▁Helen	-5435
▁fortun	-5436
▁tsunami	-5437
▁#	-5438
▁neck	-5439
▁awful	-5440
▁incon	-5441
▁anxious	-5442
▁Dep	-5443
▁adj	-5444
▁politic	-5445
▁See	-5446
▁sup	-5447
▁kinderg	-5448
▁cellphone	-5449
▁connected	-5450
elf	-5451
reed	-5452
▁tor	-5453
▁unus	-5454
▁korea	-5455
▁reducing	-5456
PS	-5457
upp	-5458
gent	-5459
▁Long	-5460
▁cycle	-5461
▁mixed	-5462
▁ancient	-5463
▁fulfill	-5464
▁replied	-5465
▁competitive	-5466
-2	-5467
▁Gl	-5468
▁MSR	-5469
▁bother	-5470
▁Probably	-5471
▁exercises	-5472
▁unexpected	-5473
ushi	-5474
▁Miy	-5475
▁cos	-5476
orter	-5477
▁demands	-5478
▁followed	-5479
▁forecast	-5480
-t	-5481
eral	-5482
▁Ang	-5483
▁Tor	-5484
▁qual	-5485
▁upgr	-5486
▁fewer	-5487
▁horse	-5488
▁tools	-5489
▁Africa	-5490
▁Golden	-5491
▁Potter	-5492
▁cloudy	-5493
standing	-5494
▁employee	-5495
▁websites	-5496
▁vir	-5497
▁cleaned	-5498
▁victims	-5499
▁abilities	-5500
▁appearance	-5501
erk	-5502
▁alarm	-5503
▁searched	-5504
ext	-5505
antic	-5506
▁laug	-5507
▁wealth	-5508
▁Indones	-5509
▁clothing	-5510
▁creating	-5511
▁director	-5512
▁location	-5513
▁productivity	-5514
AD	-5515
▁Lee	-5516
▁civil	-5517
▁official	-5518
ae	-5519
▁ring	-5520
▁investig	-5521
fl	-5522
▁YOU	-5523
rendip	-5524
▁alloc	-5525
▁wishes	-5526
▁Zealand	-5527
▁laughing	-5528
▁writting	-5529
▁90	-5530
▁taxi	-5531
▁checking	-5532
▁reaction	-5533
▁translated	-5534
▁grew	-5535
▁religion	-5536
▁laboratory	-5537
hel	-5538
▁hi	-5539
▁coup	-5540
▁cance	-5541
▁contrary	-5542
▁hesitate	-5543
▁emotional	-5544
ien	-5545
▁Nor	-5546
▁Week	-5547
▁tears	-5548
▁advent	-5549
▁closer	-5550
▁states	-5551
▁theory	-5552
igent	-5553
▁Times	-5554
▁hurry	-5555
▁fighting	-5556
▁significantly	-5557
iki	-5558
▁Bo	-5559
verse	-5560
▁Cont	-5561
▁stood	-5562
▁trend	-5563
▁interp	-5564
▁blossom	-5565
▁dislike	-5566
▁Shanghai	-5567
▁maintenance	-5568
▁oh	-5569
▁Unt	-5570
▁amb	-5571
imate	-5572
▁duty	-5573
▁shot	-5574
▁fixed	-5575
▁princi	-5576
▁annoying	-5577
dy	-5578
ona	-5579
▁awa	-5580
▁idi	-5581
▁lake	-5582
▁Paris	-5583
▁battery	-5584
▁Taiwanese	-5585
▁dormitory	-5586
▁developments	-5587
▁Ha	-5588
▁raw	-5589
hemat	-5590
▁Wind	-5591
▁Thirdly	-5592
▁smoothly	-5593
▁Inc	-5594
▁mad	-5595
▁suffe	-5596
▁comics	-5597
▁critic	-5598
▁expand	-5599
▁holding	-5600
▁treated	-5601
rol	-5602
▁Ste	-5603
▁cig	-5604
akura	-5605
▁Trans	-5606
▁choices	-5607
▁argument	-5608
▁roommate	-5609
▁Reference	-5610
▁performed	-5611
▁Mt	-5612
full	-5613
▁obst	-5614
▁gases	-5615
article	-5616
▁published	-5617
wa	-5618
▁mum	-5619
▁outd	-5620
▁error	-5621
olten	-5622
▁boat	-5623
▁Being	-5624
▁marry	-5625
▁gained	-5626
▁invite	-5627
▁harmful	-5628
▁movement	-5629
▁employers	-5630
▁literature	-5631
▁stuck	-5632
▁tempor	-5633
▁Cr	-5634
▁inte	-5635
▁Human	-5636
▁Design	-5637
▁marketing	-5638
▁controvers	-5639
▁Aut	-5640
▁cash	-5641
▁rubb	-5642
▁Valent	-5643
▁refres	-5644
▁courage	-5645
▁matters	-5646
▁tracking	-5647
oring	-5648
▁copy	-5649
▁calls	-5650
▁thirty	-5651
▁setting	-5652
▁concepts	-5653
▁regularly	-5654
pei	-5655
▁nar	-5656
arett	-5657
▁soph	-5658
▁americ	-5659
▁//www.n	-5660
▁perhaps	-5661
▁impressive	-5662
hy	-5663
osal	-5664
▁Nice	-5665
▁diff	-5666
▁Hawaii	-5667
▁showing	-5668
▁assistant	-5669
igr	-5670
oline	-5671
▁saved	-5672
▁campus	-5673
▁depart	-5674
▁distrib	-5675
▁composition	-5676
▁applications	-5677
estic	-5678
▁views	-5679
▁incred	-5680
▁Shopping	-5681
▁researchers	-5682
▁Pres	-5683
▁inev	-5684
▁pages	-5685
▁apolog	-5686
ba	-5687
ales	-5688
▁ath	-5689
▁salon	-5690
▁profit	-5691
▁beginner	-5692
▁thousands	-5693
▁drum	-5694
▁repro	-5695
▁comedy	-5696
▁offers	-5697
▁souven	-5698
▁tastes	-5699
▁unhappy	-5700
▁consists	-5701
▁efficiently	-5702
▁begun	-5703
▁china	-5704
▁laughed	-5705
apes	-5706
orge	-5707
odies	-5708
shine	-5709
▁dawn	-5710
▁deli	-5711
▁disag	-5712
▁Museum	-5713
▁Western	-5714
▁regards	-5715
▁attached	-5716
▁protection	-5717
RE	-5718
ley	-5719
▁rode	-5720
▁judge	-5721
▁unless	-5722
▁singers	-5723
▁airplane	-5724
▁marathon	-5725
▁conference	-5726
-4	-5727
sec	-5728
atsu	-5729
▁Fuku	-5730
▁empt	-5731
▁laws	-5732
▁stro	-5733
▁touc	-5734
▁Hiros	-5735
▁Until	-5736
▁stock	-5737
▁strugg	-5738
▁affects	-5739
▁register	-5740
▁refrigerator	-5741
RL	-5742
▁cheese	-5743
▁naturally	-5744
.c	-5745
▁gent	-5746
▁rank	-5747
▁accur	-5748
▁heavily	-5749
▁leaders	-5750
au	-5751
▁fi	-5752
▁nur	-5753
ender	-5754
▁Sant	-5755
▁fare	-5756
▁beyond	-5757
▁latter	-5758
▁electrical	-5759
▁volleyball	-5760
▁jok	-5761
ammer	-5762
▁DVDs	-5763
▁eval	-5764
▁House	-5765
▁keeps	-5766
▁vital	-5767
▁convin	-5768
▁unlike	-5769
▁Children	-5770
enn	-5771
▁Com	-5772
▁mut	-5773
▁Paul	-5774
▁ment	-5775
▁paying	-5776
▁stable	-5777
▁prevented	-5778
OO	-5779
▁Cam	-5780
▁circle	-5781
▁karaoke	-5782
▁serendip	-5783
▁connection	-5784
▁industrial	-5785
▁photograph	-5786
/2	-5787
▁Col	-5788
rehen	-5789
▁arts	-5790
▁surely	-5791
▁delight	-5792
ms	-5793
ban	-5794
ege	-5795
▁4th	-5796
▁SNS	-5797
▁tun	-5798
ulous	-5799
▁mill	-5800
▁push	-5801
▁scale	-5802
▁instit	-5803
▁placed	-5804
▁Tonight	-5805
▁resource	-5806
▁organized	-5807
isy	-5808
▁max	-5809
▁brown	-5810
▁toile	-5811
▁bookstore	-5812
world	-5813
▁keen	-5814
▁respond	-5815
▁purs	-5816
▁washed	-5817
▁traveled	-5818
eds	-5819
olic	-5820
▁pret	-5821
▁served	-5822
ervation	-5823
▁achieved	-5824
▁loo	-5825
power	-5826
▁East	-5827
▁critical	-5828
▁greatest	-5829
▁depression	-5830
BA	-5831
doc	-5832
▁cure	-5833
▁damaged	-5834
▁tourist	-5835
▁peaceful	-5836
▁Information	-5837
hoku	-5838
iece	-5839
▁spl	-5840
arten	-5841
▁firm	-5842
▁pork	-5843
▁newspapers	-5844
sen	-5845
iate	-5846
▁Hey	-5847
▁habits	-5848
▁shaped	-5849
▁Canadian	-5850
▁analysis	-5851
▁successfully	-5852
sc	-5853
▁Lately	-5854
▁acting	-5855
▁intend	-5856
▁Fashion	-5857
▁practise	-5858
▁magazines	-5859
▁OF	-5860
▁p.	-5861
inter	-5862
▁propert	-5863
▁purchase	-5864
ago	-5865
▁gar	-5866
▁furn	-5867
ulated	-5868
▁colour	-5869
▁greenhouse	-5870
19	-5871
inal	-5872
▁prem	-5873
▁stim	-5874
anging	-5875
▁Start	-5876
pective	-5877
▁bottle	-5878
icks	-5879
vest	-5880
enses	-5881
▁suggestion	-5882
▁circumstances	-5883
▁Char	-5884
▁bags	-5885
▁nine	-5886
▁appointment	-5887
▁preparation	-5888
ichi	-5889
▁boo	-5890
▁sake	-5891
▁pregn	-5892
▁tasted	-5893
▁chemical	-5894
80	-5895
▁Arab	-5896
▁empty	-5897
▁formal	-5898
▁gentle	-5899
▁conclude	-5900
▁workplace	-5901
▁explanation	-5902
12	-5903
bl	-5904
hima	-5905
▁adapt	-5906
▁juice	-5907
▁remov	-5908
▁agreed	-5909
▁bottom	-5910
▁doctors	-5911
▁emotion	-5912
▁operate	-5913
▁promote	-5914
▁suffered	-5915
▁Mo	-5916
▁ON	-5917
▁fruits	-5918
▁scenes	-5919
▁windows	-5920
▁souvenir	-5921
▁dy	-5922
adium	-5923
▁cert	-5924
▁tiny	-5925
▁incor	-5926
▁posted	-5927
▁Language	-5928
▁Currently	-5929
▁consumers	-5930
▁supporting	-5931
AI	-5932
gl	-5933
empt	-5934
▁gif	-5935
etics	-5936
▁pity	-5937
▁optim	-5938
▁status	-5939
▁cigarett	-5940
▁suggestions	-5941
▁neighborhood	-5942
iev	-5943
news/	-5944
osure	-5945
▁magn	-5946
▁aband	-5947
▁Speaking	-5948
▁politics	-5949
▁supported	-5950
wide	-5951
iques	-5952
▁advise	-5953
▁explos	-5954
▁survey	-5955
▁Ag	-5956
teen	-5957
▁bon	-5958
▁pal	-5959
acher	-5960
▁Asso	-5961
▁boiled	-5962
▁choosing	-5963
▁direction	-5964
ids	-5965
hold	-5966
aling	-5967
▁mails	-5968
▁unusual	-5969
▁Valentine	-5970
▁determined	-5971
ixt	-5972
tes	-5973
▁II	-5974
▁rained	-5975
▁snowing	-5976
▁visitors	-5977
▁Institute	-5978
▁BBC	-5979
▁jam	-5980
▁mur	-5981
▁liqu	-5982
▁discl	-5983
▁risks	-5984
▁beside	-5985
▁additional	-5986
▁soul	-5987
ortion	-5988
▁drugs	-5989
▁Rogers	-5990
▁occasion	-5991
,000	-5992
▁ash	-5993
▁Taipei	-5994
▁finger	-5995
▁hoping	-5996
▁mathemat	-5997
▁realised	-5998
IM	-5999
lew	-6000
/200	-6001
wing	-6002
▁Han	-6003
erning	-6004
▁episode	-6005
ills	-6006
▁URL	-6007
▁era	-6008
oxide	-6009
▁Learning	-6010
▁disagree	-6011
▁stressed	-6012
▁Department	-6013
▁participated	-6014
UN	-6015
yen	-6016
cons	-6017
arant	-6018
▁Prov	-6019
▁bird	-6020
▁hell	-6021
▁turns	-6022
▁snacks	-6023
▁otherwise	-6024
ott	-6025
ula	-6026
vey	-6027
▁35	-6028
▁PS	-6029
▁Ten	-6030
▁cope	-6031
▁Event	-6032
▁disap	-6033
▁moral	-6034
▁sympt	-6035
▁Po	-6036
▁pra	-6037
▁Circ	-6038
▁aunt	-6039
▁sudden	-6040
▁cutting	-6041
▁resulted	-6042
▁decisions	-6043
ero	-6044
ogr	-6045
▁diss	-6046
▁channel	-6047
▁notebook	-6048
cks	-6049
ica	-6050
izes	-6051
▁Show	-6052
▁army	-6053
▁freely	-6054
▁landsc	-6055
▁reports	-6056
▁routine	-6057
▁slightly	-6058
▁worrying	-6059
equ	-6060
▁List	-6061
▁scar	-6062
▁clinic	-6063
▁planet	-6064
friendly	-6065
▁attending	-6066
▁phenomenon	-6067
▁ingredients	-6068
da	-6069
▁IS	-6070
aven	-6071
▁hamb	-6072
▁onto	-6073
▁prol	-6074
▁height	-6075
▁helium	-6076
▁context	-6077
▁rubbish	-6078
▁sharing	-6079
▁Hiroshima	-6080
▁completed	-6081
▁kindergarten	-6082
▁Red	-6083
▁Web	-6084
▁unp	-6085
▁thick	-6086
▁ending	-6087
▁hambur	-6088
▁sending	-6089
alt	-6090
▁Tak	-6091
▁sugar	-6092
▁anytime	-6093
▁injured	-6094
▁producing	-6095
▁profession	-6096
▁photography	-6097
erous	-6098
▁cram	-6099
▁Looking	-6100
▁dioxide	-6101
▁embarrassed	-6102
▁Ac	-6103
▁Was	-6104
▁wise	-6105
▁motorc	-6106
▁Malaysia	-6107
▁classical	-6108
hou	-6109
ops	-6110
conds	-6111
▁Cons	-6112
▁laund	-6113
▁reven	-6114
▁colors	-6115
▁actress	-6116
▁pattern	-6117
▁profile	-6118
▁gasoline	-6119
▁informed	-6120
▁purposes	-6121
-C	-6122
▁UN	-6123
▁XD	-6124
sect	-6125
▁Syd	-6126
▁pic	-6127
ancer	-6128
point	-6129
▁1999	-6130
▁rail	-6131
coming	-6132
▁ahead	-6133
▁basis	-6134
▁Tohoku	-6135
▁resort	-6136
▁reminds	-6137
▁concerts	-6138
▁influenced	-6139
rid	-6140
ses	-6141
▁Big	-6142
▁susp	-6143
▁yoga	-6144
▁reliable	-6145
▁innovative	-6146
▁recognized	-6147
fa	-6148
uis	-6149
▁MY	-6150
otic	-6151
berry	-6152
health	-6153
▁Psych	-6154
▁grass	-6155
▁maxim	-6156
▁actual	-6157
▁butter	-6158
▁recorded	-6159
:15	-6160
ilos	-6161
▁scr	-6162
oween	-6163
▁Sydney	-6164
▁candid	-6165
▁Writing	-6166
▁Everyday	-6167
▁election	-6168
▁inconven	-6169
▁pronounce	-6170
▁residents	-6171
▁stressful	-6172
▁subsidies	-6173
term	-6174
ports	-6175
▁Test	-6176
minton	-6177
▁schol	-6178
veillance	-6179
▁Addition	-6180
▁educated	-6181
pes	-6182
▁Toy	-6183
▁ends	-6184
▁jack	-6185
▁jazz	-6186
▁ghost	-6187
▁approx	-6188
▁touched	-6189
▁comprehen	-6190
▁destroyed	-6191
-b	-6192
▁Gre	-6193
arest	-6194
going	-6195
iency	-6196
▁kiss	-6197
nee	-6198
▁Mark	-6199
▁fert	-6200
▁babies	-6201
▁infect	-6202
▁cycling	-6203
▁daughters	-6204
oty	-6205
▁Out	-6206
iform	-6207
ittee	-6208
▁Later	-6209
▁minds	-6210
▁Reading	-6211
▁sunshine	-6212
▁grandfather	-6213
onto	-6214
▁IEL	-6215
ounds	-6216
▁Yeah	-6217
▁nations	-6218
▁seconds	-6219
▁uranium	-6220
▁Generally	-6221
▁Consequently	-6222
ergy	-6223
▁Exp	-6224
▁forms	-6225
▁ocean	-6226
▁prove	-6227
▁tutor	-6228
▁adjust	-6229
▁begins	-6230
▁breath	-6231
▁fourth	-6232
▁stated	-6233
▁wallet	-6234
▁causing	-6235
▁fishing	-6236
▁stations	-6237
▁ID	-6238
▁Mat	-6239
itous	-6240
▁pure	-6241
▁grammer	-6242
▁turning	-6243
▁installed	-6244
osc	-6245
iary	-6246
▁lies	-6247
▁seld	-6248
orders	-6249
▁Indeed	-6250
▁robots	-6251
▁largest	-6252
▁studing	-6253
▁pod	-6254
▁Budd	-6255
▁pock	-6256
▁poss	-6257
▁Mexico	-6258
▁pension	-6259
▁sectors	-6260
▁solving	-6261
▁Minister	-6262
▁designer	-6263
▁dependency	-6264
cue	-6265
roc	-6266
info	-6267
▁east	-6268
▁tags	-6269
▁rates	-6270
▁Center	-6271
▁integr	-6272
▁secure	-6273
▁emotions	-6274
▁Je	-6275
▁La	-6276
iers	-6277
▁Hot	-6278
▁san	-6279
▁Fuji	-6280
▁court	-6281
▁pasta	-6282
▁guests	-6283
▁sunday	-6284
▁Students	-6285
▁capac	-6286
▁clerk	-6287
▁couples	-6288
▁measure	-6289
▁frustrated	-6290
▁countryside	-6291
wr	-6292
erry	-6293
▁Mean	-6294
▁melt	-6295
▁Nobody	-6296
▁flying	-6297
▁seldom	-6298
▁strateg	-6299
▁uniform	-6300
▁economical	-6301
33	-6302
▁CN	-6303
onst	-6304
actors	-6305
▁genes	-6306
▁inher	-6307
▁talks	-6308
▁agency	-6309
▁recall	-6310
▁Friends	-6311
▁chatted	-6312
▁massage	-6313
▁tourism	-6314
▁attracted	-6315
▁conducted	-6316
onom	-6317
resp	-6318
▁Tan	-6319
▁gun	-6320
▁unl	-6321
▁wis	-6322
▁iron	-6323
▁virt	-6324
▁tourn	-6325
▁truly	-6326
▁Social	-6327
▁attempt	-6328
▁capable	-6329
▁reminded	-6330
-h	-6331
sp	-6332
nic	-6333
▁fest	-6334
reness	-6335
▁IELTS	-6336
▁brill	-6337
▁metal	-6338
▁Mother	-6339
▁muscle	-6340
▁shared	-6341
▁downtown	-6342
▁identify	-6343
nel	-6344
▁AL	-6345
anda	-6346
mend	-6347
▁gap	-6348
▁garb	-6349
▁Among	-6350
▁badly	-6351
issions	-6352
▁absent	-6353
▁minister	-6354
▁continues	-6355
▁HD	-6356
istory	-6357
overty	-6358
▁cloth	-6359
▁opponents	-6360
CE	-6361
izu	-6362
▁Kind	-6363
▁bare	-6364
▁nort	-6365
utonium	-6366
▁applying	-6367
▁obviously	-6368
▁instruments	-6369
▁architecture	-6370
IK	-6371
page	-6372
▁zoo	-6373
icide	-6374
sters	-6375
▁Fore	-6376
▁arms	-6377
▁skating	-6378
▁useless	-6379
▁establish	-6380
▁teenagers	-6381
▁advancement	-6382
▁Yam	-6383
▁rat	-6384
▁perm	-6385
▁salad	-6386
▁shame	-6387
▁corpor	-6388
▁proposed	-6389
▁restrict	-6390
▁assignment	-6391
&_	-6392
cy	-6393
zen	-6394
▁Bas	-6395
▁hat	-6396
▁14th	-6397
▁flex	-6398
▁Great	-6399
▁cabins	-6400
▁Journal	-6401
▁district	-6402
juku	-6403
▁lux	-6404
erves	-6405
▁Main	-6406
▁load	-6407
▁refer	-6408
▁College	-6409
▁overall	-6410
▁borrowed	-6411
▁selected	-6412
▁internship	-6413
▁19.	-6414
▁stone	-6415
ionship	-6416
..	-6417
xy	-6418
inc	-6419
rif	-6420
gypt	-6421
▁Dem	-6422
▁sac	-6423
▁Amaz	-6424
▁Fast	-6425
▁Fund	-6426
▁cough	-6427
▁haven	-6428
andarin	-6429
▁Circle	-6430
▁colder	-6431
▁resume	-6432
▁stadium	-6433
▁expecting	-6434
ks	-6435
ores	-6436
uter	-6437
▁sam	-6438
▁charm	-6439
▁obstac	-6440
▁toilet	-6441
▁seasons	-6442
▁surface	-6443
▁entering	-6444
het	-6445
▁PM	-6446
▁Rad	-6447
▁hoped	-6448
▁tight	-6449
▁excuse	-6450
▁sheets	-6451
▁neither	-6452
▁romantic	-6453
&D	-6454
▁ult	-6455
▁Egypt	-6456
▁seats	-6457
▁bodies	-6458
▁castle	-6459
▁central	-6460
▁whereas	-6461
▁produces	-6462
▁sensitive	-6463
▁creativity	-6464
:30	-6465
pert	-6466
▁Bel	-6467
ashed	-6468
▁Home	-6469
▁Luck	-6470
▁fees	-6471
▁brief	-6472
▁elders	-6473
▁annoyed	-6474
▁thermal	-6475
▁percentage	-6476
LY	-6477
lin	-6478
▁Get	-6479
▁gat	-6480
▁tom	-6481
▁Send	-6482
▁estim	-6483
▁noisy	-6484
▁scream	-6485
▁numerous	-6486
▁receiving	-6487
arian	-6488
▁code	-6489
▁20:15	-6490
▁apple	-6491
▁diagn	-6492
▁straw	-6493
▁flavor	-6494
▁insect	-6495
▁Theatre	-6496
▁Temperature	-6497
-w	-6498
ategy	-6499
▁dear	-6500
▁lean	-6501
▁prec	-6502
▁west	-6503
▁Frank	-6504
▁annual	-6505
▁predict	-6506
▁depending	-6507
▁associated	-6508
que	-6509
▁flo	-6510
▁coach	-6511
▁encoun	-6512
▁images	-6513
▁camping	-6514
▁daytime	-6515
▁laundry	-6516
▁strategy	-6517
▁basically	-6518
11	-6519
▁\	-6520
lor	-6521
olly	-6522
uled	-6523
▁R&D	-6524
▁exec	-6525
▁categ	-6526
▁rough	-6527
▁tiring	-6528
▁session	-6529
▁brothers	-6530
▁advertising	-6531
fu	-6532
agi	-6533
uls	-6534
utr	-6535
▁Ty	-6536
▁map	-6537
▁bomb	-6538
▁Black	-6539
▁Intro	-6540
▁flood	-6541
▁button	-6542
▁shoulder	-6543
▁contributed	-6544
▁Bang	-6545
▁kick	-6546
▁runs	-6547
engers	-6548
▁blind	-6549
▁simpl	-6550
▁trade	-6551
▁elimin	-6552
▁narrow	-6553
▁delivery	-6554
▁awareness	-6555
▁improvements	-6556
▁gri	-6557
.edu/	-6558
ciety	-6559
▁gate	-6560
▁visa	-6561
▁instrument	-6562
asu	-6563
▁Mom	-6564
▁avo	-6565
ycles	-6566
▁forth	-6567
▁humor	-6568
▁marks	-6569
▁meters	-6570
▁poverty	-6571
▁unemploy	-6572
▁Population	-6573
▁encouraging	-6574
▁S.	-6575
▁coat	-6576
▁leak	-6577
▁symb	-6578
outube	-6579
peared	-6580
▁aside	-6581
▁boost	-6582
▁cited	-6583
▁remark	-6584
▁separate	-6585
45	-6586
uzz	-6587
▁Kam	-6588
▁hug	-6589
▁calc	-6590
▁rush	-6591
▁writ	-6592
phones	-6593
▁Toronto	-6594
▁demonst	-6595
▁kilomet	-6596
▁administ	-6597
▁Indonesia	-6598
▁El	-6599
king	-6600
▁row	-6601
▁falls	-6602
▁yours	-6603
▁microw	-6604
▁replaced	-6605
▁programming	-6606
▁approximately	-6607
-T	-6608
VE	-6609
ENT	-6610
▁Uk	-6611
▁od	-6612
reet	-6613
idden	-6614
▁Port	-6615
▁Stat	-6616
▁sodium	-6617
▁Koreans	-6618
▁garbage	-6619
▁rainbow	-6620
▁Meanwhile	-6621
▁determine	-6622
▁furniture	-6623
▁appreciated	-6624
▁grandparents	-6625
▁requirements	-6626
quar	-6627
▁Under	-6628
▁quant	-6629
▁stead	-6630
▁golden	-6631
▁polite	-6632
▁guarant	-6633
▁instant	-6634
▁addicted	-6635
▁weakness	-6636
▁badminton	-6637
asm	-6638
▁McD	-6639
▁Safety	-6640
▁athlet	-6641
▁warmer	-6642
ufficient	-6643
▁concerning	-6644
▁earthquakes	-6645
14	-6646
urt	-6647
aded	-6648
raft	-6649
▁Gir	-6650
▁dum	-6651
rated	-6652
▁hung	-6653
▁spicy	-6654
-friendly	-6655
▁Additionally	-6656
bur	-6657
top	-6658
▁ec	-6659
wood	-6660
▁peop	-6661
▁unne	-6662
▁calling	-6663
▁evidence	-6664
▁handsome	-6665
▁relevant	-6666
▁illnesses	-6667
▁techniques	-6668
DP	-6669
ris	-6670
▁hon	-6671
▁tack	-6672
▁Watch	-6673
▁signed	-6674
▁dealing	-6675
▁reference	-6676
▁assistance	-6677
▁obligation	-6678
▁productive	-6679
▁Opp	-6680
▁pig	-6681
uries	-6682
▁cater	-6683
▁uncle	-6684
▁hamper	-6685
▁manner	-6686
▁satisfy	-6687
▁gathered	-6688
▁chemistry	-6689
▁revealing	-6690
▁vegetable	-6691
▁physically	-6692
PM	-6693
alog	-6694
▁Sea	-6695
▁WAS	-6696
▁voc	-6697
▁Santa	-6698
▁blank	-6699
▁follows	-6700
▁teaches	-6701
▁perspective	-6702
-d	-6703
▁AS	-6704
▁ST	-6705
▁5th	-6706
▁Cel	-6707
▁Rock	-6708
▁none	-6709
▁Still	-6710
▁Techn	-6711
▁gifts	-6712
▁skunk	-6713
▁debate	-6714
▁studio	-6715
▁Program	-6716
▁possibly	-6717
▁Halloween	-6718
▁disappear	-6719
VER	-6720
▁toy	-6721
▁spect	-6722
▁threw	-6723
▁citizen	-6724
▁remains	-6725
▁imagined	-6726
▁celebrated	-6727
13	-6728
uya	-6729
▁E.	-6730
▁ES	-6731
Tube	-6732
▁hide	-6733
▁lock	-6734
ternal	-6735
▁stands	-6736
▁smiling	-6737
▁technique	-6738
▁industries	-6739
▁fed	-6740
essed	-6741
▁Mile	-6742
▁defe	-6743
▁sons	-6744
▁Press	-6745
▁virus	-6746
▁grades	-6747
▁univer	-6748
▁sisters	-6749
▁capacity	-6750
▁emission	-6751
▁intended	-6752
▁presented	-6753
▁established	-6754
.w	-6755
bre	-6756
▁AT	-6757
▁SH	-6758
▁dil	-6759
agawa	-6760
▁Water	-6761
▁chain	-6762
▁lover	-6763
▁loudly	-6764
▁communicating	-6765
▁ho	-6766
▁Kobe	-6767
▁distur	-6768
▁philos	-6769
▁remove	-6770
▁shirts	-6771
▁burning	-6772
▁reduces	-6773
▁disappeared	-6774
▁BBQ	-6775
▁Fil	-6776
ATION	-6777
▁king	-6778
▁reject	-6779
▁disasters	-6780
▁operators	-6781
▁recycling	-6782
zed	-6783
.net	-6784
name	-6785
what	-6786
▁capt	-6787
▁mask	-6788
▁equal	-6789
▁waves	-6790
▁Regard	-6791
▁commit	-6792
▁Medical	-6793
▁YouTube	-6794
▁reception	-6795
▁worldwide	-6796
▁Association	-6797
ails	-6798
▁Dav	-6799
adget	-6800
▁bowl	-6801
▁disab	-6802
▁enable	-6803
▁american	-6804
▁recovered	-6805
▁tournament	-6806
▁examinations	-6807
/S	-6808
aign	-6809
▁que	-6810
riers	-6811
▁Back	-6812
▁cock	-6813
▁oral	-6814
▁shar	-6815
▁Khand	-6816
▁awake	-6817
▁parks	-6818
▁Honest	-6819
▁Sendai	-6820
▁battle	-6821
▁pointed	-6822
▁pregnant	-6823
▁unnecess	-6824
yo	-6825
▁NE	-6826
bing	-6827
▁vul	-6828
▁blow	-6829
▁ears	-6830
▁enro	-6831
▁absor	-6832
▁shift	-6833
▁iphone	-6834
▁restart	-6835
▁announce	-6836
▁carrying	-6837
▁Eventually	-6838
▁automatically	-6839
ga	-6840
▁SO	-6841
▁Met	-6842
▁Rom	-6843
onent	-6844
▁Party	-6845
▁silly	-6846
▁trips	-6847
▁incent	-6848
▁skiing	-6849
▁physics	-6850
▁relation	-6851
▁programmes	-6852
▁Bu	-6853
ford	-6854
▁Imp	-6855
▁accum	-6856
▁well-	-6857
isation	-6858
▁excess	-6859
▁output	-6860
▁//www.m	-6861
▁multiple	-6862
▁brilliant	-6863
▁statistics	-6864
▁@	-6865
iku	-6866
ius	-6867
▁G.	-6868
▁rab	-6869
eping	-6870
iking	-6871
▁1986	-6872
▁beans	-6873
▁rural	-6874
▁trial	-6875
▁Autumn	-6876
▁tomato	-6877
▁appears	-6878
▁nursing	-6879
▁refresh	-6880
▁Compared	-6881
▁Peterson	-6882
▁domestic	-6883
▁organizations	-6884
▁DO	-6885
inct	-6886
▁dess	-6887
▁oven	-6888
▁rude	-6889
usting	-6890
▁volume	-6891
▁dependent	-6892
▁motorcycle	-6893
▁originally	-6894
▁surrounded	-6895
▁implementation	-6896
RI	-6897
uit	-6898
▁ru	-6899
▁poem	-6900
▁tips	-6901
▁verb	-6902
▁belief	-6903
▁safely	-6904
▁muscles	-6905
▁Khandani	-6906
▁emissions	-6907
▁decreasing	-6908
kes	-6909
▁RE	-6910
erial	-6911
▁miso	-6912
▁chips	-6913
▁sandw	-6914
▁tries	-6915
▁symbol	-6916
▁musician	-6917
65	-6918
AG	-6919
ii	-6920
uke	-6921
▁Ori	-6922
▁2012	-6923
▁feas	-6924
▁supr	-6925
▁irrit	-6926
▁fright	-6927
iversary	-6928
▁mothers	-6929
▁cheerful	-6930
▁plutonium	-6931
▁experiments	-6932
oted	-6933
▁Sam	-6934
▁Sec	-6935
▁pup	-6936
▁tal	-6937
itate	-6938
lderly	-6939
▁mature	-6940
▁nearest	-6941
▁options	-6942
▁raising	-6943
▁struggling	-6944
pan	-6945
edic	-6946
kind	-6947
▁enem	-6948
ulture	-6949
▁Inter	-6950
▁cells	-6951
▁mouse	-6952
▁Person	-6953
▁desper	-6954
▁retire	-6955
▁Rainbow	-6956
▁ashamed	-6957
▁kindness	-6958
▁described	-6959
▁incredible	-6960
▁contribution	-6961
food	-6962
▁vacc	-6963
▁slang	-6964
▁meanings	-6965
▁fortunately	-6966
ota	-6967
pped	-6968
▁Kans	-6969
▁yout	-6970
▁regre	-6971
▁unbel	-6972
ito	-6973
reg	-6974
▁Mur	-6975
▁hind	-6976
▁click	-6977
▁filial	-6978
▁tested	-6979
▁limiting	-6980
▁passport	-6981
▁existence	-6982
▁reprocess	-6983
▁tv	-6984
▁toys	-6985
▁bridge	-6986
▁kimono	-6987
▁kindly	-6988
▁Windows	-6989
▁happily	-6990
▁overtime	-6991
▁explosion	-6992
▁affordable	-6993
▁passengers	-6994
▁snowboarding	-6995
▁temperatures	-6996
▁serendipitous	-6997
bu	-6998
kg	-6999
ta	-7000
▁Ir	-7001
▁Up	-7002
asaki	-7003
▁Sapp	-7004
uments	-7005
▁bills	-7006
▁prime	-7007
▁rains	-7008
▁casual	-7009
▁hairst	-7010
▁switch	-7011
▁Teacher	-7012
▁officer	-7013
▁treatments	-7014
▁imagination	-7015
▁identification	-7016
olen	-7017
▁197	-7018
oscow	-7019
▁leng	-7020
▁pink	-7021
▁plat	-7022
▁Forum	-7023
▁Using	-7024
▁tower	-7025
▁explore	-7026
▁focused	-7027
kok	-7028
son	-7029
▁Mid	-7030
ivals	-7031
▁Jack	-7032
ipping	-7033
▁State	-7034
▁enorm	-7035
ievable	-7036
▁Leisure	-7037
▁campaign	-7038
▁comparison	-7039
alty	-7040
▁Hak	-7041
▁Swed	-7042
▁prob	-7043
▁soooo	-7044
▁urban	-7045
▁orange	-7046
▁Youtube	-7047
▁conflic	-7048
▁suicide	-7049
▁Vietnamese	-7050
php	-7051
▁Ah	-7052
▁Ms	-7053
look	-7054
▁FOR	-7055
▁Job	-7056
▁cuis	-7057
▁drew	-7058
▁sides	-7059
ologist	-7060
▁drivers	-7061
▁package	-7062
▁schemes	-7063
▁farewell	-7064
▁encounter	-7065
▁institute	-7066
▁obligated	-7067
▁unnecessary	-7068
▁characteristics	-7069
aga	-7070
▁Soon	-7071
▁drag	-7072
▁killing	-7073
▁shorter	-7074
▁Honestly	-7075
▁arranged	-7076
▁objective	-7077
▁surrounding	-7078
Gen	-7079
iba	-7080
.php	-7081
uchi	-7082
▁Mor	-7083
▁Drag	-7084
▁Prof	-7085
▁Apart	-7086
▁Obama	-7087
▁belie	-7088
-nuclear	-7089
▁confirm	-7090
▁Christian	-7091
▁regardless	-7092
▁manufacture	-7093
alf	-7094
itan	-7095
requ	-7096
itten	-7097
▁1998	-7098
▁hire	-7099
▁Starb	-7100
▁dialy	-7101
▁worries	-7102
▁scholars	-7103
▁textbooks	-7104
▁terrorists	-7105
outs	-7106
▁Nar	-7107
.aspx	-7108
▁bell	-7109
▁cosm	-7110
▁wave	-7111
▁nurse	-7112
▁costly	-7113
▁Sapporo	-7114
▁Society	-7115
▁divided	-7116
▁hanging	-7117
▁accomplish	-7118
▁strategies	-7119
.uk	-7120
abe	-7121
grad	-7122
backs	-7123
kward	-7124
▁pets	-7125
▁Moscow	-7126
▁monthly	-7127
▁youtube	-7128
▁Otherwise	-7129
▁coworkers	-7130
▁designers	-7131
▁motivated	-7132
▁promising	-7133
▁separated	-7134
itz	-7135
rupt	-7136
▁fab	-7137
▁prev	-7138
▁brave	-7139
▁sheet	-7140
▁wasted	-7141
▁deliver	-7142
▁happier	-7143
iferation	-7144
▁criminal	-7145
▁hundreds	-7146
endo	-7147
▁Sub	-7148
utive	-7149
▁mini	-7150
▁pants	-7151
▁Family	-7152
▁fallen	-7153
▁ignore	-7154
▁impacts	-7155
▁passive	-7156
▁retired	-7157
▁tremend	-7158
▁Mandarin	-7159
▁involves	-7160
▁repeated	-7161
▁inevitable	-7162
▁challenging	-7163
▁mathematics	-7164
index	-7165
weigh	-7166
▁dict	-7167
▁nick	-7168
▁roof	-7169
inated	-7170
▁Prime	-7171
▁bride	-7172
▁crowd	-7173
▁taxes	-7174
▁pocket	-7175
▁potato	-7176
▁untill	-7177
▁microwave	-7178
▁sophistic	-7179
▁Psychology	-7180
▁expectancy	-7181
-m	-7182
IL	-7183
ikes	-7184
▁crack	-7185
content	-7186
▁Report	-7187
▁gadget	-7188
▁models	-7189
▁Britain	-7190
▁customs	-7191
▁temporary	-7192
▁politicians	-7193
UM	-7194
opp	-7195
▁BE	-7196
umes	-7197
▁fol	-7198
▁lon	-7199
▁Labor	-7200
▁lying	-7201
▁Poland	-7202
▁argued	-7203
▁dollar	-7204
▁horror	-7205
▁cameras	-7206
▁deserve	-7207
▁financially	-7208
OP	-7209
hew	-7210
▁OR	-7211
▁Sk	-7212
oles	-7213
▁Off	-7214
▁Sil	-7215
▁bul	-7216
▁caf	-7217
ented	-7218
▁elev	-7219
atural	-7220
▁Radio	-7221
▁blame	-7222
▁jokes	-7223
▁overs	-7224
▁reput	-7225
▁stolen	-7226
▁Fukuoka	-7227
▁Luckily	-7228
▁youngest	-7229
▁mysterious	-7230
uggle	-7231
▁thier	-7232
▁reward	-7233
▁stages	-7234
▁vision	-7235
▁wastes	-7236
▁exposed	-7237
cri	-7238
▁WH	-7239
▁Dec	-7240
ingly	-7241
▁fond	-7242
▁19:30	-7243
▁agent	-7244
▁steam	-7245
▁branch	-7246
▁homest	-7247
▁Anyways	-7248
▁acquire	-7249
▁passage	-7250
▁terrorist	-7251
▁journalists	-7252
▁L.	-7253
icip	-7254
▁GPS	-7255
▁Jun	-7256
▁wit	-7257
▁grab	-7258
alking	-7259
mitted	-7260
▁prior	-7261
▁Agency	-7262
▁Amazon	-7263
▁admire	-7264
▁assess	-7265
▁client	-7266
▁nights	-7267
▁rental	-7268
▁winner	-7269
articles	-7270
▁colorful	-7271
▁patience	-7272
▁adventure	-7273
▁conscious	-7274
▁Sen	-7275
▁Wil	-7276
▁file	-7277
▁sout	-7278
ivered	-7279
▁adequ	-7280
▁appet	-7281
▁parag	-7282
▁pharm	-7283
▁treas	-7284
ustomed	-7285
▁Winter	-7286
▁christ	-7287
▁expert	-7288
▁becouse	-7289
▁classic	-7290
▁Surveillance	-7291
90	-7292
ocr	-7293
▁OS	-7294
rivacy	-7295
▁refreshed	-7296
▁renewable	-7297
IG	-7298
cil	-7299
odes	-7300
eries	-7301
▁Book	-7302
▁stor	-7303
▁thor	-7304
▁bands	-7305
▁illeg	-7306
▁league	-7307
▁freshman	-7308
▁household	-7309
▁proportion	-7310
▁revolution	-7311
▁ME	-7312
▁Exam	-7313
▁long-	-7314
▁spots	-7315
▁arrest	-7316
▁Olympic	-7317
▁aggress	-7318
▁massive	-7319
▁peoples	-7320
▁distingu	-7321
▁meetings	-7322
▁millions	-7323
▁popularity	-7324
▁researches	-7325
▁km	-7326
berg	-7327
bour	-7328
mare	-7329
▁boom	-7330
▁envy	-7331
▁bound	-7332
▁dying	-7333
▁Future	-7334
▁cooler	-7335
▁recipe	-7336
▁repeat	-7337
▁finance	-7338
▁Hopefully	-7339
▁festivals	-7340
▁pp	-7341
▁LFR	-7342
▁Lat	-7343
▁Mel	-7344
▁rhy	-7345
▁//en	-7346
ushing	-7347
▁congr	-7348
▁script	-7349
▁comprehens	-7350
IR	-7351
asia	-7352
ethe	-7353
▁400	-7354
▁CDs	-7355
▁lad	-7356
▁21st	-7357
▁Going	-7358
▁Kansai	-7359
▁essays	-7360
▁awkward	-7361
▁claimed	-7362
▁painted	-7363
▁Provident	-7364
▁graduating	-7365
▁sophisticated	-7366
ouds	-7367
sius	-7368
▁Free	-7369
▁asks	-7370
▁//www.s	-7371
▁anxiety	-7372
▁generating	-7373
▁anniversary	-7374
▁insufficient	-7375
▁EN	-7376
▁Hy	-7377
▁K.	-7378
gers	-7379
▁anc	-7380
▁ben	-7381
▁Club	-7382
▁vast	-7383
▁Fried	-7384
▁Micro	-7385
▁vulner	-7386
▁wisdom	-7387
▁talents	-7388
▁elements	-7389
▁superior	-7390
▁weekdays	-7391
▁environmentally	-7392
▁Jo	-7393
▁PR	-7394
▁R.	-7395
apse	-7396
ophy	-7397
▁429	-7398
▁wire	-7399
▁Grand	-7400
▁honey	-7401
▁incur	-7402
▁innoc	-7403
▁amazed	-7404
▁behavi	-7405
▁outweigh	-7406
car	-7407
html	-7408
▁Cat	-7409
▁Non	-7410
▁ped	-7411
▁15th	-7412
▁pill	-7413
▁puzz	-7414
▁amuse	-7415
ruction	-7416
▁bedroom	-7417
▁joining	-7418
▁portion	-7419
▁homestay	-7420
▁symptoms	-7421
▁disorders	-7422
▁regulations	-7423
ora	-7424
rep	-7425
fall	-7426
week	-7427
▁rum	-7428
▁Four	-7429
▁shel	-7430
.org/w	-7431
▁facts	-7432
▁relief	-7433
▁scores	-7434
▁refused	-7435
▁selfish	-7436
▁trained	-7437
▁wasting	-7438
17	-7439
bye	-7440
ida	-7441
ares	-7442
iffe	-7443
then	-7444
▁Rel	-7445
▁tap	-7446
▁20th	-7447
▁Global	-7448
▁History	-7449
▁saturday	-7450
▁landscape	-7451
▁personally	-7452
/f	-7453
gar	-7454
isp	-7455
sip	-7456
umi	-7457
city	-7458
▁Mart	-7459
▁chan	-7460
▁dedic	-7461
▁forty	-7462
▁Recent	-7463
▁booked	-7464
▁silent	-7465
▁strain	-7466
▁precise	-7467
▁majoring	-7468
▁northern	-7469
▁partners	-7470
▁definition	-7471
▁procedures	-7472
CR	-7473
.in	-7474
exp	-7475
map	-7476
adow	-7477
▁Bet	-7478
▁Mov	-7479
itage	-7480
ronics	-7481
▁fifty	-7482
▁plate	-7483
▁Robert	-7484
▁barely	-7485
▁fortune	-7486
▁platform	-7487
▁Community	-7488
▁Something	-7489
▁Singaporean	-7490
▁underground	-7491
una	-7492
▁SP	-7493
rends	-7494
▁symp	-7495
ifying	-7496
▁White	-7497
▁gover	-7498
▁clever	-7499
▁qualif	-7500
▁supper	-7501
▁cleaner	-7502
▁decline	-7503
▁lottery	-7504
▁bringing	-7505
▁nightmare	-7506
25	-7507
▁Den	-7508
▁dia	-7509
▁deny	-7510
▁leaf	-7511
▁non-	-7512
▁quake	-7513
▁mirror	-7514
▁square	-7515
▁Someday	-7516
▁sounded	-7517
▁enormous	-7518
▁identity	-7519
▁indirect	-7520
▁interact	-7521
▁stability	-7522
38	-7523
soft	-7524
craft	-7525
▁Miss	-7526
▁hill	-7527
▁hated	-7528
▁prison	-7529
▁proven	-7530
▁energet	-7531
unication	-7532
▁Starbucks	-7533
▁healthier	-7534
▁interviews	-7535
pal	-7536
▁Iz	-7537
itty	-7538
▁Come	-7539
▁THAT	-7540
school	-7541
▁jeans	-7542
▁Sports	-7543
▁smiled	-7544
▁clients	-7545
▁fingers	-7546
▁skilled	-7547
▁deadline	-7548
▁substant	-7549
▁delivered	-7550
▁estimated	-7551
▁fascinating	-7552
/C	-7553
▁WE	-7554
icon	-7555
▁pump	-7556
▁clubs	-7557
▁coast	-7558
▁recru	-7559
iration	-7560
▁Ageing	-7561
▁Parents	-7562
▁fiction	-7563
▁struggle	-7564
▁accustomed	-7565
67	-7566
▁GDP	-7567
iyaki	-7568
▁ache	-7569
▁cond	-7570
▁disg	-7571
▁soap	-7572
▁Street	-7573
▁attacks	-7574
▁cookies	-7575
▁ignored	-7576
▁museums	-7577
▁seniors	-7578
ray	-7579
rich	-7580
▁por	-7581
▁Jane	-7582
▁alot	-7583
▁Buddh	-7584
-Cooled	-7585
▁friday	-7586
▁launch	-7587
▁societ	-7588
▁Roberts	-7589
▁congrat	-7590
▁experts	-7591
▁haven't	-7592
▁outdoor	-7593
▁canceled	-7594
ercritical	-7595
▁meaningful	-7596
che	-7597
thm	-7598
▁Op	-7599
hiba	-7600
ummy	-7601
▁une	-7602
atoes	-7603
▁hole	-7604
▁unre	-7605
atical	-7606
▁award	-7607
arently	-7608
▁Taking	-7609
▁packed	-7610
▁enables	-7611
▁moments	-7612
▁coworker	-7613
▁organize	-7614
▁President	-7615
▁criminals	-7616
▁scheduled	-7617
▁Wow	-7618
ansen	-7619
▁Sara	-7620
uition	-7621
▁suits	-7622
▁ancest	-7623
▁immigr	-7624
▁jacket	-7625
▁refund	-7626
▁ethical	-7627
▁focusing	-7628
▁keyboard	-7629
▁economically	-7630
LD	-7631
EST	-7632
nov	-7633
ilty	-7634
irth	-7635
▁238	-7636
▁MSN	-7637
iscal	-7638
▁Math	-7639
▁refuse	-7640
▁comprom	-7641
▁defense	-7642
▁dialect	-7643
▁printed	-7644
▁Business	-7645
▁Studying	-7646
▁careless	-7647
▁Available	-7648
▁gathering	-7649
▁intention	-7650
gi	-7651
anes	-7652
arsh	-7653
asant	-7654
attle	-7655
inate	-7656
▁West	-7657
▁Angel	-7658
▁Music	-7659
▁Organ	-7660
▁spell	-7661
▁crimes	-7662
▁molten	-7663
▁sunset	-7664
▁visual	-7665
▁Company	-7666
.org/wiki	-7667
▁regarded	-7668
▁somewhat	-7669
▁energetic	-7670
▁paintings	-7671
▁paragraph	-7672
ya	-7673
▁Old	-7674
raine	-7675
▁Star	-7676
▁windy	-7677
quarium	-7678
▁frozen	-7679
▁Bangkok	-7680
▁mankind	-7681
▁McDonald	-7682
▁commonly	-7683
▁constant	-7684
▁property	-7685
▁incorrect	-7686
▁musicians	-7687
▁standards	-7688
▁strangers	-7689
▁scholarship	-7690
/A	-7691
New	-7692
▁nt	-7693
▁Mil	-7694
▁chef	-7695
▁Board	-7696
▁flour	-7697
▁legal	-7698
▁caring	-7699
▁clouds	-7700
▁academy	-7701
▁initial	-7702
▁hamburger	-7703
uct	-7704
▁AB	-7705
abet	-7706
atar	-7707
▁Ass	-7708
▁Vol	-7709
▁twe	-7710
▁unw	-7711
uters	-7712
▁Hear	-7713
▁wand	-7714
▁persu	-7715
viously	-7716
▁french	-7717
▁illust	-7718
▁weapon	-7719
▁minimum	-7720
▁Electric	-7721
▁Shinjuku	-7722
▁Committee	-7723
fid	-7724
isa	-7725
▁Ak	-7726
▁CH	-7727
▁Ka	-7728
▁tip	-7729
/2009	-7730
▁13th	-7731
▁anti	-7732
▁laun	-7733
erable	-7734
lation	-7735
respond	-7736
▁heaven	-7737
▁stairs	-7738
ficiency	-7739
▁//www.c	-7740
▁mission	-7741
▁undergo	-7742
.wikipedia	-7743
▁terrorism	-7744
▁instructor	-7745
▁controversial	-7746
▁eco	-7747
▁mos	-7748
▁spa	-7749
morow	-7750
▁crit	-7751
▁tank	-7752
▁Franc	-7753
▁Living	-7754
▁proved	-7755
▁update	-7756
ographic	-7757
▁adopted	-7758
▁learner	-7759
▁possess	-7760
▁lectures	-7761
▁thankful	-7762
▁touching	-7763
▁arguments	-7764
▁sustainable	-7765
NA	-7766
OG	-7767
gs	-7768
-of	-7769
imi	-7770
emon	-7771
isco	-7772
rete	-7773
▁HDB	-7774
endar	-7775
ghter	-7776
▁pour	-7777
cience	-7778
▁upper	-7779
▁behave	-7780
▁easing	-7781
utrition	-7782
▁stranger	-7783
▁succeeded	-7784
▁consequence	-7785
▁importantly	-7786
▁//en.wikipedia	-7787
usa	-7788
▁vs	-7789
athy	-7790
alous	-7791
ribly	-7792
▁Engl	-7793
▁19.30	-7794
▁barbe	-7795
▁gorge	-7796
▁initi	-7797
▁proof	-7798
▁trick	-7799
▁unple	-7800
▁hotels	-7801
▁implic	-7802
▁continuous	-7803
▁controlled	-7804
EA	-7805
-240	-7806
▁haz	-7807
hours	-7808
▁deple	-7809
▁commute	-7810
▁podcast	-7811
▁warning	-7812
▁composed	-7813
ui	-7814
TER	-7815
uro	-7816
▁Kar	-7817
▁Chiba	-7818
▁dried	-7819
▁unfor	-7820
▁exists	-7821
▁sooner	-7822
▁unfair	-7823
▁creates	-7824
▁architect	-7825
▁promotion	-7826
bb	-7827
apy	-7828
iko	-7829
uma	-7830
▁LA	-7831
▁au	-7832
▁mush	-7833
▁kinda	-7834
▁titled	-7835
▁Nothing	-7836
▁dreamed	-7837
▁feasible	-7838
▁neglected	-7839
▁recession	-7840
▁proliferation	-7841
/n	-7842
sed	-7843
▁J.	-7844
▁NO	-7845
osis	-7846
▁gay	-7847
▁bars	-7848
▁plot	-7849
▁print	-7850
▁trash	-7851
▁fiscal	-7852
▁cuisine	-7853
▁Starting	-7854
▁dreaming	-7855
▁workshop	-7856
▁everytime	-7857
▁factories	-7858
▁increasingly	-7859
jo	-7860
/gen	-7861
▁mob	-7862
ching	-7863
▁Fall	-7864
▁Need	-7865
iently	-7866
undant	-7867
▁baked	-7868
▁Dragon	-7869
▁staffs	-7870
▁command	-7871
▁sadness	-7872
▁Sometime	-7873
▁attacked	-7874
▁emphasis	-7875
▁sickness	-7876
▁talented	-7877
▁Wikipedia	-7878
▁reputation	-7879
▁manufacturing	-7880
ruct	-7881
▁Ann	-7882
▁tid	-7883
enger	-7884
▁edge	-7885
▁flew	-7886
icious	-7887
▁divor	-7888
▁medal	-7889
▁bitter	-7890
▁Systems	-7891
▁publish	-7892
▁summary	-7893
▁Watching	-7894
▁attractions	-7895
CT	-7896
aus	-7897
▁1.	-7898
▁Tos	-7899
ician	-7900
icill	-7901
▁dust	-7902
▁David	-7903
▁storm	-7904
▁owners	-7905
▁compete	-7906
▁resident	-7907
▁housework	-7908
▁organised	-7909
▁limitation	-7910
▁discoveries	-7911
otes	-7912
▁Mr.	-7913
▁Shi	-7914
▁11th	-7915
ferences	-7916
▁advised	-7917
▁amounts	-7918
▁delayed	-7919
▁certific	-7920
▁meltdown	-7921
▁intelligent	-7922
▁introducing	-7923
▁troublesome	-7924
St	-7925
_re	-7926
▁33	-7927
▁Pal	-7928
▁Sol	-7929
▁mac	-7930
▁whis	-7931
▁Class	-7932
▁Count	-7933
▁blogs	-7934
▁ridic	-7935
▁devast	-7936
▁oldest	-7937
▁logical	-7938
▁Olympics	-7939
▁advances	-7940
▁revealed	-7941
▁confusing	-7942
▁chocolates	-7943
▁championship	-7944
▁continuously	-7945
▁satisfaction	-7946
/h	-7947
ju	-7948
▁Beat	-7949
▁gene	-7950
▁sixt	-7951
▁tons	-7952
▁Smith	-7953
▁Train	-7954
▁bunch	-7955
▁stret	-7956
▁styles	-7957
▁analyze	-7958
▁belongs	-7959
▁realise	-7960
▁competit	-7961
▁wherever	-7962
▁Listening	-7963
▁competitions	-7964
/c	-7965
word	-7966
▁Yuk	-7967
onder	-7968
▁Post	-7969
▁Surpr	-7970
▁snack	-7971
▁atomic	-7972
▁differ	-7973
▁monday	-7974
▁planed	-7975
▁typing	-7976
▁payment	-7977
▁temples	-7978
▁gorgeous	-7979
▁Regarding	-7980
▁Robertson	-7981
▁resulting	-7982
▁correspond	-7983
▁highschool	-7984
▁unbelievable	-7985
ua	-7986
fly	-7987
lim	-7988
▁Hun	-7989
▁Know	-7990
▁Okay	-7991
▁rang	-7992
▁sung	-7993
▁adopt	-7994
▁lovers	-7995
▁rabbit	-7996
▁earning	-7997
▁illustr	-7998
▁consumer	-7999
/m	-8000
22	-8001
▁ug	-8002
fish	-8003
▁800	-8004
▁som	-8005
inent	-8006
pping	-8007
▁Conc	-8008
▁Help	-8009
▁Hosp	-8010
▁didn	-8011
▁evil	-8012
▁sole	-8013
▁River	-8014
▁Young	-8015
▁accom	-8016
▁input	-8017
vention	-8018
▁defect	-8019
▁jumped	-8020
activity	-8021
igration	-8022
▁//www.b	-8023
▁involve	-8024
▁proceed	-8025
▁prosper	-8026
▁quarter	-8027
▁amusement	-8028
▁delighted	-8029
▁incentives	-8030
ANG	-8031
ipe	-8032
▁Er	-8033
iger	-8034
iner	-8035
lete	-8036
▁Too	-8037
▁sofa	-8038
▁texts	-8039
▁Polish	-8040
▁harvest	-8041
▁sailing	-8042
▁wheelch	-8043
▁cartoons	-8044
▁homeless	-8045
▁quantity	-8046
▁neighbour	-8047
▁procedure	-8048
▁fashionable	-8049
▁reprocessing	-8050
▁supermarkets	-8051
▁possibilities	-8052
era	-8053
kin	-8054
olf	-8055
▁CO	-8056
elve	-8057
▁Bye	-8058
▁hay	-8059
▁kan	-8060
table	-8061
▁wars	-8062
▁Sushi	-8063
▁rented	-8064
▁resign	-8065
▁stuffs	-8066
▁Celsius	-8067
▁cooling	-8068
▁regrett	-8069
▁inspired	-8070
▁convinced	-8071
▁personnel	-8072
▁specially	-8073
▁Electronic	-8074
▁businesses	-8075
▁encourages	-8076
▁combination	-8077
▁cooperation	-8078
aby	-8079
▁55	-8080
verb	-8081
▁CNN	-8082
tered	-8083
▁bree	-8084
urning	-8085
▁Write	-8086
▁fifth	-8087
mediate	-8088
▁occurs	-8089
▁traged	-8090
▁voices	-8091
.edu.sg/	-8092
▁robotic	-8093
▁potatoes	-8094
▁terribly	-8095
▁hopefully	-8096
▁distinguish	-8097
rer	-8098
▁Lo	-8099
▁Ni	-8100
▁SW	-8101
brid	-8102
rown	-8103
udes	-8104
aired	-8105
apter	-8106
▁2030	-8107
▁greet	-8108
▁sharp	-8109
▁surge	-8110
▁grilled	-8111
▁greeting	-8112
▁minimize	-8113
▁obstacles	-8114
▁Statistics	-8115
▁opposition	-8116
▁volunteers	-8117
▁expectations	-8118
▁advertisements	-8119
▁GM	-8120
ango	-8121
▁Bon	-8122
▁Pen	-8123
▁hip	-8124
iable	-8125
igence	-8126
izuoka	-8127
▁10000	-8128
▁audio	-8129
▁didnt	-8130
▁dolls	-8131
▁route	-8132
▁stops	-8133
icillin	-8134
▁hahaha	-8135
▁barrier	-8136
vironment	-8137
▁suprised	-8138
▁continuing	-8139
--	-8140
oba	-8141
▁C.	-8142
▁Rem	-8143
▁kon	-8144
eness	-8145
iment	-8146
isave	-8147
▁Nara	-8148
▁Road	-8149
astrop	-8150
ultural	-8151
▁diving	-8152
▁tackle	-8153
▁238-240	-8154
▁Foreign	-8155
▁Working	-8156
▁maximum	-8157
▁adequate	-8158
▁province	-8159
▁vulnerable	-8160
▁van	-8161
ortunate	-8162
▁premium	-8163
▁shining	-8164
▁silence	-8165
▁acquaint	-8166
▁spelling	-8167
▁secondary	-8168
▁preventing	-8169
▁concentration	-8170
rig	-8171
hett	-8172
roid	-8173
▁600	-8174
▁7th	-8175
▁wid	-8176
acing	-8177
anton	-8178
ackson	-8179
critical	-8180
▁Toshiba	-8181
▁grandma	-8182
▁matches	-8183
▁posting	-8184
▁accurate	-8185
▁belonged	-8186
▁launched	-8187
▁mentally	-8188
84	-8189
don	-8190
▁Eve	-8191
▁Iss	-8192
▁chop	-8193
▁mixi	-8194
▁rose	-8195
▁phase	-8196
inkansen	-8197
▁compuls	-8198
▁dressed	-8199
▁fitness	-8200
▁pretend	-8201
▁shouted	-8202
▁nickname	-8203
▁tendency	-8204
▁unforget	-8205
▁cigarette	-8206
ado	-8207
iji	-8208
iri	-8209
oma	-8210
ths	-8211
▁diz	-8212
ograp	-8213
rimin	-8214
▁1990	-8215
▁fuck	-8216
▁spag	-8217
▁ugly	-8218
▁Diary	-8219
▁agric	-8220
▁mirac	-8221
▁conver	-8222
▁hiking	-8223
▁picnic	-8224
▁rhythm	-8225
▁Ukraine	-8226
▁Reactors	-8227
▁shocking	-8228
▁Microsoft	-8229
▁roommates	-8230
▁convention	-8231
oug	-8232
▁P.	-8233
ront	-8234
▁lun	-8235
▁nep	-8236
▁rub	-8237
ormal	-8238
▁Tele	-8239
▁aims	-8240
▁knock	-8241
▁signs	-8242
herland	-8243
▁Kindle	-8244
▁excite	-8245
▁lesser	-8246
▁silver	-8247
▁Testing	-8248
▁Wilpert	-8249
▁largely	-8250
▁accounts	-8251
▁moreover	-8252
▁exception	-8253
▁unpleasant	-8254
-1	-8255
ea	-8256
.co	-8257
ako	-8258
aled	-8259
▁Gas	-8260
▁Play	-8261
▁Sing	-8262
▁fool	-8263
▁fishes	-8264
▁dessert	-8265
▁mystery	-8266
▁outcome	-8267
▁appetite	-8268
▁breaking	-8269
▁remaining	-8270
▁monitoring	-8271
▁limitations	-8272
▁researching	-8273
▁enthusiastic	-8274
▁performances	-8275
▁Supercritical	-8276
ss	-8277
rob	-8278
cipl	-8279
rene	-8280
rfid	-8281
heast	-8282
▁grat	-8283
orters	-8284
▁hurts	-8285
▁onion	-8286
▁scold	-8287
▁hidden	-8288
▁punish	-8289
▁Seattle	-8290
▁insects	-8291
▁jealous	-8292
▁allowing	-8293
▁calendar	-8294
▁innocent	-8295
▁fertility	-8296
▁collection	-8297
▁supercritical	-8298
rack	-8299
▁Bre	-8300
▁Try	-8301
▁Yak	-8302
▁Serv	-8303
▁Stra	-8304
▁flaw	-8305
▁temp	-8306
celona	-8307
everal	-8308
▁James	-8309
▁fatig	-8310
▁moder	-8311
▁walls	-8312
▁nephew	-8313
▁reader	-8314
▁reluct	-8315
▁starring	-8316
▁realistic	-8317
▁scientist	-8318
lt	-8319
aru	-8320
met	-8321
was	-8322
▁ll	-8323
-and	-8324
▁Aki	-8325
isher	-8326
▁Arts	-8327
▁mate	-8328
▁chest	-8329
▁recie	-8330
▁tends	-8331
▁revenue	-8332
▁shooting	-8333
▁catastrop	-8334
▁immediate	-8335
▁assignments	-8336
▁implementing	-8337
1/	-8338
▁B.	-8339
urai	-8340
zhou	-8341
▁GIF	-8342
▁Fire	-8343
▁Alice	-8344
▁facil	-8345
▁honor	-8346
▁steak	-8347
amental	-8348
ificial	-8349
▁Academ	-8350
▁Unlike	-8351
▁breeze	-8352
▁handic	-8353
etheless	-8354
▁Jackson	-8355
▁interpre	-8356
▁socially	-8357
▁movements	-8358
▁responsib	-8359
▁expectation	-8360
39	-8361
EP	-8362
char	-8363
,2009	-8364
aters	-8365
▁10th	-8366
▁anger	-8367
▁Portug	-8368
▁decade	-8369
▁guilty	-8370
▁prohib	-8371
▁reform	-8372
▁twelve	-8373
▁Elderly	-8374
▁fifteen	-8375
▁readers	-8376
▁aquarium	-8377
▁southern	-8378
▁investing	-8379
▁resolution	-8380
▁radioactivity	-8381
EO	-8382
hh	-8383
oop	-8384
ycl	-8385
▁Sl	-8386
asty	-8387
▁Ken	-8388
iders	-8389
▁Sure	-8390
encies	-8391
▁arise	-8392
▁boxes	-8393
▁assume	-8394
▁dialog	-8395
▁filmed	-8396
▁stroke	-8397
▁figures	-8398
▁spanish	-8399
▁Hospital	-8400
▁episodes	-8401
▁expressed	-8402
▁electronics	-8403
▁dramatically	-8404
▁participants	-8405
▁Na	-8406
.nus	-8407
▁GFR	-8408
▁1996	-8409
▁knee	-8410
▁flash	-8411
▁gloom	-8412
▁minor	-8413
isingly	-8414
▁sevent	-8415
▁wished	-8416
ollywood	-8417
▁Several	-8418
▁advices	-8419
▁defined	-8420
▁illegal	-8421
▁shaking	-8422
▁thunder	-8423
▁creation	-8424
▁supports	-8425
▁violence	-8426
▁Basically	-8427
▁Sincerely	-8428
RC	-8429
-in	-8430
gant	-8431
mate	-8432
▁Sch	-8433
▁fal	-8434
▁Lots	-8435
▁intr	-8436
▁aston	-8437
▁Turkey	-8438
▁accents	-8439
▁Barcelona	-8440
▁comparing	-8441
▁NH	-8442
iser	-8443
▁6th	-8444
▁Adv	-8445
▁NOT	-8446
▁Nov	-8447
▁Tim	-8448
▁fra	-8449
chest	-8450
mates	-8451
oured	-8452
▁guid	-8453
erland	-8454
▁Arabic	-8455
▁forces	-8456
▁housew	-8457
▁loving	-8458
▁makers	-8459
▁merely	-8460
▁motorb	-8461
▁General	-8462
OK	-8463
Eng	-8464
▁Yu	-8465
/doc	-8466
▁150	-8467
▁Mem	-8468
▁spo	-8469
gical	-8470
▁Alex	-8471
▁Care	-8472
▁fash	-8473
▁pose	-8474
▁sett	-8475
encing	-8476
rocery	-8477
stract	-8478
▁maker	-8479
▁posts	-8480
▁extend	-8481
▁google	-8482
▁labour	-8483
▁length	-8484
graduate	-8485
▁Holiday	-8486
▁inspect	-8487
▁removed	-8488
▁tuition	-8489
▁equipped	-8490
▁recovery	-8491
▁treasure	-8492
▁behaviour	-8493
▁long-term	-8494
▁invitation	-8495
▁philosophy	-8496
AB	-8497
imp	-8498
▁H.	-8499
▁Ot	-8500
▁Mag	-8501
▁Tem	-8502
agger	-8503
▁Plan	-8504
▁carr	-8505
▁fake	-8506
▁thri	-8507
▁zero	-8508
ethics	-8509
▁dumpl	-8510
▁toler	-8511
▁Karaoke	-8512
▁Profess	-8513
▁colored	-8514
▁springs	-8515
conscious	-8516
▁presence	-8517
▁soldiers	-8518
▁allocated	-8519
▁reduction	-8520
▁acceptable	-8521
▁confidential	-8522
27	-8523
box	-8524
gic	-8525
lus	-8526
▁Bi	-8527
atto	-8528
illa	-8529
life	-8530
▁Nan	-8531
▁Anna	-8532
▁penc	-8533
allery	-8534
bourne	-8535
▁Super	-8536
▁forum	-8537
▁mates	-8538
▁driven	-8539
▁happend	-8540
▁viewing	-8541
▁virtual	-8542
▁Engineers	-8543
▁requirement	-8544
▁unemployment	-8545
RT	-8546
ham	-8547
heim	-8548
▁Fun	-8549
▁Ins	-8550
▁nin	-8551
▁odd	-8552
▁rot	-8553
iance	-8554
▁Chic	-8555
▁Rest	-8556
▁ange	-8557
▁perf	-8558
▁pupp	-8559
▁overw	-8560
▁divers	-8561
▁poison	-8562
▁submit	-8563
▁avoided	-8564
▁storage	-8565
▁Medisave	-8566
▁employed	-8567
▁abandoned	-8568
▁constrain	-8569
▁religious	-8570
▁equipments	-8571
▁maintaining	-8572
yu	-8573
off	-8574
ogi	-8575
achi	-8576
ahoo	-8577
▁Def	-8578
▁Que	-8579
▁Whe	-8580
▁dat	-8581
andom	-8582
▁Cong	-8583
▁Phys	-8584
▁Plus	-8585
▁Sche	-8586
▁plus	-8587
aching	-8588
▁abuse	-8589
▁drawn	-8590
▁grows	-8591
▁injury	-8592
▁examine	-8593
▁mindset	-8594
▁writers	-8595
▁Economic	-8596
▁collapse	-8597
▁flexible	-8598
▁discrimin	-8599
▁neighbors	-8600
▁prevention	-8601
-temperature	-8602
▁disadvantage	-8603
rt	-8604
▁Kh	-8605
/inf	-8606
▁Ben	-8607
▁Jul	-8608
▁pit	-8609
oston	-8610
▁Mary	-8611
.co.uk	-8612
▁boots	-8613
▁flats	-8614
▁halls	-8615
▁Doctor	-8616
▁Little	-8617
▁banana	-8618
▁deaths	-8619
▁pulled	-8620
▁stream	-8621
entially	-8622
▁anticip	-8623
▁grocery	-8624
▁resolve	-8625
▁witness	-8626
▁elevator	-8627
▁remained	-8628
▁goverment	-8629
▁nutrition	-8630
▁advertised	-8631
▁compulsory	-8632
▁reservation	-8633
DS	-8634
hin	-8635
▁T.	-8636
▁Law	-8637
▁nav	-8638
hetti	-8639
▁Land	-8640
▁Tower	-8641
▁files	-8642
▁miles	-8643
▁inject	-8644
▁server	-8645
▁educate	-8646
▁nursery	-8647
▁Shizuoka	-8648
▁disposal	-8649
▁Netherland	-8650
▁transferred	-8651
TH	-8652
uba	-8653
▁Ev	-8654
High	-8655
anto	-8656
enza	-8657
onym	-8658
▁lit	-8659
▁Tour	-8660
▁buff	-8661
▁isol	-8662
▁para	-8663
stairs	-8664
▁Filip	-8665
▁Innov	-8666
▁Quest	-8667
▁flies	-8668
▁inexp	-8669
▁sheep	-8670
ensions	-8671
▁breast	-8672
▁chilly	-8673
▁sexual	-8674
▁urgent	-8675
▁climbed	-8676
▁costume	-8677
itzerland	-8678
▁Computer	-8679
▁supervis	-8680
▁apologize	-8681
▁kilometers	-8682
▁skunkworks	-8683
▁misunderstand	-8684
IA	-8685
AIN	-8686
ANT	-8687
asa	-8688
umber	-8689
▁Snow	-8690
▁Tell	-8691
▁unit	-8692
▁ware	-8693
ulating	-8694
▁Scient	-8695
▁cooled	-8696
▁closely	-8697
▁upgrading	-8698
▁accounting	-8699
▁fascinated	-8700
▁performing	-8701
▁tremendous	-8702
ali	-8703
arts	-8704
cake	-8705
iken	-8706
ulty	-8707
▁ESL	-8708
▁fry	-8709
akami	-8710
uated	-8711
▁Cost	-8712
▁bite	-8713
▁doors	-8714
▁suppl	-8715
▁cancel	-8716
▁dining	-8717
▁formed	-8718
▁forgive	-8719
▁funeral	-8720
▁prototy	-8721
▁recycle	-8722
▁concrete	-8723
▁disabled	-8724
▁proposal	-8725
▁thorough	-8726
ifications	-8727
▁collected	-8728
▁authorities	-8729
▁broadcasting	-8730
▁occasionally	-8731
lem	-8732
▁HA	-8733
▁Ta	-8734
year	-8735
▁Few	-8736
▁gos	-8737
attoo	-8738
oyaki	-8739
▁2050	-8740
▁Food	-8741
▁Rome	-8742
▁tiss	-8743
atient	-8744
teries	-8745
▁Group	-8746
▁Ramen	-8747
▁guard	-8748
▁mosqu	-8749
▁postp	-8750
through	-8751
▁Modern	-8752
▁define	-8753
▁bottles	-8754
▁guessed	-8755
▁deterior	-8756
▁feedback	-8757
▁//www.gen	-8758
▁decreased	-8759
▁afterwards	-8760
▁enthusiasm	-8761
▁professors	-8762
▁professionals	-8763
▁NZ	-8764
▁alt	-8765
oshima	-8766
▁Manga	-8767
▁bless	-8768
▁chann	-8769
▁hopes	-8770
▁needy	-8771
▁wrest	-8772
agement	-8773
▁Sweden	-8774
▁ladies	-8775
▁pushed	-8776
▁shadow	-8777
▁highway	-8778
▁overwhel	-8779
▁portable	-8780
▁spaghetti	-8781
64	-8782
lee	-8783
/pdf	-8784
▁Boy	-8785
▁Mot	-8786
▁pil	-8787
▁Cher	-8788
▁Phot	-8789
▁bean	-8790
▁mart	-8791
▁draft	-8792
▁loose	-8793
▁hotter	-8794
▁Similar	-8795
▁observe	-8796
▁profits	-8797
▁weekday	-8798
▁winning	-8799
▁Whatever	-8800
▁arrested	-8801
▁Afterwards	-8802
▁mechanical	-8803
▁ridiculous	-8804
▁//www.world	-8805
OD	-8806
no	-8807
bar	-8808
pot	-8809
2008	-8810
▁700	-8811
▁Ham	-8812
▁vote	-8813
▁yeah	-8814
▁Dream	-8815
▁Night	-8816
▁Youth	-8817
▁dizzy	-8818
▁fairy	-8819
▁recon	-8820
▁solid	-8821
▁Master	-8822
▁convey	-8823
▁hearts	-8824
▁heater	-8825
▁refers	-8826
▁internal	-8827
▁Opponents	-8828
▁protected	-8829
.nus.edu.sg/	-8830
▁investments	-8831
▁surroundings	-8832
▁unforgettable	-8833
oub	-8834
▁xD	-8835
race	-8836
rise	-8837
▁Chi	-8838
range	-8839
▁Wall	-8840
▁acts	-8841
▁www.	-8842
▁Study	-8843
▁balls	-8844
▁candy	-8845
▁unfam	-8846
▁yummy	-8847
itution	-8848
ocratic	-8849
ologies	-8850
▁pursue	-8851
requency	-8852
▁external	-8853
▁reserved	-8854
▁requested	-8855
▁Switzerland	-8856
▁approaching	-8857
UC	-8858
-re	-8859
The	-8860
eic	-8861
▁fo	-8862
▁Cal	-8863
▁ups	-8864
.net/	-8865
azaki	-8866
▁Wish	-8867
▁curi	-8868
▁sets	-8869
▁slim	-8870
▁swam	-8871
▁unst	-8872
acific	-8873
▁assum	-8874
ruption	-8875
▁Boston	-8876
▁limits	-8877
▁liquid	-8878
▁rushed	-8879
▁discipl	-8880
▁enterpr	-8881
▁goodbye	-8882
▁occured	-8883
▁seafood	-8884
▁tension	-8885
▁tragedy	-8886
▁channels	-8887
▁honestly	-8888
▁Friedland	-8889
▁admission	-8890
▁necessity	-8891
▁translator	-8892
▁celebration	-8893
▁intermediate	-8894
aho	-8895
ials	-8896
ouch	-8897
uous	-8898
▁Eth	-8899
.com.	-8900
illed	-8901
▁25th	-8902
▁Vict	-8903
▁acted	-8904
▁finds	-8905
▁plain	-8906
▁desert	-8907
▁passes	-8908
▁absence	-8909
▁expense	-8910
▁actively	-8911
▁tomatoes	-8912
▁highlight	-8913
▁immigrants	-8914
▁indirectly	-8915
.5	-8916
34	-8917
uh	-8918
edy	-8919
lib	-8920
net	-8921
ania	-8922
osity	-8923
▁12th	-8924
habara	-8925
▁roles	-8926
▁lasted	-8927
▁remote	-8928
ologists	-8929
▁Chicago	-8930
▁Univers	-8931
▁manners	-8932
▁species	-8933
▁wanting	-8934
▁Hollywood	-8935
▁contained	-8936
▁achievement	-8937
▁Introduction	-8938
▁contributing	-8939
.e	-8940
uka	-8941
▁Kat	-8942
▁pad	-8943
▁rus	-8944
▁soo	-8945
hetic	-8946
▁Shib	-8947
▁Step	-8948
▁bass	-8949
▁boil	-8950
▁bone	-8951
▁root	-8952
▁soil	-8953
illing	-8954
▁Women	-8955
▁camps	-8956
▁skate	-8957
▁swine	-8958
▁towns	-8959
▁danced	-8960
▁dating	-8961
▁critics	-8962
▁railway	-8963
.org/info	-8964
▁uploaded	-8965
▁incidents	-8966
▁predicted	-8967
▁qualified	-8968
▁Laboratory	-8969
▁Personally	-8970
▁expressing	-8971
▁permission	-8972
▁complaining	-8973
▁fundamental	-8974
▁Surprisingly	-8975
▁presentations	-8976
EM	-8977
cm	-8978
▁75	-8979
▁DS	-8980
quake	-8981
rific	-8982
▁Give	-8983
▁dose	-8984
▁itch	-8985
▁seas	-8986
▁lifes	-8987
▁earned	-8988
▁minded	-8989
▁pupils	-8990
▁strike	-8991
/nuclear	-8992
▁seeking	-8993
▁wireless	-8994
▁Akihabara	-8995
▁literally	-8996
▁accessible	-8997
▁complained	-8998
▁comprehension	-8999
▁representative	-9000
▁38	-9001
▁Gi	-9002
▁Ho	-9003
▁Las	-9004
▁Lou	-9005
▁sin	-9006
▁Oper	-9007
▁idol	-9008
▁ipod	-9009
▁poet	-9010
▁tire	-9011
ousing	-9012
▁ballet	-9013
▁consec	-9014
▁Mexican	-9015
▁jumping	-9016
▁employer	-9017
▁repaired	-9018
▁transform	-9019
▁outstanding	-9020
▁institutions	-9021
/4	-9022
-st	-9023
ria	-9024
aste	-9025
▁Tri	-9026
▁Veg	-9027
▁abn	-9028
▁jet	-9029
▁mas	-9030
flies	-9031
▁17th	-9032
▁Lead	-9033
▁cups	-9034
▁sequ	-9035
.shtml	-9036
▁crops	-9037
▁fancy	-9038
▁Employ	-9039
▁Nagano	-9040
▁gloomy	-9041
▁idioms	-9042
▁serves	-9043
▁Privacy	-9044
▁farmers	-9045
▁fission	-9046
▁implant	-9047
▁lacking	-9048
▁records	-9049
▁assigned	-9050
▁detailed	-9051
▁exposure	-9052
▁invested	-9053
▁obtained	-9054
▁offering	-9055
▁intellect	-9056
▁substantial	-9057
▁inconvenient	-9058
▁effectiveness	-9059
LO	-9060
▁IM	-9061
▁Ur	-9062
▁BUT	-9063
▁Ber	-9064
▁hehe	-9065
▁jams	-9066
bridge	-9067
energy	-9068
itudes	-9069
▁frame	-9070
▁negot	-9071
chestra	-9072
▁'cause	-9073
▁Around	-9074
▁confir	-9075
▁freind	-9076
▁temper	-9077
▁violin	-9078
▁barbecue	-9079
▁mushroom	-9080
▁guarantee	-9081
▁attraction	-9082
▁description	-9083
▁grammatical	-9084
▁photographs	-9085
.2	-9086
aro	-9087
▁32	-9088
made	-9089
oors	-9090
▁DNA	-9091
▁Jes	-9092
aping	-9093
ourse	-9094
▁junk	-9095
▁mode	-9096
▁ward	-9097
▁bonus	-9098
▁petrol	-9099
▁random	-9100
ographer	-9101
▁adverse	-9102
▁evident	-9103
▁Murakami	-9104
▁respected	-9105
▁artificial	-9106
▁respectively	-9107
-0	-9108
rg	-9109
▁ga	-9110
case	-9111
orus	-9112
anges	-9113
inger	-9114
▁Moon	-9115
▁Pass	-9116
▁Self	-9117
▁fought	-9118
▁luxury	-9119
▁uneasy	-9120
▁planted	-9121
▁enhanced	-9122
▁humidity	-9123
▁networks	-9124
▁requesting	-9125
▁considerable	-9126
In	-9127
yn	-9128
hem	-9129
udi	-9130
times	-9131
▁skip	-9132
▁tone	-9133
▁worn	-9134
▁Ident	-9135
▁restr	-9136
▁Argent	-9137
▁produc	-9138
▁struck	-9139
▁Frankly	-9140
▁compens	-9141
▁admitted	-9142
▁improves	-9143
▁frequency	-9144
▁medicines	-9145
▁miserable	-9146
▁foundation	-9147
UL	-9148
ao	-9149
ira	-9150
▁Iw	-9151
etime	-9152
zheim	-9153
▁Cast	-9154
▁SWCR	-9155
▁buck	-9156
▁fold	-9157
▁mand	-9158
l.gov/	-9159
▁cruel	-9160
▁skirt	-9161
ations/	-9162
▁adding	-9163
▁headed	-9164
▁plates	-9165
▁rivers	-9166
▁sacrif	-9167
▁bicycles	-9168
▁Prefecture	-9169
▁unfamiliar	-9170
▁Environment	-9171
▁comfortably	-9172
▁//www.nature	-9173
.1	-9174
DF	-9175
ava	-9176
eno	-9177
agon	-9178
blog	-9179
ends	-9180
vity	-9181
▁Lin	-9182
being	-9183
eding	-9184
▁5000	-9185
▁yard	-9186
▁Guang	-9187
▁Union	-9188
▁realy	-9189
▁contem	-9190
▁enrich	-9191
▁medium	-9192
▁powder	-9193
▁extract	-9194
▁fatigue	-9195
▁Accident	-9196
▁blooming	-9197
▁fashions	-9198
▁survival	-9199
▁vacations	-9200
▁association	-9201
▁surprisingly	-9202
3-	-9203
raw	-9204
▁Bur	-9205
▁Tru	-9206
▁cuz	-9207
▁oct	-9208
▁tie	-9209
▁16th	-9210
▁Tina	-9211
▁bond	-9212
portal	-9213
▁drain	-9214
▁drums	-9215
▁grave	-9216
▁//news	-9217
▁Office	-9218
▁Scheme	-9219
▁Talking	-9220
▁abandon	-9221
onomiyaki	-9222
▁catching	-9223
▁Obviously	-9224
▁christmas	-9225
▁inherited	-9226
▁influences	-9227
7/	-9228
ja	-9229
ye	-9230
▁£	-9231
omes	-9232
▁Nic	-9233
▁Squ	-9234
▁bun	-9235
-high	-9236
akaya	-9237
▁Ever	-9238
▁Real	-9239
▁evac	-9240
▁tube	-9241
▁Death	-9242
▁Hotel	-9243
▁Kanji	-9244
▁tokyo	-9245
▁wears	-9246
intendo	-9247
▁tattoo	-9248
▁African	-9249
▁Certain	-9250
▁begining	-9251
▁subtitle	-9252
.org/wiki/	-9253
▁sacrifice	-9254
-e	-9255
▁Ko	-9256
▁ow	-9257
itam	-9258
▁NBA	-9259
▁dur	-9260
▁gig	-9261
▁chip	-9262
▁dare	-9263
ilight	-9264
▁holds	-9265
▁ratio	-9266
▁roast	-9267
▁bullet	-9268
▁handed	-9269
▁pepper	-9270
▁slower	-9271
▁stones	-9272
ifferent	-9273
▁offices	-9274
▁serving	-9275
▁victory	-9276
▁entirely	-9277
▁principal	-9278
▁souvenirs	-9279
▁withstand	-9280
ater-cooled	-9281
▁Nonetheless	-9282
▁consecutive	-9283
▁specifically	-9284
comm	-9285
▁Son	-9286
▁Top	-9287
▁jew	-9288
▁3000	-9289
▁coin	-9290
▁libr	-9291
▁noun	-9292
ishing	-9293
▁alert	-9294
▁spark	-9295
▁vivid	-9296
▁Travel	-9297
▁attrib	-9298
▁balcon	-9299
▁fellow	-9300
▁retain	-9301
aneously	-9302
▁proverb	-9303
▁regions	-9304
▁irritated	-9305
▁optimistic	-9306
▁strengthen	-9307
A.	-9308
▁A.	-9309
▁8th	-9310
▁Cap	-9311
▁Coun	-9312
▁Mats	-9313
▁Supp	-9314
▁puts	-9315
apping	-9316
▁Beaut	-9317
▁lifts	-9318
▁pride	-9319
▁waist	-9320
reprene	-9321
▁perman	-9322
▁retail	-9323
▁beaches	-9324
▁endless	-9325
▁licence	-9326
▁directed	-9327
▁displayed	-9328
▁previously	-9329
▁constructed	-9330
▁preposition	-9331
▁recommendation	-9332
ala	-9333
not	-9334
▁Ji	-9335
▁ye	-9336
.org	-9337
amps	-9338
▁NHK	-9339
erman	-9340
proxy	-9341
▁Rich	-9342
▁chief	-9343
▁sells	-9344
▁snowy	-9345
▁Centre	-9346
▁Sodium	-9347
▁burned	-9348
▁denied	-9349
▁Process	-9350
▁arriving	-9351
▁evaluate	-9352
▁extended	-9353
▁Francisco	-9354
▁committed	-9355
▁exchanged	-9356
▁uncertain	-9357
▁networking	-9358
▁strawberry	-9359
▁structures	-9360
-up	-9361
.15	-9362
:00	-9363
izz	-9364
omy	-9365
ser	-9366
0000	-9367
gage	-9368
inci	-9369
▁Nob	-9370
▁Tex	-9371
▁nic	-9372
atisf	-9373
▁lugg	-9374
irable	-9375
unning	-9376
▁Busan	-9377
▁Gramm	-9378
▁Norrg	-9379
▁Steve	-9380
▁enemy	-9381
▁inner	-9382
▁moves	-9383
▁stiff	-9384
▁garlic	-9385
▁smiles	-9386
▁Station	-9387
▁boiling	-9388
▁firstly	-9389
▁luckily	-9390
▁relieve	-9391
▁bothered	-9392
▁motivate	-9393
▁returning	-9394
▁operations	-9395
▁probability	-9396
▁implications	-9397
▁similarities	-9398
UK	-9399
la	-9400
▁34	-9401
aura	-9402
vard	-9403
▁9th	-9404
▁Vis	-9405
▁sne	-9406
lines	-9407
▁00pm	-9408
▁Lady	-9409
▁Yoga	-9410
▁dough	-9411
▁paste	-9412
▁seeds	-9413
▁shake	-9414
hington	-9415
▁Cherry	-9416
▁Father	-9417
▁belive	-9418
▁eldest	-9419
▁fantasy	-9420
▁oneself	-9421
▁attitudes	-9422
▁candidate	-9423
▁reactions	-9424
▁capability	-9425
▁exercising	-9426
▁accidentally	-9427
▁investigation	-9428
▁qualification	-9429
▁ni	-9430
ermel	-9431
▁1980	-9432
▁cabb	-9433
▁ours	-9434
itions	-9435
proxy1	-9436
▁Latin	-9437
▁coins	-9438
▁swing	-9439
▁decent	-9440
▁estate	-9441
▁genius	-9442
▁hazard	-9443
▁hybrid	-9444
▁waking	-9445
▁biology	-9446
▁closing	-9447
▁fastest	-9448
▁granted	-9449
▁quarrel	-9450
libproxy1	-9451
▁Thinking	-9452
▁division	-9453
▁organise	-9454
▁polluted	-9455
▁excessive	-9456
▁discussing	-9457
▁Netherlands	-9458
▁differently	-9459
55	-9460
ST	-9461
ios	-9462
oko	-9463
▁AC	-9464
ibly	-9465
utch	-9466
▁CEO	-9467
▁Wel	-9468
▁dim	-9469
▁eve	-9470
▁1997	-9471
pecial	-9472
▁meets	-9473
▁niece	-9474
▁emails	-9475
ilingual	-9476
▁Beatles	-9477
▁beautif	-9478
▁consume	-9479
▁resistance	-9480
▁broadcasted	-9481
Id	-9482
fm	-9483
ocks	-9484
uese	-9485
▁Nik	-9486
about	-9487
istan	-9488
pered	-9489
▁Lake	-9490
ieving	-9491
search	-9492
▁allev	-9493
▁joint	-9494
▁vocal	-9495
▁deeper	-9496
▁Correct	-9497
▁Shibuya	-9498
▁Norrgard	-9499
▁carriers	-9500
▁Melbourne	-9501
▁cigarettes	-9502
▁programmer	-9503
89	-9504
▁W.	-9505
plant	-9506
▁nuts	-9507
▁vent	-9508
ilding	-9509
▁Pract	-9510
▁false	-9511
▁inert	-9512
▁landl	-9513
▁occas	-9514
▁runny	-9515
zheimer	-9516
▁brands	-9517
▁makeup	-9518
▁musics	-9519
▁partly	-9520
▁balcony	-9521
▁hardest	-9522
▁interval	-9523
▁observed	-9524
▁agreement	-9525
▁curiosity	-9526
▁dedicated	-9527
▁motorbike	-9528
▁positions	-9529
▁automobile	-9530
▁certificate	-9531
▁necessarily	-9532
ias	-9533
eless	-9534
iances	-9535
▁Again	-9536
▁exhib	-9537
▁lang8	-9538
▁Haruki	-9539
▁border	-9540
▁breaks	-9541
▁snowed	-9542
▁charming	-9543
▁deciding	-9544
▁graphite	-9545
▁teenager	-9546
▁Similarly	-9547
▁hesitated	-9548
▁aggressive	-9549
&s	-9550
ller	-9551
opes	-9552
pack	-9553
rait	-9554
▁10.	-9555
▁Kag	-9556
▁Lim	-9557
cript	-9558
▁Note	-9559
▁eats	-9560
▁slee	-9561
effect	-9562
parent	-9563
▁Birth	-9564
▁illum	-9565
▁races	-9566
▁hostel	-9567
▁planes	-9568
▁scored	-9569
▁summar	-9570
ioethics	-9571
▁confuse	-9572
▁calories	-9573
▁Exhibition	-9574
▁Shinkansen	-9575
-M	-9576
▁PE	-9577
oyal	-9578
rome	-9579
▁Bad	-9580
▁Gin	-9581
▁der	-9582
▁ric	-9583
amboo	-9584
▁Jazz	-9585
▁adap	-9586
▁crew	-9587
▁dipl	-9588
ustion	-9589
▁Clark	-9590
▁shell	-9591
▁divert	-9592
▁namely	-9593
▁sorrow	-9594
▁Housing	-9595
▁charged	-9596
▁gaining	-9597
▁russian	-9598
▁unlucky	-9599
▁Miyazaki	-9600
▁interior	-9601
▁Alzheimer	-9602
▁ancestors	-9603
▁entreprene	-9604
▁processing	-9605
51	-9606
lo	-9607
cut	-9608
ste	-9609
▁End	-9610
▁Wat	-9611
▁dol	-9612
aming	-9613
▁gamb	-9614
▁pond	-9615
itures	-9616
▁Kanto	-9617
▁fatal	-9618
▁frist	-9619
▁saves	-9620
▁scare	-9621
▁tweet	-9622
▁Sakura	-9623
▁eleven	-9624
▁balloon	-9625
▁bowling	-9626
▁colours	-9627
▁interst	-9628
▁monster	-9629
▁organic	-9630
▁reserve	-9631
▁Kamakura	-9632
▁handling	-9633
▁surgical	-9634
▁candidates	-9635
▁stomachache	-9636
▁contributions	-9637
ho	-9638
ku	-9639
-de	-9640
/re	-9641
iar	-9642
rat	-9643
▁om	-9644
-of-	-9645
abase	-9646
cknow	-9647
▁Gree	-9648
▁Shim	-9649
▁bact	-9650
▁mild	-9651
▁slic	-9652
▁Idaho	-9653
▁Lang8	-9654
▁Yamag	-9655
▁burst	-9656
▁explo	-9657
▁harsh	-9658
▁panic	-9659
▁endure	-9660
▁prompt	-9661
▁//www.e	-9662
▁centres	-9663
▁spirits	-9664
▁distract	-9665
▁creatures	-9666
▁graduates	-9667
▁disgusting	-9668
▁informations	-9669
BC	-9670
IB	-9671
iya	-9672
▁MC	-9673
▁ya	-9674
crib	-9675
ongi	-9676
ties	-9677
▁Has	-9678
▁Ice	-9679
▁lou	-9680
alley	-9681
▁hors	-9682
▁peak	-9683
▁plum	-9684
ansion	-9685
▁Laura	-9686
▁groom	-9687
ularies	-9688
▁Canton	-9689
▁chores	-9690
▁priced	-9691
▁signal	-9692
▁arrival	-9693
▁charity	-9694
▁cherish	-9695
▁counsel	-9696
▁exagger	-9697
▁gadgets	-9698
▁champion	-9699
▁commuting	-9700
▁spreading	-9701
▁restricted	-9702
▁celebrities	-9703
6/	-9704
do	-9705
ena	-9706
burg	-9707
elly	-9708
oded	-9709
ogen	-9710
oser	-9711
▁Jim	-9712
▁Sad	-9713
▁Use	-9714
▁foo	-9715
icket	-9716
▁Girl	-9717
▁THIS	-9718
▁sour	-9719
▁tear	-9720
▁tied	-9721
iences	-9722
uccess	-9723
▁fired	-9724
▁ought	-9725
▁parad	-9726
working	-9727
▁Madrid	-9728
▁chorus	-9729
▁Manager	-9730
▁damages	-9731
▁easiest	-9732
▁islands	-9733
▁persist	-9734
▁firework	-9735
▁suggests	-9736
▁protecting	-9737
▁translating	-9738
▁unfortunate	-9739
▁announcement	-9740
87	-9741
ISH	-9742
▁37	-9743
▁EX	-9744
▁N.	-9745
ains	-9746
uing	-9747
▁Jon	-9748
▁Nak	-9749
▁cha	-9750
pects	-9751
▁19th	-9752
▁reun	-9753
owered	-9754
▁kanji	-9755
▁messy	-9756
▁shelf	-9757
▁steal	-9758
▁verbs	-9759
atively	-9760
▁Origin	-9761
▁Wonder	-9762
▁attach	-9763
▁enroll	-9764
▁lowest	-9765
▁orders	-9766
▁Special	-9767
▁Whether	-9768
▁checkup	-9769
▁utilize	-9770
▁Needless	-9771
▁watermel	-9772
▁mechanism	-9773
▁promoting	-9774
31	-9775
uo	-9776
▁CET	-9777
▁Los	-9778
▁Wii	-9779
▁pir	-9780
▁forb	-9781
▁keys	-9782
▁prone	-9783
related	-9784
▁Molten	-9785
▁killer	-9786
▁manual	-9787
▁melody	-9788
▁motion	-9789
▁pollen	-9790
▁engaged	-9791
▁equally	-9792
▁objects	-9793
abilities	-9794
▁combined	-9795
▁frequent	-9796
▁magnific	-9797
▁throwing	-9798
▁departure	-9799
▁desperate	-9800
▁preferred	-9801
▁appliances	-9802
▁collecting	-9803
ublications/	-9804
rad	-9805
▁Ox	-9806
aved	-9807
ette	-9808
kish	-9809
lets	-9810
ulum	-9811
usan	-9812
▁tune	-9813
tering	-9814
▁dolph	-9815
▁socks	-9816
▁tempt	-9817
▁Making	-9818
▁assert	-9819
▁cultiv	-9820
▁interf	-9821
▁underw	-9822
▁aftersh	-9823
▁heading	-9824
▁miracle	-9825
▁Nintendo	-9826
▁aircraft	-9827
▁criteria	-9828
▁opponent	-9829
▁indicates	-9830
▁selection	-9831
▁represents	-9832
▁researched	-9833
▁wheelchair	-9834
▁appreciation	-9835
▁disappointment	-9836
OC	-9837
p/	-9838
des	-9839
▁WW	-9840
▁CIT	-9841
▁Pan	-9842
▁ton	-9843
clock	-9844
▁1995	-9845
▁Bill	-9846
▁Chan	-9847
▁Norm	-9848
▁Open	-9849
▁sumo	-9850
▁sings	-9851
▁pounds	-9852
▁ensures	-9853
▁luggage	-9854
▁powered	-9855
▁sunlight	-9856
▁declining	-9857
▁overnight	-9858
▁religions	-9859
▁excitement	-9860
▁memorizing	-9861
▁interaction	-9862
52	-9863
zz	-9864
▁BT	-9865
igan	-9866
pass	-9867
rian	-9868
▁Men	-9869
▁mud	-9870
▁Blue	-9871
▁suck	-9872
▁tofu	-9873
▁vibr	-9874
▁Jesus	-9875
▁Maria	-9876
▁Vegas	-9877
▁lasts	-9878
▁opera	-9879
▁toast	-9880
▁vitam	-9881
▁Indust	-9882
▁Policy	-9883
▁Victor	-9884
▁export	-9885
▁polish	-9886
▁steady	-9887
▁Android	-9888
▁Challen	-9889
▁Channel	-9890
▁Typhoon	-9891
▁ceiling	-9892
▁consent	-9893
▁Security	-9894
▁lecturer	-9895
▁managers	-9896
▁confirmed	-9897
▁vocabularies	-9898
32	-9899
sk	-9900
ario	-9901
ille	-9902
-and-	-9903
rived	-9904
▁Rose	-9905
astern	-9906
▁Trave	-9907
▁micro	-9908
eliness	-9909
▁curric	-9910
▁welcom	-9911
▁Nations	-9912
▁Service	-9913
▁dangers	-9914
▁waitress	-9915
▁gratitude	-9916
▁interpret	-9917
▁properties	-9918
▁remarkable	-9919
▁breakthrough	-9920
▁q	-9921
iti	-9922
pet	-9923
▁SM	-9924
atly	-9925
▁Max	-9926
▁Pri	-9927
▁gum	-9928
aning	-9929
igata	-9930
▁Sait	-9931
▁Ueno	-9932
▁aids	-9933
▁lens	-9934
▁lets	-9935
▁spin	-9936
porary	-9937
▁coinc	-9938
▁yield	-9939
idently	-9940
▁outlet	-9941
▁revise	-9942
▁tender	-9943
entation	-9944
▁Critics	-9945
▁Problem	-9946
▁longest	-9947
astically	-9948
▁colleges	-9949
▁distinct	-9950
▁situated	-9951
▁eliminate	-9952
▁reluctant	-9953
▁ingredient	-9954
▁supervisor	-9955
▁alternatives	-9956
09	-9957
FC	-9958
rem	-9959
▁Om	-9960
oved	-9961
ults	-9962
▁Bul	-9963
News/	-9964
agana	-9965
etary	-9966
▁Ropp	-9967
▁corn	-9968
▁hack	-9969
▁tail	-9970
▁zone	-9971
actory	-9972
▁Space	-9973
▁Story	-9974
▁eased	-9975
▁roses	-9976
▁Atomic	-9977
▁covers	-9978
▁doubts	-9979
▁Getting	-9980
▁allergy	-9981
▁diverse	-9982
▁dresses	-9983
▁heating	-9984
▁violent	-9985
▁mobility	-9986
▁tommorow	-9987
▁complaints	-9988
-Temperature	-9989
M.	-9990
▁CO2	-9991
▁Mas	-9992
▁emp	-9993
▁lag	-9994
▁Wood	-9995
▁dull	-9996
▁nail	-9997
itably	-9998
ointed	-9999
▁cafet	-10000
▁conce	-10001
▁newly	-10002
▁subur	-10003
▁withd	-10004
unction	-10005
▁Follow	-10006
▁acknow	-10007
▁fairly	-10008
▁lively	-10009
▁smells	-10010
▁disturb	-10011
▁letting	-10012
▁abnormal	-10013
▁viewpoint	-10014
▁assessment	-10015
▁downloaded	-10016
▁playground	-10017
▁worthwhile	-10018
▁replacement	-10019
-l	-10020
EAR	-10021
jud	-10022
▁NT	-10023
OULD	-10024
hell	-10025
rics	-10026
▁Hir	-10027
▁ONE	-10028
▁Games	-10029
▁therm	-10030
▁Miyagi	-10031
▁Review	-10032
▁appeal	-10033
▁murder	-10034
▁volunt	-10035
▁alright	-10036
▁believes	-10037
▁extraord	-10038
▁managing	-10039
▁decorated	-10040
▁detection	-10041
▁extensive	-10042
▁investors	-10043
▁reliability	-10044
▁Communication	-10045
▁administration	-10046
ERY	-10047
yer	-10048
eper	-10049
role	-10050
▁Ari	-10051
▁Dad	-10052
▁Dou	-10053
▁Fed	-10054
▁yak	-10055
▁Ball	-10056
▁Inte	-10057
▁Less	-10058
▁frag	-10059
▁lung	-10060
▁sunb	-10061
▁trig	-10062
▁20.15	-10063
▁Based	-10064
▁dynam	-10065
▁meter	-10066
▁stays	-10067
▁timet	-10068
▁George	-10069
▁allerg	-10070
▁contam	-10071
▁cabbage	-10072
▁implies	-10073
▁leaning	-10074
▁picking	-10075
▁thanked	-10076
▁diligent	-10077
▁freezing	-10078
▁influenza	-10079
▁orchestra	-10080
▁talkative	-10081
▁apartments	-10082
▁explaining	-10083
▁communities	-10084
▁unconscious	-10085
▁intellectual	-10086
aid	-10087
lept	-10088
lers	-10089
▁Hmm	-10090
▁ang	-10091
▁pud	-10092
elove	-10093
▁Bask	-10094
▁flag	-10095
▁laid	-10096
▁sexy	-10097
▁giant	-10098
▁march	-10099
▁opens	-10100
▁recom	-10101
ortable	-10102
▁Greece	-10103
▁Things	-10104
▁attain	-10105
▁bamboo	-10106
▁indoor	-10107
▁marvel	-10108
▁Denmark	-10109
▁airline	-10110
▁collage	-10111
▁conserv	-10112
▁figured	-10113
▁foolish	-10114
▁markets	-10115
▁penalty	-10116
▁printer	-10117
▁Truelove	-10118
▁abundant	-10119
▁patterns	-10120
▁unstable	-10121
▁Cambridge	-10122
▁beginners	-10123
▁cooperate	-10124
▁implanted	-10125
▁practices	-10126
▁qualities	-10127
▁frightened	-10128
▁contributes	-10129
▁dictionaries	-10130
▁distribution	-10131
35	-10132
69	-10133
IY	-10134
wer	-10135
zes	-10136
engu	-10137
ento	-10138
osit	-10139
▁Det	-10140
▁ray	-10141
▁sty	-10142
atell	-10143
maker	-10144
▁Call	-10145
▁evol	-10146
▁turb	-10147
roleum	-10148
▁Years	-10149
▁conqu	-10150
product	-10151
▁Really	-10152
▁floors	-10153
▁linked	-10154
▁spaces	-10155
▁tables	-10156
▁Saitama	-10157
▁Straits	-10158
▁breathe	-10159
▁edition	-10160
▁Roppongi	-10161
▁balanced	-10162
▁childish	-10163
▁overlook	-10164
▁sandwich	-10165
▁universe	-10166
▁automatic	-10167
▁documentary	-10168
▁experiencing	-10169
▁photographer	-10170
▁participating	-10171
▁considerations	-10172
CO	-10173
IP	-10174
▁|	-10175
-te	-10176
abi	-10177
aza	-10178
cul	-10179
test	-10180
▁Bec	-10181
▁rig	-10182
amoto	-10183
celer	-10184
▁Sony	-10185
▁acid	-10186
▁disl	-10187
▁tech	-10188
▁Claus	-10189
▁craft	-10190
-4.org/	-10191
▁Coming	-10192
▁sights	-10193
▁stored	-10194
▁minimal	-10195
▁respons	-10196
▁stuffed	-10197
▁heritage	-10198
▁promoted	-10199
▁upcoming	-10200
▁Brazilian	-10201
▁batteries	-10202
▁shoulders	-10203
▁facilitate	-10204
▁distributed	-10205
▁magnificent	-10206
ILL	-10207
pub	-10208
▁Od	-10209
,200	-10210
ocal	-10211
▁Hig	-10212
▁Kaz	-10213
▁fog	-10214
▁poo	-10215
▁tak	-10216
icken	-10217
▁Cold	-10218
▁belt	-10219
▁folk	-10220
ainted	-10221
redict	-10222
▁Above	-10223
▁Greek	-10224
▁Money	-10225
▁aimed	-10226
▁deter	-10227
▁perce	-10228
▁slipp	-10229
healthy	-10230
▁joyful	-10231
▁Tsunami	-10232
▁baggage	-10233
▁convert	-10234
▁graphic	-10235
▁athletes	-10236
▁injuries	-10237
▁Argentina	-10238
▁criticism	-10239
▁recording	-10240
▁regretted	-10241
▁loneliness	-10242
▁inspiration	-10243
▁embarrassing	-10244
77	-10245
rey	-10246
prop	-10247
▁Bob	-10248
▁Hen	-10249
▁NEW	-10250
▁00am	-10251
▁24th	-10252
▁Disc	-10253
▁Sumo	-10254
▁diam	-10255
▁vine	-10256
ardens	-10257
imming	-10258
▁Brown	-10259
▁Very-	-10260
▁crash	-10261
▁itchy	-10262
▁layer	-10263
▁trail	-10264
▁Speech	-10265
▁nurses	-10266
▁Grammar	-10267
▁hearted	-10268
▁lighter	-10269
▁praised	-10270
▁upgrade	-10271
▁whereby	-10272
▁backpack	-10273
▁conflict	-10274
▁infected	-10275
▁cafeteria	-10276
▁societies	-10277
▁hairstyles	-10278
.com/article	-10279
KY	-10280
can	-10281
gans	-10282
▁Don	-10283
▁Ire	-10284
▁bom	-10285
▁cuc	-10286
▁yog	-10287
eches	-10288
oking	-10289
▁Hard	-10290
▁Mont	-10291
▁hunt	-10292
antern	-10293
erials	-10294
▁Queen	-10295
▁frank	-10296
▁preca	-10297
▁split	-10298
▁stere	-10299
▁Issues	-10300
▁duties	-10301
▁Harvard	-10302
▁centers	-10303
▁defence	-10304
▁encount	-10305
▁martial	-10306
▁Kanagawa	-10307
▁collabor	-10308
▁discoura	-10309
▁explains	-10310
▁reaching	-10311
▁administr	-10312
▁consuming	-10313
▁mandatory	-10314
▁petroleum	-10315
▁Earthquake	-10316
▁Travelling	-10317
▁leadership	-10318
▁positively	-10319
ker	-10320
▁Hu	-10321
▁Su	-10322
clip	-10323
viet	-10324
▁Ent	-10325
▁fur	-10326
▁thr	-10327
▁29th	-10328
▁butt	-10329
▁vice	-10330
▁wont	-10331
/index	-10332
▁jewel	-10333
▁steel	-10334
▁Cancer	-10335
▁Easter	-10336
▁Others	-10337
▁Toyota	-10338
▁gossip	-10339
▁poster	-10340
ineering	-10341
▁artwork	-10342
▁shelter	-10343
▁cheapest	-10344
▁disclose	-10345
▁graphics	-10346
▁incorpor	-10347
▁modified	-10348
▁rejected	-10349
▁Certainly	-10350
▁passenger	-10351
▁Washington	-10352
▁forgetting	-10353
YS	-10354
ITH	-10355
jin	-10356
▁cy	-10357
semb	-10358
▁Edo	-10359
▁bak	-10360
▁reb	-10361
adequ	-10362
lying	-10363
ument	-10364
▁Haha	-10365
▁VERY	-10366
▁konw	-10367
▁Anime	-10368
▁Texas	-10369
▁bikes	-10370
▁postc	-10371
▁Online	-10372
▁astron	-10373
▁blocks	-10374
▁soaked	-10375
▁timing	-10376
▁chronic	-10377
▁cousins	-10378
▁decides	-10379
▁engines	-10380
▁existed	-10381
▁intense	-10382
▁complaint	-10383
▁concentrated	-10384
▁intelligence	-10385
.j	-10386
66	-10387
TA	-10388
pf	-10389
OOD	-10390
▁62	-10391
▁EV	-10392
jima	-10393
omas	-10394
ture	-10395
icine	-10396
stood	-10397
▁1979	-10398
▁Cafe	-10399
▁YOUR	-10400
▁bake	-10401
▁edit	-10402
▁gray	-10403
▁mixt	-10404
▁tuna	-10405
▁Cause	-10406
▁Chang	-10407
▁Enjoy	-10408
▁bench	-10409
▁horiz	-10410
▁knife	-10411
▁lingu	-10412
▁piety	-10413
▁addict	-10414
▁dental	-10415
▁newest	-10416
▁thrill	-10417
▁Kingdom	-10418
▁authors	-10419
▁distant	-10420
▁hitting	-10421
▁propose	-10422
▁sincere	-10423
efficient	-10424
▁Nagasaki	-10425
▁accompan	-10426
▁confront	-10427
▁breathing	-10428
▁diagnosed	-10429
▁passionate	-10430
▁punishment	-10431
▁achievements	-10432
▁sodium-cooled	-10433
▁sustainability	-10434
.3	-10435
bus	-10436
▁Mi	-10437
▁TR	-10438
▁Cle	-10439
▁Jap	-10440
▁Jud	-10441
▁Mix	-10442
▁TIM	-10443
▁Ven	-10444
▁ves	-10445
gment	-10446
▁Asak	-10447
▁Udon	-10448
▁kidn	-10449
▁lion	-10450
▁stir	-10451
erving	-10452
system	-10453
▁Bible	-10454
▁Ginza	-10455
▁liber	-10456
achelor	-10457
onymous	-10458
▁writes	-10459
▁affairs	-10460
▁crashed	-10461
▁environ	-10462
▁planing	-10463
▁therapy	-10464
▁CITATION	-10465
▁Somebody	-10466
▁darkness	-10467
▁laziness	-10468
▁Transport	-10469
▁distances	-10470
▁retrieved	-10471
▁Portuguese	-10472
▁accumulate	-10473
▁inevitably	-10474
▁refreshing	-10475
▁nevertheless	-10476
▁characteristic	-10477
.m	-10478
18	-10479
.st	-10480
ela	-10481
och	-10482
▁99	-10483
▁Wa	-10484
.cfm	-10485
APAN	-10486
ause	-10487
bell	-10488
etch	-10489
ideo	-10490
rael	-10491
▁Dom	-10492
▁Hum	-10493
ukuro	-10494
▁Grad	-10495
▁Stan	-10496
ensity	-10497
▁coord	-10498
▁lunar	-10499
▁oppot	-10500
▁valid	-10501
▁Avatar	-10502
▁legend	-10503
▁parade	-10504
▁Pacific	-10505
▁Playing	-10506
▁justice	-10507
▁updated	-10508
▁Buddhist	-10509
▁facility	-10510
▁contacted	-10511
▁principle	-10512
▁shrinking	-10513
▁curriculum	-10514
▁identified	-10515
▁proficiency	-10516
▁residential	-10517
▁conditioning	-10518
48	-10519
hu	-10520
cor	-10521
ram	-10522
▁OM	-10523
▁pc	-10524
▁CON	-10525
▁Dog	-10526
▁NYC	-10527
▁Ter	-10528
ycled	-10529
▁Game	-10530
▁Make	-10531
▁rein	-10532
ageing	-10533
▁beers	-10534
▁dilem	-10535
▁merch	-10536
▁prote	-10537
▁Except	-10538
▁Surely	-10539
▁cockro	-10540
▁oppose	-10541
▁pencil	-10542
▁ranked	-10543
▁stimul	-10544
▁settled	-10545
▁sunrise	-10546
▁abstract	-10547
▁crossing	-10548
▁homepage	-10549
▁troubled	-10550
▁bilingual	-10551
▁unhealthy	-10552
▁occupation	-10553
▁encountered	-10554
▁independence	-10555
▁globalization	-10556
▁pronounciation	-10557
.4	-10558
igo	-10559
ked	-10560
uum	-10561
▁Fa	-10562
▁GP	-10563
▁XX	-10564
eter	-10565
▁Nam	-10566
▁Feel	-10567
▁Five	-10568
▁Foot	-10569
▁Sout	-10570
▁Tomo	-10571
▁alph	-10572
▁nost	-10573
▁rope	-10574
clipse	-10575
olitan	-10576
ounder	-10577
▁JAPAN	-10578
▁bombs	-10579
▁dates	-10580
▁entit	-10581
▁monit	-10582
▁pound	-10583
▁snows	-10584
▁sucks	-10585
journal	-10586
▁claims	-10587
▁ghosts	-10588
▁horses	-10589
▁lenses	-10590
▁listed	-10591
▁inadequ	-10592
▁praying	-10593
▁vaccine	-10594
▁Filipino	-10595
▁gambling	-10596
▁lifetime	-10597
▁resolved	-10598
▁welcomed	-10599
▁centuries	-10600
▁permanent	-10601
▁disclosure	-10602
▁interviewed	-10603
▁meaningless	-10604
▁circumstance	-10605
▁explanations	-10606
▁undergraduate	-10607
1N	-10608
Te	-10609
ept	-10610
log	-10611
ola	-10612
▁ot	-10613
tory	-10614
udon	-10615
▁din	-10616
▁goo	-10617
▁mug	-10618
orous	-10619
▁Chem	-10620
▁dism	-10621
▁heal	-10622
▁stew	-10623
▁tidy	-10624
▁idiom	-10625
▁weigh	-10626
▁Israel	-10627
▁basket	-10628
▁ginger	-10629
▁rescue	-10630
▁sample	-10631
▁settle	-10632
▁stared	-10633
▁statue	-10634
cription	-10635
▁Academy	-10636
▁Network	-10637
▁Project	-10638
▁blowing	-10639
▁founded	-10640
▁recruit	-10641
▁coverage	-10642
▁database	-10643
▁operates	-10644
▁requests	-10645
▁cancelled	-10646
▁corporate	-10647
▁initially	-10648
▁corruption	-10649
▁nationality	-10650
▁accessibility	-10651
-A	-10652
-W	-10653
MB	-10654
py	-10655
afe	-10656
keys	-10657
unes	-10658
▁120	-10659
▁LOL	-10660
▁bug	-10661
▁syn	-10662
elled	-10663
worth	-10664
▁Arch	-10665
▁Bank	-10666
▁Camb	-10667
▁Full	-10668
▁bark	-10669
▁litt	-10670
▁nest	-10671
▁snee	-10672
▁unav	-10673
▁vary	-10674
icular	-10675
ighter	-10676
▁Break	-10677
▁Think	-10678
▁purse	-10679
▁Martin	-10680
▁Seeing	-10681
▁Square	-10682
▁apples	-10683
▁indisp	-10684
▁porcel	-10685
▁Asakusa	-10686
▁escaped	-10687
▁travels	-10688
chnology/	-10689
▁fabulous	-10690
▁imported	-10691
▁strictly	-10692
▁accompany	-10693
▁associate	-10694
▁cosmetics	-10695
▁interface	-10696
▁stimulate	-10697
▁Governments	-10698
▁devastating	-10699
▁interpreter	-10700
37	-10701
Re	-10702
uto	-10703
▁48	-10704
bean	-10705
▁BEC	-10706
▁H1N	-10707
ander	-10708
otect	-10709
▁....	-10710
▁1970	-10711
▁fame	-10712
▁vamp	-10713
carina	-10714
▁Dutch	-10715
▁cable	-10716
▁cheek	-10717
▁puppy	-10718
▁queue	-10719
▁sadly	-10720
▁sorts	-10721
▁tires	-10722
igation	-10723
▁burger	-10724
▁devote	-10725
▁athletic	-10726
▁dramatic	-10727
▁Cantonese	-10728
▁Very-High	-10729
▁enjoyment	-10730
▁housewife	-10731
▁discipline	-10732
▁reasonably	-10733
▁inexpensive	-10734
▁refrigerators	-10735
/t	-10736
acc	-10737
▁o'	-10738
gies	-10739
oves	-10740
▁Inf	-10741
▁nom	-10742
▁re-	-10743
▁wow	-10744
agine	-10745
overs	-10746
▁Base	-10747
▁Find	-10748
▁Ichi	-10749
▁Read	-10750
▁Soft	-10751
▁Trad	-10752
▁gang	-10753
▁murd	-10754
amples	-10755
igraph	-10756
mentia	-10757
Genetic	-10758
lectric	-10759
minutes	-10760
▁Direct	-10761
▁donate	-10762
▁govern	-10763
▁hunger	-10764
▁lessen	-10765
▁microp	-10766
▁wooden	-10767
▁accomod	-10768
▁blanket	-10769
▁sandwic	-10770
▁Birthday	-10771
▁failures	-10772
▁hardship	-10773
▁insisted	-10774
▁princess	-10775
▁supplies	-10776
▁overslept	-10777
▁porcelain	-10778
▁exchanging	-10779
▁thoroughly	-10780
▁confortable	-10781
-water-cooled	-10782
▁considerably	-10783
▁environments	-10784
07	-10785
28	-10786
gas	-10787
kai	-10788
oly	-10789
▁ox	-10790
▁Kaw	-10791
▁Xia	-10792
▁aer	-10793
field	-10794
olite	-10795
▁Phil	-10796
▁caps	-10797
▁slip	-10798
acause	-10799
▁Final	-10800
▁Roman	-10801
▁comma	-10802
▁poems	-10803
Nuclear	-10804
▁county	-10805
▁thirst	-10806
▁weekly	-10807
▁Account	-10808
▁Article	-10809
▁Izakaya	-10810
▁cheered	-10811
▁o'clock	-10812
▁recipes	-10813
▁stepped	-10814
▁category	-10815
▁sections	-10816
▁shipping	-10817
▁stopping	-10818
▁Everytime	-10819
▁demanding	-10820
▁dumplings	-10821
▁expanding	-10822
▁impatient	-10823
▁resistant	-10824
▁categories	-10825
▁organizing	-10826
▁Considering	-10827
▁destruction	-10828
▁Identification	-10829
6-	-10830
IQ	-10831
aple	-10832
ilst	-10833
ints	-10834
opus	-10835
oret	-10836
with	-10837
▁BTW	-10838
▁CAN	-10839
▁Mis	-10840
▁Tam	-10841
▁eel	-10842
▁tab	-10843
iated	-10844
uther	-10845
▁18th	-10846
▁30am	-10847
▁Anim	-10848
▁H1N1	-10849
▁Jose	-10850
▁Keep	-10851
▁thir	-10852
giving	-10853
▁Girls	-10854
▁Given	-10855
▁shoud	-10856
▁stall	-10857
essions	-10858
ivalent	-10859
▁Castle	-10860
▁gender	-10861
▁machin	-10862
▁monkey	-10863
▁satell	-10864
▁smoker	-10865
▁wether	-10866
▁mixture	-10867
▁persuade	-10868
▁promises	-10869
▁theories	-10870
▁involving	-10871
▁Basketball	-10872
▁Management	-10873
▁psychologist	-10874
▁confidentiality	-10875
-F	-10876
dis	-10877
▁44	-10878
▁GO	-10879
▁I'	-10880
▁yo	-10881
onal	-10882
rine	-10883
▁Tot	-10884
▁Zac	-10885
▁bac	-10886
▁ble	-10887
▁fer	-10888
▁fow	-10889
storm	-10890
▁Mach	-10891
▁Salt	-10892
▁gymn	-10893
▁seed	-10894
people	-10895
▁avail	-10896
igraphy	-10897
natural	-10898
▁Oxford	-10899
▁harmon	-10900
▁simult	-10901
-powered	-10902
▁Ireland	-10903
▁Studies	-10904
▁chapter	-10905
▁ocarina	-10906
▁pushing	-10907
▁skipped	-10908
▁Administ	-10909
▁Hydrogen	-10910
▁deserves	-10911
▁hangover	-10912
▁shouting	-10913
▁butterfly	-10914
▁occasions	-10915
▁Television	-10916
▁approaches	-10917
▁substances	-10918
▁institution	-10919
▁unexpectedly	-10920
/E	-10921
/en	-10922
iat	-10923
rum	-10924
amic	-10925
▁Put	-10926
allow	-10927
iniku	-10928
▁HAVE	-10929
▁Iran	-10930
▁Live	-10931
▁blew	-10932
▁glob	-10933
-based	-10934
▁Heart	-10935
▁spoon	-10936
ensable	-10937
▁Anyone	-10938
▁locked	-10939
▁purple	-10940
▁waiter	-10941
▁yogurt	-10942
/article	-10943
▁Niigata	-10944
▁auction	-10945
▁faculty	-10946
▁kidding	-10947
▁leakage	-10948
▁spectac	-10949
opulation	-10950
▁advertis	-10951
▁costumes	-10952
▁operated	-10953
▁behaviors	-10954
▁emphasize	-10955
▁hairstyle	-10956
▁officials	-10957
▁selecting	-10958
▁travelled	-10959
▁conversion	-10960
▁backgrounds	-10961
▁celebrating	-10962
▁immigration	-10963
▁entertaining	-10964
.com.libproxy1	-10965
▁inconvenience	-10966
_p	-10967
bey	-10968
hic	-10969
ila	-10970
▁ky	-10971
▁ALL	-10972
▁Dub	-10973
▁Ike	-10974
▁Maj	-10975
▁pin	-10976
ffect	-10977
▁dele	-10978
▁desp	-10979
▁pref	-10980
▁wins	-10981
bukuro	-10982
weight	-10983
▁cared	-10984
▁rumor	-10985
▁Always	-10986
▁Middle	-10987
▁Narita	-10988
▁insert	-10989
▁tought	-10990
▁Airport	-10991
▁Council	-10992
▁acceler	-10993
▁collaps	-10994
▁natives	-10995
▁privile	-10996
▁Normally	-10997
▁approval	-10998
▁defeated	-10999
▁addressed	-11000
▁gentleman	-11001
▁astonished	-11002
▁supporters	-11003
▁controversy	-11004
▁discussions	-11005
▁misunderstood	-11006
BM	-11007
URE	-11008
cys	-11009
mar	-11010
▁36	-11011
▁39	-11012
▁AD	-11013
▁JP	-11014
▁kg	-11015
rows	-11016
▁Jac	-11017
▁MRT	-11018
▁NAS	-11019
▁Sal	-11020
▁ink	-11021
chede	-11022
chers	-11023
isted	-11024
oting	-11025
▁Song	-11026
▁dece	-11027
▁grey	-11028
▁hook	-11029
▁offs	-11030
▁sees	-11031
▁tale	-11032
▁vend	-11033
▁Found	-11034
▁aloud	-11035
▁reads	-11036
▁sixth	-11037
▁sixty	-11038
▁Cambod	-11039
▁blamed	-11040
▁organs	-11041
▁splend	-11042
▁worthy	-11043
▁dilemma	-11044
▁recycled	-11045
▁unlikely	-11046
▁occurring	-11047
▁components	-11048
▁containing	-11049
▁medication	-11050
▁illustration	-11051
▁organisation	-11052
aze	-11053
▁CV	-11054
▁LO	-11055
▁COM	-11056
▁Jin	-11057
▁hey	-11058
▁oxy	-11059
books	-11060
ieves	-11061
issed	-11062
lings	-11063
▁Alth	-11064
▁Cars	-11065
▁desu	-11066
▁lend	-11067
▁mort	-11068
▁pert	-11069
opedia	-11070
▁Light	-11071
▁alway	-11072
▁globe	-11073
▁hates	-11074
▁ignor	-11075
▁snake	-11076
▁spons	-11077
▁stole	-11078
itional	-11079
▁U.S.A.	-11080
▁quarre	-11081
▁theirs	-11082
▁comunic	-11083
▁forests	-11084
▁gardens	-11085
▁laptops	-11086
▁subsidy	-11087
▁superst	-11088
▁Interest	-11089
▁Economics	-11090
▁Professor	-11091
▁practising	-11092
▁Technologies	-11093
GL	-11094
P3	-11095
cr	-11096
tw	-11097
ett	-11098
han	-11099
ini	-11100
atal	-11101
itis	-11102
onge	-11103
roll	-11104
▁Exc	-11105
▁rug	-11106
erver	-11107
hield	-11108
imasu	-11109
omore	-11110
pread	-11111
sians	-11112
▁Mass	-11113
▁Near	-11114
▁Nick	-11115
▁yuan	-11116
▁Champ	-11117
▁asset	-11118
▁cafes	-11119
▁cares	-11120
grading	-11121
lements	-11122
▁Soviet	-11123
▁seller	-11124
▁Finance	-11125
▁agencies	-11126
▁cellular	-11127
▁convince	-11128
▁monetary	-11129
▁pensions	-11130
▁preserve	-11131
▁memorable	-11132
▁purchased	-11133
▁unpredict	-11134
▁Healthcare	-11135
▁politician	-11136
▁recognition	-11137
.org/info/inf	-11138
▁conservative	-11139
▁participation	-11140
▁conversational	-11141
99	-11142
aa	-11143
AKE	-11144
OOK	-11145
lar	-11146
▁66	-11147
-age	-11148
anas	-11149
▁cic	-11150
acuse	-11151
bsite	-11152
peror	-11153
▁Bali	-11154
▁dign	-11155
▁gest	-11156
▁nons	-11157
▁scan	-11158
ashimi	-11159
ercise	-11160
▁Clear	-11161
▁amate	-11162
▁angel	-11163
▁banks	-11164
▁femal	-11165
▁grace	-11166
▁wides	-11167
▁defeat	-11168
▁liquor	-11169
▁plural	-11170
▁prejud	-11171
▁vacuum	-11172
▁wheels	-11173
▁oversea	-11174
▁returns	-11175
▁reunion	-11176
▁roughly	-11177
▁slipped	-11178
▁soldier	-11179
▁unclear	-11180
▁Mountain	-11181
▁beatiful	-11182
▁indicate	-11183
▁officers	-11184
▁opposing	-11185
▁recieved	-11186
▁Apparently	-11187
▁penicillin	-11188
▁traditions	-11189
▁ultimately	-11190
▁accessories	-11191
▁populations	-11192
▁consequently	-11193
▁extraordinary	-11194
4/	-11195
68	-11196
iw	-11197
rc	-11198
ORE	-11199
web	-11200
▁MO	-11201
arer	-11202
atha	-11203
avor	-11204
oman	-11205
▁Say	-11206
▁kne	-11207
▁30th	-11208
▁Cook	-11209
▁Hang	-11210
▁Holl	-11211
▁Shir	-11212
▁quiz	-11213
▁saus	-11214
▁sink	-11215
▁trop	-11216
ulance	-11217
▁Daily	-11218
▁pilot	-11219
▁recre	-11220
▁winds	-11221
ression	-11222
roadmap	-11223
▁Ichiro	-11224
▁Senior	-11225
▁editor	-11226
▁exclud	-11227
▁heated	-11228
▁mutual	-11229
▁poured	-11230
▁racing	-11231
▁thrown	-11232
▁//news.	-11233
▁broaden	-11234
▁focuses	-11235
▁majored	-11236
▁staring	-11237
▁Football	-11238
▁enrolled	-11239
▁producer	-11240
▁//nuclear	-11241
▁celebrity	-11242
▁Disneyland	-11243
▁apparently	-11244
▁organising	-11245
▁prohibited	-11246
▁repeatedly	-11247
▁arrangement	-11248
▁interviewer	-11249
▁Organization	-11250
▁contemporary	-11251
.8	-11252
cia	-11253
isk	-11254
tic	-11255
uta	-11256
▁AV	-11257
▁oy	-11258
asue	-11259
hiko	-11260
ulse	-11261
▁Gal	-11262
▁Hat	-11263
▁PSP	-11264
▁mal	-11265
▁uni	-11266
topic	-11267
▁fate	-11268
▁rebu	-11269
▁shoe	-11270
abetes	-11271
anches	-11272
sticks	-11273
▁Finan	-11274
▁Sally	-11275
▁escal	-11276
▁frust	-11277
▁noted	-11278
▁slide	-11279
▁logged	-11280
▁undert	-11281
▁Product	-11282
▁Turkish	-11283
▁congest	-11284
▁desired	-11285
▁females	-11286
▁haircut	-11287
▁smokers	-11288
▁Republic	-11289
▁eyesight	-11290
▁generous	-11291
▁muscular	-11292
▁splendid	-11293
▁Different	-11294
▁analyzing	-11295
▁luxurious	-11296
▁marvelous	-11297
▁submitted	-11298
▁somethings	-11299
▁Maintenance	-11300
▁accommodate	-11301
▁hardworking	-11302
▁acquaintance	-11303
▁indispensable	-11304
▁understandable	-11305
AV	-11306
BS	-11307
bbc	-11308
nia	-11309
tub	-11310
▁AK	-11311
▁Di	-11312
fing	-11313
mail	-11314
quet	-11315
uros	-11316
▁Ban	-11317
▁Lot	-11318
▁OMG	-11319
▁Tay	-11320
▁gro	-11321
▁saf	-11322
▁ske	-11323
cribe	-11324
▁Diff	-11325
▁Town	-11326
▁enab	-11327
▁jail	-11328
▁shif	-11329
velope	-11330
▁Fukui	-11331
▁Yahoo	-11332
▁alien	-11333
▁calor	-11334
▁waked	-11335
▁Corpor	-11336
▁bakery	-11337
▁humble	-11338
▁nostal	-11339
▁praise	-11340
▁solely	-11341
▁titles	-11342
▁Library	-11343
▁Weather	-11344
▁Welcome	-11345
▁amusing	-11346
▁enemies	-11347
▁perfume	-11348
▁avoiding	-11349
▁blackout	-11350
▁decorate	-11351
▁happiest	-11352
▁occupied	-11353
▁prevents	-11354
▁affection	-11355
▁alcoholic	-11356
▁diverting	-11357
▁intensive	-11358
▁prototype	-11359
▁well-being	-11360
▁conventionally	-11361
-to	-11362
.cn	-11363
IEC	-11364
dog	-11365
ige	-11366
▁Fre	-11367
▁bri	-11368
▁nod	-11369
ashes	-11370
esity	-11371
glass	-11372
icked	-11373
ikido	-11374
▁26th	-11375
▁Belg	-11376
▁buss	-11377
▁deer	-11378
▁neut	-11379
▁outf	-11380
▁soba	-11381
culiar	-11382
▁Jones	-11383
▁Ocean	-11384
▁Titan	-11385
▁fears	-11386
▁grasp	-11387
▁hired	-11388
▁lemon	-11389
▁renov	-11390
▁wider	-11391
▁crowds	-11392
▁defend	-11393
▁vessel	-11394
children	-11395
▁Charles	-11396
▁browser	-11397
▁council	-11398
▁elegant	-11399
▁targets	-11400
▁Recentry	-11401
▁absorbed	-11402
▁develops	-11403
▁mistaken	-11404
▁achieving	-11405
▁authority	-11406
▁approached	-11407
▁compromise	-11408
▁inspection	-11409
▁specialist	-11410
▁watermelon	-11411
▁widespread	-11412
▁agriculture	-11413
/b	-11414
LI	-11415
MA	-11416
uu	-11417
IFE	-11418
bal	-11419
kon	-11420
▁42	-11421
.nih	-11422
bank	-11423
ctic	-11424
nuts	-11425
onda	-11426
rous	-11427
▁900	-11428
▁Ash	-11429
▁Bay	-11430
▁KFC	-11431
▁Swe	-11432
▁p.m	-11433
▁ted	-11434
ierce	-11435
tedly	-11436
▁Kate	-11437
▁Leon	-11438
▁Nort	-11439
▁Sand	-11440
▁eyel	-11441
▁puri	-11442
▁triv	-11443
change	-11444
inator	-11445
▁bones	-11446
▁chill	-11447
▁vague	-11448
▁Kimono	-11449
▁Tennis	-11450
▁Thomas	-11451
▁barber	-11452
▁kilogr	-11453
▁oxygen	-11454
▁poetry	-11455
▁puzzle	-11456
▁roller	-11457
▁turtle	-11458
▁Hunting	-11459
▁bathtub	-11460
▁crossed	-11461
▁divorce	-11462
▁threats	-11463
▁entitled	-11464
▁exploded	-11465
▁writings	-11466
/documents	-11467
▁memorized	-11468
▁Restaurant	-11469
▁incredibly	-11470
▁sandwiches	-11471
▁unemployed	-11472
▁drastically	-11473
▁constructing	-11474
▁expenditures	-11475
UB	-11476
nge	-11477
nig	-11478
ras	-11479
▁SF	-11480
brev	-11481
stat	-11482
user	-11483
▁Far	-11484
▁sib	-11485
▁sut	-11486
ockey	-11487
ubble	-11488
▁Guam	-11489
▁Lord	-11490
▁MCYS	-11491
▁arom	-11492
▁craw	-11493
▁inqu	-11494
months	-11495
▁belly	-11496
▁cured	-11497
▁grant	-11498
▁inhab	-11499
▁owned	-11500
▁toxic	-11501
▁unden	-11502
▁wrist	-11503
▁Eating	-11504
▁dances	-11505
▁enjoys	-11506
▁finals	-11507
▁monkeys	-11508
▁scratch	-11509
▁shrines	-11510
▁simpler	-11511
▁watches	-11512
▁Remember	-11513
▁examined	-11514
▁humanity	-11515
▁incurred	-11516
▁invasion	-11517
▁isolated	-11518
▁peculiar	-11519
▁restroom	-11520
▁sympathy	-11521
▁answering	-11522
▁magnitude	-11523
▁integrated	-11524
▁supplement	-11525
▁accompanied	-11526
▁observation	-11527
▁temporarily	-11528
▁instructions	-11529
95	-11530
INA	-11531
▁Ce	-11532
▁Wi	-11533
Book	-11534
izer	-11535
▁Cop	-11536
▁DOE	-11537
▁Dan	-11538
▁dic	-11539
hesis	-11540
oster	-11541
▁1994	-11542
▁28th	-11543
▁pile	-11544
▁rehe	-11545
▁Camer	-11546
▁Charl	-11547
▁Toeic	-11548
▁defic	-11549
▁Access	-11550
▁dragon	-11551
▁salmon	-11552
▁string	-11553
oubtedly	-11554
▁Imagine	-11555
▁Student	-11556
▁destiny	-11557
▁fluency	-11558
▁masterp	-11559
▁packing	-11560
▁barriers	-11561
▁pressing	-11562
▁scenario	-11563
▁conflicts	-11564
▁applicants	-11565
▁satisfying	-11566
▁exhibitions	-11567
▁remembering	-11568
▁specialized	-11569
▁communications	-11570
▁competitiveness	-11571
DA	-11572
▁Got	-11573
▁Kum	-11574
▁cot	-11575
▁coz	-11576
▁Bull	-11577
▁Cath	-11578
▁Flor	-11579
▁Form	-11580
▁Lost	-11581
▁WITH	-11582
▁damn	-11583
▁guns	-11584
▁hits	-11585
▁pine	-11586
▁stem	-11587
▁thai	-11588
▁Saint	-11589
▁Sarah	-11590
▁folks	-11591
▁rehab	-11592
▁truck	-11593
berries	-11594
portant	-11595
▁Alison	-11596
▁Silver	-11597
▁abbrev	-11598
▁fridge	-11599
▁onions	-11600
▁parked	-11601
▁closest	-11602
▁bacteria	-11603
▁donation	-11604
▁ensuring	-11605
▁printing	-11606
▁screamed	-11607
▁severely	-11608
▁survived	-11609
▁treating	-11610
▁postponed	-11611
▁sophomore	-11612
▁Democratic	-11613
▁hamburgers	-11614
▁genetically	-11615
▁manufacturers	-11616
PT	-11617
ERE	-11618
USE	-11619
rav	-11620
▁PL	-11621
▁QQ	-11622
▁SE	-11623
▁um	-11624
iens	-11625
▁Die	-11626
▁Mod	-11627
▁pap	-11628
cakes	-11629
liest	-11630
rency	-11631
umped	-11632
▁2014	-11633
▁Hung	-11634
▁Word	-11635
▁Chile	-11636
▁Peace	-11637
▁Seven	-11638
▁colon	-11639
▁dealt	-11640
▁meats	-11641
▁walks	-11642
.com/st	-11643
▁assets	-11644
▁buried	-11645
▁exited	-11646
▁hiring	-11647
▁tissue	-11648
▁amongst	-11649
bbc.co.uk	-11650
fficiency	-11651
▁artistic	-11652
▁delicate	-11653
▁outdoors	-11654
▁sentense	-11655
▁terminal	-11656
▁withdraw	-11657
▁Financial	-11658
▁ambulance	-11659
▁favorites	-11660
▁voluntary	-11661
cys.gov.sg/	-11662
▁directions	-11663
▁furthermore	-11664
▁certification	-11665
▁unpredictable	-11666
_s	-11667
AST	-11668
IVE	-11669
▁AR	-11670
▁CA	-11671
into	-11672
ushu	-11673
▁Att	-11674
▁Dar	-11675
▁Dri	-11676
▁Rub	-11677
▁Unf	-11678
▁bay	-11679
▁nut	-11680
rieve	-11681
▁Anne	-11682
▁barg	-11683
▁beha	-11684
▁burd	-11685
▁pear	-11686
▁Eiken	-11687
▁flaws	-11688
▁fragr	-11689
▁grape	-11690
▁pitch	-11691
▁Famous	-11692
▁bosses	-11693
▁chairs	-11694
▁divide	-11695
▁drives	-11696
▁fertil	-11697
▁permit	-11698
▁shrimp	-11699
▁tricks	-11700
▁intrest	-11701
▁quietly	-11702
▁trading	-11703
▁Building	-11704
▁Michigan	-11705
▁Spending	-11706
▁Yamagata	-11707
▁informal	-11708
▁Following	-11709
▁Ikebukuro	-11710
▁conductor	-11711
▁screaming	-11712
▁substance	-11713
▁Scientists	-11714
▁biological	-11715
▁Okonomiyaki	-11716
▁controlling	-11717
▁desperately	-11718
▁frustrating	-11719
▁potentially	-11720
▁recommendations	-11721
/e	-11722
CD	-11723
_t	-11724
sn	-11725
eda	-11726
ete	-11727
sey	-11728
▁FR	-11729
itro	-11730
zech	-11731
▁Ant	-11732
▁Bib	-11733
▁Del	-11734
▁Jew	-11735
▁Leg	-11736
▁Ros	-11737
▁han	-11738
▁Dani	-11739
▁NASA	-11740
▁Prin	-11741
▁Prop	-11742
▁TIME	-11743
▁Trip	-11744
▁rack	-11745
▁sooo	-11746
course	-11747
▁shool	-11748
▁adject	-11749
▁betray	-11750
▁corros	-11751
▁exceed	-11752
▁exclus	-11753
▁notion	-11754
▁prayed	-11755
▁rubber	-11756
▁shapes	-11757
▁trends	-11758
▁obliged	-11759
▁prolong	-11760
▁vending	-11761
.inl.gov/	-11762
▁downturn	-11763
▁foremost	-11764
▁minority	-11765
▁utilized	-11766
▁Kagoshima	-11767
▁timetable	-11768
Engineering	-11769
▁Indonesian	-11770
▁acceptance	-11771
▁evaluation	-11772
▁exhausting	-11773
▁weaknesses	-11774
▁Examination	-11775
▁enterprises	-11776
75	-11777
ELL	-11778
▁08	-11779
▁CL	-11780
mble	-11781
ulpt	-11782
yaki	-11783
▁Ira	-11784
▁fle	-11785
▁hyd	-11786
aceut	-11787
techn	-11788
▁Baby	-11789
▁UNIQ	-11790
▁irre	-11791
▁loan	-11792
▁Liber	-11793
▁Linux	-11794
▁Movie	-11795
▁invis	-11796
▁maths	-11797
▁roots	-11798
▁ships	-11799
▁Church	-11800
▁carrot	-11801
▁foward	-11802
▁modify	-11803
▁priest	-11804
▁Culture	-11805
▁Eastern	-11806
▁Overall	-11807
▁Website	-11808
▁beliefs	-11809
▁captain	-11810
▁careers	-11811
▁scolded	-11812
▁appropri	-11813
▁cheering	-11814
▁dropping	-11815
▁landlord	-11816
▁obstacle	-11817
▁tropical	-11818
▁homeworks	-11819
▁libraries	-11820
▁Originally	-11821
▁equivalent	-11822
▁maintained	-11823
▁Australians	-11824
KS	-11825
iga	-11826
cell	-11827
erer	-11828
iked	-11829
▁250	-11830
▁wip	-11831
phony	-11832
▁dive	-11833
▁fist	-11834
▁hers	-11835
▁sigh	-11836
▁span	-11837
approp	-11838
plants	-11839
▁Jason	-11840
▁Media	-11841
▁Short	-11842
▁advis	-11843
▁depth	-11844
▁drops	-11845
▁label	-11846
▁natto	-11847
▁quote	-11848
.com/sc	-11849
iations	-11850
▁Consum	-11851
▁Shakes	-11852
▁buffet	-11853
▁Current	-11854
▁beating	-11855
▁curtain	-11856
▁desktop	-11857
▁hottest	-11858
▁reconst	-11859
▁trivial	-11860
▁branches	-11861
▁diabetes	-11862
▁memorial	-11863
▁profound	-11864
▁sacrific	-11865
▁stereoty	-11866
▁affecting	-11867
▁consisted	-11868
▁expertise	-11869
▁infection	-11870
▁Commission	-11871
▁connecting	-11872
▁departments	-11873
-S	-11874
-a	-11875
.0	-11876
OB	-11877
omo	-11878
wed	-11879
▁03	-11880
▁3G	-11881
▁ol	-11882
emed	-11883
wich	-11884
▁Fer	-11885
▁Lab	-11886
▁tan	-11887
▁ven	-11888
lined	-11889
weeks	-11890
▁1960	-11891
▁Mong	-11892
▁cave	-11893
▁holy	-11894
▁wich	-11895
▁wrap	-11896
liness	-11897
master	-11898
rating	-11899
rupted	-11900
visory	-11901
▁Aichi	-11902
▁boast	-11903
▁domin	-11904
veloped	-11905
▁absorb	-11906
▁backed	-11907
▁browse	-11908
▁cookie	-11909
▁hinder	-11910
▁modest	-11911
▁sculpt	-11912
▁terrif	-11913
▁Graying	-11914
▁amateur	-11915
▁combine	-11916
▁cricket	-11917
▁eclipse	-11918
▁exiting	-11919
▁failing	-11920
▁obesity	-11921
▁opposed	-11922
▁readily	-11923
uccessful	-11924
▁Advisory	-11925
▁Cambodia	-11926
▁dialogue	-11927
▁instruct	-11928
▁rational	-11929
▁Diffusion	-11930
▁Universal	-11931
▁animations	-11932
▁perception	-11933
▁congratulate	-11934
▁qualifications	-11935
49	-11936
bi	-11937
ika	-11938
omi	-11939
▁CS	-11940
▁DC	-11941
▁Iv	-11942
▁mp	-11943
uase	-11944
zona	-11945
▁Joe	-11946
▁Luc	-11947
▁Tar	-11948
▁WOR	-11949
▁esp	-11950
enter	-11951
words	-11952
▁Down	-11953
▁GOOD	-11954
▁stab	-11955
ophone	-11956
▁Stand	-11957
▁Willi	-11958
▁heads	-11959
▁lacks	-11960
▁legis	-11961
▁poses	-11962
▁rocks	-11963
▁woods	-11964
entions	-11965
▁Coffee	-11966
▁Prince	-11967
▁dancer	-11968
▁grapes	-11969
▁palace	-11970
▁Arizona	-11971
▁Further	-11972
▁assumed	-11973
▁devoted	-11974
▁eastern	-11975
▁knocked	-11976
▁suspect	-11977
▁mutation	-11978
▁economies	-11979
▁consultant	-11980
▁decoration	-11981
▁landscapes	-11982
▁prosperity	-11983
▁Administration	-11984
▁simultaneously	-11985
END	-11986
IES	-11987
OME	-11988
OUN	-11989
sih	-11990
aver	-11991
iden	-11992
kong	-11993
uine	-11994
▁Dam	-11995
▁III	-11996
▁Key	-11997
▁Ult	-11998
▁sav	-11999
ensus	-12000
▁Half	-12001
▁clip	-12002
▁rewr	-12003
▁chart	-12004
▁eleph	-12005
▁haird	-12006
▁peach	-12007
▁towel	-12008
▁wound	-12009
▁Muslim	-12010
▁boxing	-12011
▁engage	-12012
▁spouse	-12013
▁viable	-12014
▁weaker	-12015
▁//www.h	-12016
▁calorie	-12017
▁capture	-12018
▁revenge	-12019
▁visitor	-12020
▁wrapped	-12021
effective	-12022
▁Practice	-12023
▁Takoyaki	-12024
▁animated	-12025
▁bachelor	-12026
▁operator	-12027
▁secretly	-12028
▁villages	-12029
▁alleviate	-12030
▁committee	-12031
▁fortunate	-12032
▁indicated	-12033
▁apologized	-12034
▁criticized	-12035
▁functional	-12036
▁journalist	-12037
▁regulation	-12038
▁advancements	-12039
▁intervention	-12040
OY	-12041
eb	-12042
ORT	-12043
ibi	-12044
....	-12045
.stm	-12046
educ	-12047
jing	-12048
oust	-12049
text	-12050
▁Dev	-12051
▁Ram	-12052
arter	-12053
green	-12054
▁1950	-12055
▁BECA	-12056
▁Dise	-12057
▁Hans	-12058
▁Iraq	-12059
▁Sent	-12060
▁deaf	-12061
▁emit	-12062
▁scat	-12063
▁shit	-12064
▁swit	-12065
▁toug	-12066
▁bears	-12067
▁pains	-12068
▁perse	-12069
▁units	-12070
▁Temple	-12071
▁brains	-12072
▁cooker	-12073
▁faults	-12074
▁gloves	-12075
▁panels	-12076
▁pillow	-12077
▁raises	-12078
▁ruined	-12079
▁sticky	-12080
▁strive	-12081
▁Angeles	-12082
▁gallery	-12083
▁periods	-12084
▁pudding	-12085
▁symptom	-12086
▁Medicine	-12087
▁approved	-12088
▁comedian	-12089
▁energies	-12090
▁pharmacy	-12091
▁attendant	-12092
▁instantly	-12093
▁tiredness	-12094
▁eliminated	-12095
▁youngsters	-12096
▁grammatically	-12097
▁neighbourhood	-12098
47	-12099
ERS	-12100
IST	-12101
nut	-12102
oli	-12103
▁Ra	-12104
lock	-12105
rick	-12106
yoza	-12107
▁Nin	-12108
▁Wal	-12109
▁cul	-12110
▁nan	-12111
▁pp.	-12112
▁sud	-12113
akana	-12114
ifies	-12115
▁1500	-12116
▁Geor	-12117
▁Jobs	-12118
▁Tanz	-12119
▁View	-12120
▁Yosh	-12121
▁bang	-12122
▁dies	-12123
▁drow	-12124
▁infl	-12125
▁ruin	-12126
cribed	-12127
▁Const	-12128
▁Incre	-12129
▁Lunch	-12130
▁Opera	-12131
▁deals	-12132
▁fails	-12133
▁malls	-12134
▁shots	-12135
▁theft	-12136
oration	-12137
▁UNIQLO	-12138
▁rolled	-12139
▁suited	-12140
▁whilst	-12141
▁BECAUSE	-12142
▁Holland	-12143
▁Somehow	-12144
▁assured	-12145
▁briefly	-12146
▁contrad	-12147
▁dignity	-12148
▁hurried	-12149
▁painter	-12150
▁Marathon	-12151
▁attracts	-12152
▁manpower	-12153
▁mornings	-12154
▁relating	-12155
▁reporter	-12156
▁airplanes	-12157
▁evolution	-12158
▁strongest	-12159
▁comunicate	-12160
▁inadequate	-12161
▁accomodation	-12162
▁advertisment	-12163
▁disabilities	-12164
▁significance	-12165
.f	-12166
/v	-12167
2/	-12168
3/	-12169
HT	-12170
ALL	-12171
OST	-12172
▁09	-12173
▁85	-12174
▁Az	-12175
▁HE	-12176
acts	-12177
gami	-12178
▁Mao	-12179
▁Set	-12180
▁Sym	-12181
▁ank	-12182
▁cer	-12183
▁tub	-12184
▁vig	-12185
ained	-12186
▁Mrs.	-12187
▁Penn	-12188
▁beca	-12189
▁cans	-12190
▁cust	-12191
▁debt	-12192
6.html	-12193
arming	-12194
atched	-12195
ilians	-12196
obiles	-12197
▁Often	-12198
▁Saudi	-12199
▁Scott	-12200
▁genre	-12201
▁hypot	-12202
▁naked	-12203
▁rings	-12204
▁steep	-12205
▁sword	-12206
▁tiger	-12207
▁Agatha	-12208
▁facial	-12209
▁issued	-12210
▁lawyer	-12211
systems/	-12212
▁becasue	-12213
▁grabbed	-12214
▁ranking	-12215
▁unavoid	-12216
-4.org/Te	-12217
aceutical	-12218
▁accuracy	-12219
▁dementia	-12220
▁moderate	-12221
▁outgoing	-12222
▁portrait	-12223
▁punished	-12224
▁societal	-12225
▁uniforms	-12226
▁upstairs	-12227
▁Guangzhou	-12228
▁describes	-12229
▁invisible	-12230
▁specialty	-12231
▁spiritual	-12232
ogeneration	-12233
▁illustrate	-12234
▁compositions	-12235
▁volunteering	-12236
FA	-12237
UD	-12238
lv	-12239
ads	-12240
ags	-12241
oco	-12242
ran	-12243
▁HR	-12244
mers	-12245
▁Way	-12246
▁bio	-12247
▁hav	-12248
▁msn	-12249
▁tai	-12250
▁tum	-12251
plays	-12252
▁Past	-12253
▁Scot	-12254
▁knit	-12255
▁peel	-12256
▁refe	-12257
▁acute	-12258
▁advoc	-12259
▁chase	-12260
▁envir	-12261
▁freak	-12262
▁futon	-12263
▁infin	-12264
▁shore	-12265
uggling	-12266
▁Aikido	-12267
▁League	-12268
▁digest	-12269
▁farmer	-12270
▁fixing	-12271
▁glance	-12272
▁heared	-12273
▁hiding	-12274
▁hockey	-12275
▁nerves	-12276
▁phoned	-12277
▁powers	-12278
▁relate	-12279
▁sitcom	-12280
▁Finland	-12281
▁Florida	-12282
▁dischar	-12283
▁filling	-12284
▁heroine	-12285
▁protest	-12286
▁theoret	-12287
▁Genetics	-12288
▁boarding	-12289
▁divorced	-12290
▁Beautiful	-12291
▁accepting	-12292
▁confusion	-12293
▁challenged	-12294
▁combustion	-12295
▁corporation	-12296
▁demographic	-12297
CP	-12298
OGR	-12299
vin	-12300
▁2B	-12301
▁ka	-12302
▁oz	-12303
okes	-12304
onna	-12305
pled	-12306
tail	-12307
utan	-12308
yram	-12309
▁Hop	-12310
▁Pub	-12311
▁sar	-12312
-free	-12313
ayama	-12314
erate	-12315
iners	-12316
othes	-12317
▁Happ	-12318
▁Hell	-12319
▁Qing	-12320
▁beds	-12321
▁fits	-12322
▁gear	-12323
▁wage	-12324
/topic	-12325
herent	-12326
umbers	-12327
▁Faith	-12328
▁Honda	-12329
▁afflu	-12330
▁cashi	-12331
▁chess	-12332
▁hills	-12333
▁mount	-12334
▁shine	-12335
▁shook	-12336
▁sized	-12337
▁stove	-12338
mission	-12339
raining	-12340
▁Beside	-12341
▁Junior	-12342
▁albums	-12343
▁couldn	-12344
▁excurs	-12345
▁melted	-12346
▁tenses	-12347
▁beloved	-12348
▁genuine	-12349
▁partial	-12350
▁trusted	-12351
▁viewers	-12352
▁whoever	-12353
▁Manpower	-12354
▁Training	-12355
▁Victoria	-12356
▁covering	-12357
▁finishes	-12358
▁steadily	-12359
▁theaters	-12360
▁ultimate	-12361
▁audiences	-12362
▁partially	-12363
▁reflected	-12364
▁struggled	-12365
▁Innovation	-12366
▁assistants	-12367
▁hesitation	-12368
▁lifestyles	-12369
▁principles	-12370
▁purchasing	-12371
▁references	-12372
▁frustration	-12373
▁identifying	-12374
▁overwhelming	-12375
▁Supercritical-W	-12376
II	-12377
HER	-12378
Res	-12379
abu	-12380
ulu	-12381
▁BR	-12382
▁fu	-12383
Asia	-12384
aire	-12385
iton	-12386
lick	-12387
▁Bat	-12388
▁Fac	-12389
▁Nep	-12390
▁USD	-12391
▁Van	-12392
▁veg	-12393
GLISH	-12394
cream	-12395
heart	-12396
stein	-12397
▁Bern	-12398
▁Mess	-12399
▁proc	-12400
▁rect	-12401
▁synt	-12402
otatsu	-12403
unicip	-12404
▁Irish	-12405
▁conso	-12406
▁devil	-12407
▁imper	-12408
▁metro	-12409
▁nails	-12410
▁rises	-12411
▁scarf	-12412
▁swear	-12413
▁twins	-12414
keeping	-12415
ructure	-12416
▁Studio	-12417
▁assemb	-12418
▁detrim	-12419
▁patent	-12420
▁prince	-12421
▁richer	-12422
▁outline	-12423
▁prefect	-12424
▁rehabil	-12425
▁ringing	-12426
▁samurai	-12427
▁shuttle	-12428
▁suscept	-12429
▁Shakespe	-12430
▁consumed	-12431
▁historic	-12432
▁lighting	-12433
▁seasonal	-12434
▁sessions	-12435
▁sweating	-12436
▁appliance	-12437
▁campaigns	-12438
▁countless	-12439
▁criticize	-12440
▁geography	-12441
▁mushrooms	-12442
▁prominent	-12443
▁officially	-12444
▁univercity	-12445
▁handicapped	-12446
▁civilization	-12447
'T	-12448
/P	-12449
/hi	-12450
ART	-12451
fam	-12452
uru	-12453
▁43	-12454
ayed	-12455
eday	-12456
ishi	-12457
onds	-12458
tles	-12459
▁Dai	-12460
▁Dig	-12461
▁Hon	-12462
▁Isl	-12463
▁bou	-12464
▁cel	-12465
▁mp3	-12466
igers	-12467
▁LIFE	-12468
▁bugs	-12469
▁encl	-12470
▁lips	-12471
▁toll	-12472
▁Heath	-12473
▁Liter	-12474
▁angle	-12475
▁dread	-12476
▁pengu	-12477
▁salty	-12478
▁thief	-12479
channel	-12480
▁Andrew	-12481
▁Mobile	-12482
▁Palace	-12483
▁Season	-12484
▁Sounds	-12485
▁fierce	-12486
▁sleeps	-12487
▁visits	-12488
▁warned	-12489
▁Becouse	-12490
▁coaster	-12491
▁eagerly	-12492
▁exhaust	-12493
▁pouring	-12494
▁rehears	-12495
▁alphabet	-12496
▁cheating	-12497
▁coughing	-12498
▁determin	-12499
▁guidance	-12500
▁handmade	-12501
▁salaries	-12502
.com/news/	-12503
▁Countries	-12504
▁expansion	-12505
▁residence	-12506
▁travelers	-12507
▁unwilling	-12508
▁violation	-12509
▁waterfall	-12510
▁Philippine	-12511
▁chopsticks	-12512
kei	-12513
▁Bh	-12514
▁iT	-12515
cued	-12516
rant	-12517
vell	-12518
▁bee	-12519
▁blo	-12520
▁sho	-12521
▁vow	-12522
azawa	-12523
guard	-12524
ienna	-12525
naire	-12526
▁Card	-12527
▁Code	-12528
▁Java	-12529
▁Sher	-12530
▁Walk	-12531
▁arro	-12532
▁mock	-12533
▁udon	-12534
imited	-12535
▁Creat	-12536
▁merit	-12537
▁shamp	-12538
etition	-12539
▁Rather	-12540
▁combat	-12541
▁litter	-12542
▁noises	-12543
▁ENGLISH	-12544
▁Meeting	-12545
▁Morning	-12546
▁Sundays	-12547
▁adapted	-12548
▁bothers	-12549
▁console	-12550
▁deposit	-12551
▁freinds	-12552
▁harmony	-12553
▁imposed	-12554
▁resting	-12555
▁signals	-12556
▁corrects	-12557
▁speeches	-12558
▁Programme	-12559
▁competent	-12560
▁policeman	-12561
appropriate	-12562
▁classified	-12563
▁paperbacks	-12564
▁profitable	-12565
▁aftershocks	-12566
▁beautifully	-12567
▁friendships	-12568
▁appropriately	-12569
/H	-12570
ESS	-12571
OUS	-12572
/pro	-12573
oice	-12574
▁000	-12575
▁Jen	-12576
▁Miz	-12577
▁PCs	-12578
▁rac	-12579
.inel	-12580
/2/hi	-12581
month	-12582
owers	-12583
▁1033	-12584
▁Auth	-12585
▁budd	-12586
▁pays	-12587
▁Louis	-12588
▁couse	-12589
▁loser	-12590
▁mayor	-12591
▁nerve	-12592
▁owing	-12593
▁union	-12594
▁wings	-12595
▁Peters	-12596
▁beaten	-12597
▁bitten	-12598
▁sensor	-12599
▁elected	-12600
▁graying	-12601
▁magical	-12602
▁pumpkin	-12603
▁stylish	-12604
▁bankrupt	-12605
.inel.gov/	-12606
/topicpage	-12607
▁Frequency	-12608
▁bothering	-12609
▁collapsed	-12610
▁provision	-12611
▁depressing	-12612
▁neighboring	-12613
.com/scitable	-12614
▁corporations	-12615
bbc.co.uk/2/hi	-12616
▁20Engineering	-12617
▁unconsciously	-12618
42	-12619
ARA	-12620
CTV	-12621
ico	-12622
▁49	-12623
▁Ay	-12624
▁CG	-12625
▁ly	-12626
ease	-12627
helf	-12628
rail	-12629
▁Equ	-12630
▁Ext	-12631
▁GRE	-12632
▁Mer	-12633
▁Sak	-12634
▁Tax	-12635
▁Val	-12636
▁hmm	-12637
arbon	-12638
dings	-12639
oyama	-12640
▁22nd	-12641
▁27th	-12642
▁CCTV	-12643
▁Clin	-12644
▁Iron	-12645
▁Lisa	-12646
▁Soph	-12647
▁Yang	-12648
▁beet	-12649
▁conj	-12650
▁mang	-12651
▁mile	-12652
▁pand	-12653
▁sept	-12654
▁shin	-12655
astics	-12656
global	-12657
istant	-12658
▁Civil	-12659
▁Smart	-12660
▁ferry	-12661
▁jelly	-12662
▁shark	-12663
idences	-12664
▁Iphone	-12665
▁arises	-12666
▁guidel	-12667
-related	-12668
aturally	-12669
▁desires	-12670
▁inhabit	-12671
▁inherit	-12672
▁inspire	-12673
▁octopus	-12674
▁seaside	-12675
▁sunburn	-12676
▁wealthy	-12677
identally	-12678
ropolitan	-12679
▁Advanced	-12680
▁Engineer	-12681
▁Twilight	-12682
▁lifespan	-12683
▁oriented	-12684
▁Insurance	-12685
▁concluded	-12686
▁injection	-12687
▁responses	-12688
▁summarize	-12689
▁unlimited	-12690
▁attracting	-12691
▁publishing	-12692
▁Shakespeare	-12693
▁automobiles	-12694
▁lead-cooled	-12695
▁necessities	-12696
▁capabilities	-12697
▁independently	-12698
82	-12699
__	-12700
db	-12701
ede	-12702
▁AF	-12703
▁DJ	-12704
▁GW	-12705
▁IC	-12706
▁IK	-12707
agen	-12708
ucle	-12709
vere	-12710
▁Gun	-12711
▁Ill	-12712
▁SUM	-12713
▁abo	-12714
▁cro	-12715
▁fut	-12716
omori	-12717
opher	-12718
▁Prep	-12719
▁crab	-12720
▁mins	-12721
▁solo	-12722
▁torn	-12723
▁urge	-12724
ashing	-12725
former	-12726
rained	-12727
▁Andre	-12728
▁Dance	-12729
▁Plant	-12730
▁https	-12731
▁salts	-12732
▁twent	-12733
atories	-12734
feature	-12735
science	-12736
▁Budget	-12737
▁Change	-12738
▁Effect	-12739
▁Mongol	-12740
▁Shrine	-12741
▁aliens	-12742
▁bubble	-12743
▁disast	-12744
▁fabric	-12745
▁frined	-12746
ciations	-12747
▁//www.p	-12748
▁Congrat	-12749
▁Gallery	-12750
▁Samurai	-12751
▁Uranium	-12752
▁becuase	-12753
▁dynamic	-12754
▁heavier	-12755
▁swallow	-12756
▁trainer	-12757
▁Buddhism	-12758
▁Heritage	-12759
▁cosmetic	-12760
▁estimate	-12761
▁hardware	-12762
▁impolite	-12763
▁surgeons	-12764
▁calculate	-12765
▁precisely	-12766
▁satellite	-12767
▁beforehand	-12768
▁relaxation	-12769
▁vegetarian	-12770
▁connections	-12771
▁emotionally	-12772
▁flexibility	-12773
▁instruction	-12774
▁availability	-12775
▁nationalities	-12776
▁infrastructures	-12777
16	-12778
oi	-12779
OUT	-12780
fin	-12781
iac	-12782
▁AP	-12783
▁BC	-12784
▁CM	-12785
▁Ve	-12786
▁nu	-12787
▁si	-12788
assy	-12789
enth	-12790
▁Fle	-12791
▁Rev	-12792
▁ome	-12793
oment	-12794
riage	-12795
▁bout	-12796
▁cows	-12797
▁geek	-12798
▁lane	-12799
▁obey	-12800
▁poly	-12801
donald	-12802
hedral	-12803
▁cooks	-12804
▁overc	-12805
▁prost	-12806
▁revol	-12807
▁rival	-12808
fection	-12809
library	-12810
▁Karate	-12811
▁neglig	-12812
▁turkey	-12813
▁Archite	-12814
▁Natural	-12815
▁cashier	-12816
▁comming	-12817
▁confess	-12818
▁imitate	-12819
▁rolling	-12820
▁visible	-12821
liography	-12822
▁browsing	-12823
▁distress	-12824
▁nonsense	-12825
▁referred	-12826
▁allowance	-12827
▁belonging	-12828
▁decreases	-12829
▁diagnosis	-12830
▁drawbacks	-12831
▁inflation	-12832
▁monuments	-12833
▁attributed	-12834
▁coincidence	-12835
▁constraints	-12836
▁personalities	-12837
.7	-12838
▁°	-12839
AMA	-12840
APH	-12841
_in	-12842
agu	-12843
you	-12844
that	-12845
▁Suz	-12846
▁Yen	-12847
▁bis	-12848
▁tob	-12849
azine	-12850
cking	-12851
fting	-12852
ystem	-12853
▁Auss	-12854
▁Mixi	-12855
▁Soba	-12856
▁WILL	-12857
▁dubb	-12858
▁muff	-12859
▁p.m.	-12860
▁tens	-12861
▁3days	-12862
▁Merry	-12863
▁neckl	-12864
▁panel	-12865
english	-12866
▁Better	-12867
▁Michel	-12868
▁Native	-12869
▁Resort	-12870
▁closet	-12871
▁dissap	-12872
▁naught	-12873
▁pedest	-12874
▁//www.t	-12875
▁Clearly	-12876
▁Express	-12877
▁beacuse	-12878
▁defects	-12879
▁mosquit	-12880
▁shampoo	-12881
ictionary	-12882
▁ambition	-12883
▁bussiness	-12884
▁commented	-12885
▁component	-12886
▁secretary	-12887
▁Foundation	-12888
▁Huntington	-12889
▁occurrence	-12890
▁suspicious	-12891
hl	-12892
-it	-12893
ATE	-12894
oda	-12895
run	-12896
▁Ut	-12897
▁Ye	-12898
▁ah	-12899
▁fm	-12900
cano	-12901
▁FRI	-12902
▁Sat	-12903
▁Tok	-12904
▁Var	-12905
▁gam	-12906
▁lap	-12907
▁lip	-12908
▁ppl	-12909
angle	-12910
ighed	-12911
odate	-12912
otion	-12913
ouses	-12914
▁Gaga	-12915
▁Lion	-12916
▁Tree	-12917
▁outs	-12918
▁pars	-12919
okemon	-12920
orious	-12921
▁Citiz	-12922
▁Czech	-12923
▁Onsen	-12924
▁indul	-12925
▁moist	-12926
▁rugby	-12927
▁sence	-12928
▁affair	-12929
▁breads	-12930
▁cloths	-12931
▁funded	-12932
▁runner	-12933
▁Whereas	-12934
▁flowing	-12935
▁jewelry	-12936
▁adoption	-12937
▁globally	-12938
▁meantime	-12939
▁measured	-12940
▁nutshell	-12941
▁stresses	-12942
▁addiction	-12943
▁fashioned	-12944
▁informing	-12945
▁projected	-12946
▁schedules	-12947
▁allocation	-12948
▁commitment	-12949
▁disastrous	-12950
▁generators	-12951
▁microphone	-12952
▁oppotunity	-12953
▁preventive	-12954
▁discouraged	-12955
▁impressions	-12956
▁investigate	-12957
▁practically	-12958
▁unavoidable	-12959
▁catastrophic	-12960
▁conditioners	-12961
▁consciousness	-12962
▁encouragement	-12963
▁psychologists	-12964
5/	-12965
62	-12966
AW	-12967
ML	-12968
sa	-12969
RC&	-12970
bor	-12971
cgi	-12972
▁IF	-12973
-res	-12974
IECE	-12975
adas	-12976
hiro	-12977
moon	-12978
oked	-12979
roke	-12980
▁Kab	-12981
▁Moh	-12982
▁Six	-12983
arent	-12984
paper	-12985
▁Dist	-12986
▁Fant	-12987
▁apps	-12988
▁gods	-12989
▁wors	-12990
forced	-12991
▁Meiji	-12992
▁Sport	-12993
▁Video	-12994
▁blond	-12995
▁knees	-12996
▁naive	-12997
▁seawe	-12998
▁Colomb	-12999
▁Reason	-13000
▁Secret	-13001
▁busier	-13002
▁newcom	-13003
▁rating	-13004
▁refuge	-13005
▁spider	-13006
▁Highway	-13007
▁drought	-13008
▁fucking	-13009
▁infring	-13010
▁leaking	-13011
▁thereby	-13012
▁trapped	-13013
.nih.gov/	-13014
▁//www.ne	-13015
▁Swimming	-13016
▁displays	-13017
▁evenings	-13018
▁finances	-13019
▁compelled	-13020
▁diversity	-13021
▁locations	-13022
▁september	-13023
▁Faithfully	-13024
▁substitute	-13025
▁calligraphy	-13026
▁utilization	-13027
▁registration	-13028
▁questionnaire	-13029
D.	-13030
HA	-13031
MER	-13032
olo	-13033
war	-13034
▁3M	-13035
▁F.	-13036
▁Lu	-13037
▁Ol	-13038
2007	-13039
lett	-13040
onia	-13041
▁MBA	-13042
▁Pod	-13043
▁Umm	-13044
▁bin	-13045
▁hid	-13046
onies	-13047
think	-13048
▁1900	-13049
▁Blog	-13050
▁E.M.	-13051
▁Line	-13052
▁Wars	-13053
▁lamp	-13054
▁mere	-13055
▁pess	-13056
▁pier	-13057
▁terr	-13058
acious	-13059
icians	-13060
ndrome	-13061
▁Henry	-13062
▁Sadly	-13063
▁Vinci	-13064
▁alike	-13065
▁baths	-13066
▁hight	-13067
▁incom	-13068
▁nasty	-13069
▁payed	-13070
▁piled	-13071
▁self-	-13072
▁unint	-13073
unities	-13074
▁Custom	-13075
▁Giants	-13076
▁Police	-13077
▁baking	-13078
▁cruise	-13079
▁fisher	-13080
▁garage	-13081
▁senses	-13082
▁skirts	-13083
▁wander	-13084
security	-13085
▁Englsih	-13086
▁Keeping	-13087
▁burdens	-13088
▁debates	-13089
▁feather	-13090
▁runners	-13091
▁trigger	-13092
▁vinegar	-13093
▁knitting	-13094
▁laughter	-13095
▁chemicals	-13096
▁exploring	-13097
▁monitored	-13098
▁pertinent	-13099
urveillance	-13100
▁consulting	-13101
▁guaranteed	-13102
▁introduces	-13103
▁respective	-13104
▁undergoing	-13105
▁circulation	-13106
▁constitution	-13107
▁entrepreneurs	-13108
APP	-13109
won	-13110
▁54	-13111
ALLY	-13112
aday	-13113
from	-13114
▁Asa	-13115
▁Ess	-13116
▁Hik	-13117
▁Occ	-13118
▁Sex	-13119
▁Zoo	-13120
▁civ	-13121
/full	-13122
inson	-13123
plete	-13124
print	-13125
▁Conf	-13126
▁Dora	-13127
▁Obon	-13128
▁Pict	-13129
▁pubs	-13130
▁warn	-13131
amsung	-13132
person	-13133
▁Disco	-13134
▁Phill	-13135
▁brake	-13136
▁kitty	-13137
▁masks	-13138
▁mochi	-13139
▁punct	-13140
▁thats	-13141
station	-13142
▁Unless	-13143
▁checks	-13144
▁ethnic	-13145
▁marked	-13146
▁peaple	-13147
▁poorly	-13148
▁proves	-13149
▁serial	-13150
▁themes	-13151
▁traine	-13152
icularly	-13153
newsasia	-13154
▁Perfect	-13155
▁Physics	-13156
▁Titanic	-13157
▁bargain	-13158
▁credits	-13159
▁essence	-13160
▁melting	-13161
▁ongoing	-13162
▁pollute	-13163
▁relying	-13164
▁samples	-13165
▁sashimi	-13166
▁tedious	-13167
▁declared	-13168
▁floating	-13169
▁mosquito	-13170
▁podcasts	-13171
▁competing	-13172
▁generates	-13173
▁pretended	-13174
▁responded	-13175
▁unnatural	-13176
▁wednesday	-13177
▁preference	-13178
▁demonstrate	-13179
▁obligations	-13180
▁agricultural	-13181
▁demonstrated	-13182
▁preparations	-13183
▁restrictions	-13184
▁satisfactory	-13185
jy	-13186
lm	-13187
TRE	-13188
eem	-13189
htr	-13190
whe	-13191
▁Ba	-13192
ASHI	-13193
acco	-13194
away	-13195
eple	-13196
ercy	-13197
have	-13198
racy	-13199
upun	-13200
▁Ell	-13201
▁Est	-13202
▁Ger	-13203
▁Jay	-13204
▁Pak	-13205
▁XXX	-13206
▁lav	-13207
ellow	-13208
limin	-13209
press	-13210
▁Team	-13211
▁atom	-13212
▁coud	-13213
▁dyed	-13214
▁plug	-13215
▁rust	-13216
▁tape	-13217
▁Solar	-13218
▁cryst	-13219
▁hered	-13220
▁incap	-13221
▁relay	-13222
▁squee	-13223
▁unpre	-13224
▁wives	-13225
Reactor	-13226
▁2years	-13227
▁Altern	-13228
▁Ethics	-13229
▁Soccer	-13230
▁Taylor	-13231
▁Vienna	-13232
▁assure	-13233
▁backup	-13234
▁calmly	-13235
▁format	-13236
▁greedy	-13237
▁immune	-13238
▁learns	-13239
▁pessim	-13240
▁poorer	-13241
▁speedy	-13242
unicipal	-13243
▁Brother	-13244
▁Running	-13245
▁buttons	-13246
▁conquer	-13247
▁ensured	-13248
▁pancake	-13249
▁thirsty	-13250
▁watashi	-13251
▁Catholic	-13252
▁password	-13253
▁recomend	-13254
▁reliance	-13255
▁reviewed	-13256
▁switched	-13257
employment	-13258
▁Chemistry	-13259
▁fulfilled	-13260
▁screening	-13261
▁tommorrow	-13262
▁dependence	-13263
▁priorities	-13264
▁pronounced	-13265
▁acknowledge	-13266
▁catastrophe	-13267
▁Thanksgiving	-13268
▁installation	-13269
▁acquaintances	-13270
▁architectural	-13271
&m	-13272
yy	-13273
.ca	-13274
gia	-13275
iro	-13276
iva	-13277
▁52	-13278
isha	-13279
rive	-13280
▁Cra	-13281
▁MAN	-13282
▁Sri	-13283
▁lis	-13284
ammed	-13285
apple	-13286
stats	-13287
▁1993	-13288
▁Adam	-13289
▁Bell	-13290
▁Dark	-13291
▁Rice	-13292
▁Shen	-13293
▁brid	-13294
▁cuts	-13295
▁lent	-13296
▁tact	-13297
/pdfs/	-13298
▁Early	-13299
▁Small	-13300
▁compr	-13301
▁links	-13302
▁liver	-13303
ighters	-13304
▁Edison	-13305
▁Heaven	-13306
▁Kyushu	-13307
▁locate	-13308
▁marine	-13309
▁recite	-13310
▁spends	-13311
▁tablet	-13312
▁tragic	-13313
▁tunnel	-13314
▁wisely	-13315
/content	-13316
ensively	-13317
▁donated	-13318
▁reviews	-13319
▁wishing	-13320
ationally	-13321
▁counting	-13322
▁recalled	-13323
▁starving	-13324
▁bookshelf	-13325
▁cockroach	-13326
▁container	-13327
▁hairdress	-13328
▁accurately	-13329
▁paragraphs	-13330
▁smartphone	-13331
▁detrimental	-13332
▁orientation	-13333
.com/articles	-13334
▁Bibliography	-13335
.9	-13336
PR	-13337
sf	-13338
va	-13339
-ch	-13340
ECD	-13341
ipt	-13342
▁Cy	-13343
▁KN	-13344
▁ji	-13345
cuss	-13346
emic	-13347
hard	-13348
iche	-13349
▁Aff	-13350
▁HAD	-13351
▁Hit	-13352
▁MP3	-13353
▁Mai	-13354
▁pip	-13355
▁roy	-13356
eters	-13357
ether	-13358
utter	-13359
▁Boys	-13360
▁Golf	-13361
▁Much	-13362
▁OECD	-13363
▁Xmas	-13364
▁bold	-13365
▁carb	-13366
▁pics	-13367
▁rods	-13368
▁wool	-13369
ieties	-13370
verted	-13371
▁Blood	-13372
▁Motor	-13373
▁Sleep	-13374
▁Stone	-13375
▁creep	-13376
▁idiot	-13377
▁logic	-13378
uration	-13379
▁Buddha	-13380
▁Garden	-13381
▁Prison	-13382
▁colleg	-13383
▁cotton	-13384
▁superi	-13385
▁yelled	-13386
electric	-13387
▁Walking	-13388
▁accompl	-13389
▁arrives	-13390
▁bananas	-13391
▁carries	-13392
▁carrots	-13393
▁charges	-13394
▁farming	-13395
▁halfway	-13396
▁lantern	-13397
▁puzzled	-13398
▁regrets	-13399
▁stretch	-13400
▁vitamin	-13401
ervations	-13402
▁Likewise	-13403
▁Teachers	-13404
▁acquired	-13405
▁allergic	-13406
▁earliest	-13407
▁eighteen	-13408
▁goodness	-13409
▁homesick	-13410
▁needless	-13411
▁teamwork	-13412
▁Anonymous	-13413
▁Saturdays	-13414
▁educating	-13415
▁minimized	-13416
▁very-high	-13417
▁describing	-13418
▁accumulated	-13419
▁spectacular	-13420
▁continuation	-13421
▁experimental	-13422
▁inappropriate	-13423
▁pharmaceutical	-13424
-D	-13425
IKE	-13426
ONG	-13427
avy	-13428
bra	-13429
imb	-13430
▁56	-13431
▁Ip	-13432
▁MA	-13433
aser	-13434
chin	-13435
iaea	-13436
icts	-13437
real	-13438
sylv	-13439
▁Lar	-13440
▁asp	-13441
▁kar	-13442
▁rou	-13443
-year	-13444
proof	-13445
rings	-13446
▁23rd	-13447
▁31st	-13448
▁anch	-13449
▁pale	-13450
▁porn	-13451
▁soda	-13452
ashita	-13453
ceries	-13454
keeper	-13455
nature	-13456
screen	-13457
upload	-13458
▁Books	-13459
▁Drama	-13460
▁Nepal	-13461
▁crush	-13462
▁pairs	-13463
▁remen	-13464
▁trump	-13465
▁Invest	-13466
▁behalf	-13467
▁cource	-13468
▁deadly	-13469
▁elabor	-13470
▁fights	-13471
▁incomp	-13472
▁matern	-13473
▁budgets	-13474
▁marvell	-13475
▁masters	-13476
▁pressed	-13477
▁smelled	-13478
▁tracked	-13479
▁venture	-13480
▁worship	-13481
▁Scotland	-13482
▁clinical	-13483
▁commuter	-13484
▁creature	-13485
▁regional	-13486
▁suitcase	-13487
▁Economist	-13488
▁believing	-13489
▁dictation	-13490
▁pacemaker	-13491
▁pressures	-13492
▁witnessed	-13493
▁classrooms	-13494
▁undeniable	-13495
▁Corporation	-13496
▁restriction	-13497
▁laboratories	-13498
▁discriminated	-13499
/D	-13500
UG	-13501
hma	-13502
see	-13503
▁41	-13504
▁LE	-13505
asis	-13506
rong	-13507
▁Kin	-13508
▁MAR	-13509
▁McC	-13510
▁sir	-13511
attan	-13512
inity	-13513
▁Carl	-13514
▁Dick	-13515
▁Gene	-13516
▁Jeff	-13517
▁Roll	-13518
▁avoc	-13519
▁cout	-13520
▁lied	-13521
▁mont	-13522
▁owns	-13523
▁worm	-13524
hester	-13525
ometer	-13526
orized	-13527
▁19.00	-13528
▁Doing	-13529
▁Royal	-13530
▁Tiger	-13531
▁flute	-13532
▁fries	-13533
▁handy	-13534
▁scoot	-13535
▁uncon	-13536
ulatory	-13537
▁Fourth	-13538
▁Market	-13539
▁Naruto	-13540
▁appric	-13541
▁centim	-13542
▁fiance	-13543
▁hosted	-13544
▁unsafe	-13545
▁Fleming	-13546
▁america	-13547
▁earnest	-13548
▁enforce	-13549
▁lasting	-13550
▁naughty	-13551
▁organis	-13552
▁pickled	-13553
▁steamed	-13554
▁tightly	-13555
upuncture	-13556
▁Hakodate	-13557
▁Question	-13558
▁allocate	-13559
▁charging	-13560
▁currency	-13561
▁defining	-13562
▁instinct	-13563
▁monsters	-13564
▁reserves	-13565
▁resigned	-13566
▁siblings	-13567
▁Inception	-13568
▁Naturally	-13569
▁corrosion	-13570
▁dissatisf	-13571
▁prejudice	-13572
▁primarily	-13573
▁sensation	-13574
▁Petersburg	-13575
▁downstairs	-13576
▁inefficient	-13577
▁supplements	-13578
▁strawberries	-13579
/W	-13580
59	-13581
PL	-13582
...	-13583
AYS	-13584
boy	-13585
col	-13586
jam	-13587
▁ps	-13588
asal	-13589
fere	-13590
long	-13591
sien	-13592
uten	-13593
west	-13594
▁Ans	-13595
▁Dif	-13596
▁Gos	-13597
▁MON	-13598
▁Mie	-13599
▁Wak	-13600
▁apt	-13601
ical-	-13602
space	-13603
undam	-13604
ville	-13605
▁daug	-13606
▁elig	-13607
▁fart	-13608
▁impr	-13609
▁moms	-13610
ciated	-13611
vation	-13612
▁Excel	-13613
▁Hsien	-13614
▁Loong	-13615
▁Memor	-13616
▁Piece	-13617
▁Polic	-13618
▁actin	-13619
▁babys	-13620
▁sizes	-13621
▁thoug	-13622
▁wheat	-13623
aration	-13624
inating	-13625
▁Contin	-13626
▁Engish	-13627
▁backst	-13628
▁basics	-13629
▁grants	-13630
▁joking	-13631
▁sakura	-13632
pectives	-13633
sylvania	-13634
▁Austria	-13635
▁Regards	-13636
▁awarded	-13637
▁envious	-13638
▁longing	-13639
▁reaches	-13640
▁reverse	-13641
▁romance	-13642
imes.com/	-13643
▁Problems	-13644
▁contacts	-13645
▁detected	-13646
oh.gov.sg/	-13647
▁Materials	-13648
▁addresses	-13649
▁extension	-13650
▁groceries	-13651
▁realizing	-13652
▁singapore	-13653
▁suspended	-13654
▁butterflies	-13655
▁competitors	-13656
▁precautions	-13657
▁threatening	-13658
▁Pennsylvania	-13659
▁governmental	-13660
ACK	-13661
ARD	-13662
ATS	-13663
aud	-13664
▁FF	-13665
▁Fi	-13666
▁HT	-13667
▁IP	-13668
▁Oz	-13669
▁cm	-13670
aily	-13671
ault	-13672
ghan	-13673
lesh	-13674
olis	-13675
vals	-13676
will	-13677
▁//d	-13678
▁MIT	-13679
▁PS3	-13680
▁Pir	-13681
▁Pos	-13682
▁Sem	-13683
▁Ver	-13684
▁vom	-13685
esign	-13686
▁2020	-13687
▁4000	-13688
▁Dawn	-13689
▁Fuel	-13690
▁Stop	-13691
▁Wang	-13692
▁cage	-13693
▁coke	-13694
▁harb	-13695
▁newb	-13696
oguchi	-13697
orable	-13698
stream	-13699
▁Lucky	-13700
▁PIECE	-13701
▁booth	-13702
▁firms	-13703
▁hilar	-13704
▁males	-13705
▁monop	-13706
▁tales	-13707
English	-13708
▁Hakone	-13709
▁Yukata	-13710
▁canada	-13711
▁exotic	-13712
▁guided	-13713
▁median	-13714
▁radish	-13715
▁taller	-13716
▁viewed	-13717
▁warmth	-13718
cedented	-13719
▁Belgium	-13720
▁analyse	-13721
▁apology	-13722
▁arising	-13723
▁bathing	-13724
▁emitted	-13725
▁explode	-13726
▁hurting	-13727
▁sympath	-13728
▁Changing	-13729
▁affluent	-13730
▁helpless	-13731
▁prelimin	-13732
▁reflects	-13733
▁typhoons	-13734
▁Comparing	-13735
▁appealing	-13736
▁astronaut	-13737
▁converted	-13738
▁enhancing	-13739
▁wandering	-13740
▁Penicillin	-13741
▁cellphones	-13742
▁initiative	-13743
▁questioned	-13744
▁Traditional	-13745
▁undoubtedly	-13746
▁receptionist	-13747
▁translations	-13748
▁pronunciations	-13749
/B	-13750
08	-13751
ez	-13752
AND	-13753
ECT	-13754
moh	-13755
nan	-13756
▁--	-13757
▁46	-13758
▁CR	-13759
▁Ep	-13760
▁TS	-13761
-the	-13762
aman	-13763
bert	-13764
ione	-13765
tech	-13766
▁101	-13767
▁DIS	-13768
▁FIF	-13769
▁Hay	-13770
▁Nap	-13771
▁arc	-13772
▁hir	-13773
▁kin	-13774
▁sth	-13775
/2007	-13776
/2008	-13777
anies	-13778
istor	-13779
thics	-13780
▁//in	-13781
▁Band	-13782
▁Dead	-13783
▁Expo	-13784
▁Hara	-13785
▁Pers	-13786
▁Than	-13787
▁cozy	-13788
▁funn	-13789
▁mice	-13790
▁pant	-13791
▁shed	-13792
▁twin	-13793
▁vain	-13794
OGRAPH	-13795
mohcor	-13796
rticle	-13797
▁1990s	-13798
▁20000	-13799
▁Otaku	-13800
▁Pizza	-13801
▁Words	-13802
▁cents	-13803
▁chaos	-13804
▁lakes	-13805
▁pills	-13806
▁tryed	-13807
▁undes	-13808
&parent	-13809
version	-13810
▁Venice	-13811
▁commod	-13812
▁deemed	-13813
▁delete	-13814
▁feared	-13815
▁iTunes	-13816
▁margin	-13817
▁sliced	-13818
▁treats	-13819
-Testing	-13820
_reactor	-13821
▁excuses	-13822
▁healing	-13823
▁protein	-13824
▁quicker	-13825
▁seaweed	-13826
▁Doraemon	-13827
▁Princess	-13828
▁annually	-13829
▁elephant	-13830
▁literacy	-13831
▁shameful	-13832
▁thriller	-13833
▁//www.sci	-13834
▁Computers	-13835
▁hazardous	-13836
▁hilarious	-13837
▁meanwhile	-13838
▁offspring	-13839
▁oversleep	-13840
▁tolerance	-13841
▁universal	-13842
▁//www.iaea	-13843
▁//www.rfid	-13844
▁Challenger	-13845
▁statements	-13846
▁Environmental	-13847
Genetic-Testing	-13848
▁rehabilitation	-13849
oh.gov.sg/mohcor	-13850
BT	-13851
ws	-13852
UST	-13853
isb	-13854
ogo	-13855
▁47	-13856
ibet	-13857
orns	-13858
▁Jam	-13859
▁Kit	-13860
▁Mia	-13861
▁NUS	-13862
▁Sib	-13863
▁hol	-13864
▁loy	-13865
break	-13866
bucks	-13867
ciate	-13868
urope	-13869
▁Ibar	-13870
▁LOVE	-13871
▁Link	-13872
▁MacD	-13873
▁Manc	-13874
▁Mars	-13875
▁ants	-13876
▁clay	-13877
▁dumb	-13878
▁ende	-13879
▁maid	-13880
▁mast	-13881
▁punk	-13882
▁semi	-13883
▁ture	-13884
umbled	-13885
▁10.00	-13886
▁Cross	-13887
▁breed	-13888
▁cheep	-13889
▁dimin	-13890
itating	-13891
liament	-13892
▁Anyhow	-13893
▁Aussie	-13894
▁Resear	-13895
▁asthma	-13896
▁diplom	-13897
▁insult	-13898
▁landed	-13899
▁louder	-13900
▁sticks	-13901
▁worlds	-13902
▁Formula	-13903
▁Musical	-13904
▁teenage	-13905
▁turbine	-13906
▁vampire	-13907
▁arrogant	-13908
▁controls	-13909
▁diffrent	-13910
▁maximize	-13911
▁paradise	-13912
▁sciences	-13913
▁sneakers	-13914
▁threaten	-13915
▁weddings	-13916
▁Malaysian	-13917
▁adjective	-13918
▁colourful	-13919
▁excursion	-13920
▁inventing	-13921
▁nostalgic	-13922
▁sentenses	-13923
▁suspected	-13924
▁Literature	-13925
▁congestion	-13926
▁emphasized	-13927
▁peacefully	-13928
▁recovering	-13929
▁overwhelmed	-13930
▁Particularly	-13931
▁hospitalized	-13932
▁prepositions	-13933
▁tremendously	-13934
▁administrative	-13935
/3	-13936
HS	-13937
_h	-13938
/10	-13939
651	-13940
Ret	-13941
anb	-13942
eor	-13943
▁67	-13944
▁DP	-13945
▁RP	-13946
▁ry	-13947
anka	-13948
inds	-13949
this	-13950
▁//g	-13951
▁ARE	-13952
▁Enc	-13953
▁HOW	-13954
▁Had	-13955
▁Ted	-13956
▁aqu	-13957
▁fox	-13958
▁vet	-13959
alled	-13960
ights	-13961
omnia	-13962
udget	-13963
▁Brad	-13964
▁deck	-13965
▁lawn	-13966
▁myth	-13967
▁rays	-13968
▁univ	-13969
▁whit	-13970
alysis	-13971
aments	-13972
ancers	-13973
aneous	-13974
ortune	-13975
uality	-13976
unting	-13977
▁Asahi	-13978
▁cheat	-13979
▁helic	-13980
▁manip	-13981
▁panda	-13982
▁tours	-13983
▁witch	-13984
ocation	-13985
▁Shinto	-13986
▁Within	-13987
▁Yellow	-13988
▁impose	-13989
▁kicked	-13990
▁sketch	-13991
singstat	-13992
▁Hearing	-13993
▁MacBook	-13994
▁Richard	-13995
▁admired	-13996
▁chasing	-13997
▁circuit	-13998
▁compact	-13999
▁grounds	-14000
▁nowhere	-14001
▁removal	-14002
▁workout	-14003
▁declined	-14004
▁freshmen	-14005
▁inclined	-14006
▁sociable	-14007
▁autograph	-14008
▁gardening	-14009
▁placement	-14010
▁repeating	-14011
▁teammates	-14012
▁Wonderland	-14013
▁adventures	-14014
▁institutes	-14015
▁intersting	-14016
▁marvellous	-14017
▁pretending	-14018
▁simplified	-14019
▁skateboard	-14020
▁threatened	-14021
▁businessmen	-14022
▁preferences	-14023
▁concentrating	-14024
channelnewsasia	-14025
43	-14026
_c	-14027
ml	-14028
cle	-14029
fty	-14030
hol	-14031
oni	-14032
▁05	-14033
▁BL	-14034
▁ko	-14035
----	-14036
ENDS	-14037
file	-14038
iana	-14039
pool	-14040
walk	-14041
▁Kon	-14042
▁Mir	-14043
▁Nih	-14044
▁Rap	-14045
▁Sus	-14046
▁WBC	-14047
▁Win	-14048
▁lin	-14049
▁ses	-14050
▁wir	-14051
achel	-14052
ieces	-14053
ifest	-14054
igiri	-14055
isite	-14056
▁1987	-14057
▁gall	-14058
▁july	-14059
▁mant	-14060
▁wast	-14061
-aging	-14062
ersion	-14063
igrate	-14064
insula	-14065
▁Coast	-14066
▁Elder	-14067
▁Iwate	-14068
▁muggy	-14069
▁scent	-14070
umbling	-14071
▁Active	-14072
▁Angels	-14073
▁Norway	-14074
▁kissed	-14075
▁locals	-14076
▁merits	-14077
▁scarce	-14078
▁shorts	-14079
▁thread	-14080
enditure	-14081
▁Country	-14082
▁arguing	-14083
▁athlete	-14084
▁cleared	-14085
▁deliber	-14086
▁helicop	-14087
▁lightly	-14088
▁posture	-14089
▁sixteen	-14090
▁suffers	-14091
▁surgeon	-14092
▁desserts	-14093
▁dressing	-14094
▁optional	-14095
▁packages	-14096
▁versions	-14097
▁Greenwich	-14098
▁desirable	-14099
▁favorable	-14100
▁forbidden	-14101
▁Conclusion	-14102
▁accidental	-14103
▁destroying	-14104
▁developers	-14105
▁separation	-14106
▁businessman	-14107
▁decorations	-14108
▁highlighted	-14109
▁resolutions	-14110
▁Christianity	-14111
▁accomplished	-14112
▁technologically	-14113
/M	-14114
CC	-14115
/09	-14116
CFR	-14117
Ins	-14118
uko	-14119
▁Gy	-14120
▁WR	-14121
amel	-14122
ders	-14123
dles	-14124
inos	-14125
wear	-14126
▁Dr.	-14127
▁Mah	-14128
▁TED	-14129
▁tat	-14130
▁tha	-14131
isoba	-14132
lders	-14133
matic	-14134
▁Bulg	-14135
▁Core	-14136
▁Ital	-14137
▁Term	-14138
▁Till	-14139
▁Want	-14140
▁cogn	-14141
▁exit	-14142
▁inch	-14143
▁palm	-14144
/news/	-14145
ailing	-14146
▁Chris	-14147
▁Diego	-14148
▁woken	-14149
agnetic	-14150
angered	-14151
raction	-14152
▁Haneda	-14153
▁Plants	-14154
▁ethics	-14155
▁firmly	-14156
▁hectic	-14157
▁owning	-14158
▁robber	-14159
▁sewing	-14160
▁subord	-14161
/genetic	-14162
ountable	-14163
▁Protect	-14164
▁Strange	-14165
▁compose	-14166
▁exhibit	-14167
▁iPhone4	-14168
▁midterm	-14169
▁shelves	-14170
▁tasting	-14171
▁tissues	-14172
versation	-14173
▁Baseball	-14174
▁Teaching	-14175
▁brighter	-14176
▁forehead	-14177
▁goldfish	-14178
▁husbands	-14179
▁icecream	-14180
▁inviting	-14181
▁juggling	-14182
▁necklace	-14183
▁sequence	-14184
▁somthing	-14185
▁actresses	-14186
▁prevalent	-14187
▁presenting	-14188
▁considerate	-14189
▁arrangements	-14190
▁corresponding	-14191
zo	-14192
ECH	-14193
ati	-14194
oqu	-14195
ugo	-14196
2006	-14197
asen	-14198
itle	-14199
llas	-14200
mary	-14201
umin	-14202
▁//m	-14203
▁Fif	-14204
▁Kou	-14205
▁LCD	-14206
▁Run	-14207
▁Suk	-14208
▁lob	-14209
▁mit	-14210
▁rul	-14211
-reli	-14212
acked	-14213
arded	-14214
beans	-14215
hibli	-14216
oshop	-14217
rians	-14218
track	-14219
▁EVER	-14220
▁Glee	-14221
▁Nabe	-14222
▁Prom	-14223
▁TEST	-14224
▁nabe	-14225
▁orph	-14226
▁tomb	-14227
ounded	-14228
perate	-14229
uating	-14230
▁Phone	-14231
▁ankle	-14232
▁bento	-14233
▁coffe	-14234
▁crane	-14235
▁loads	-14236
▁lyric	-14237
uckland	-14238
versely	-14239
▁Gundam	-14240
▁SUMMER	-14241
▁authen	-14242
▁beggin	-14243
▁german	-14244
▁kitten	-14245
▁overhe	-14246
▁sentim	-14247
▁varied	-14248
asonable	-14249
▁Disease	-14250
▁Samsung	-14251
▁enabled	-14252
▁formula	-14253
▁incomes	-14254
▁mineral	-14255
▁servant	-14256
▁Policies	-14257
▁backache	-14258
▁cucumber	-14259
▁dolphins	-14260
▁merchand	-14261
▁restrant	-14262
▁spectrum	-14263
▁takoyaki	-14264
▁thirteen	-14265
▁thursday	-14266
/singapore	-14267
▁preserved	-14268
▁redundant	-14269
▁rehearsal	-14270
▁restarted	-14271
▁territory	-14272
▁consistent	-14273
▁ecological	-14274
▁discovering	-14275
▁girlfriends	-14276
▁determination	-14277
01	-14278
AMI	-14279
ICE	-14280
i10	-14281
ova	-14282
uda	-14283
urd	-14284
▁AG	-14285
.doe	-14286
▁Add	-14287
▁Ast	-14288
▁Gar	-14289
▁Hai	-14290
▁Hol	-14291
▁ICE	-14292
▁Kid	-14293
▁Lun	-14294
▁Ref	-14295
▁Sug	-14296
▁irr	-14297
▁FIFA	-14298
▁Jean	-14299
▁MSRs	-14300
▁alch	-14301
▁bust	-14302
▁chir	-14303
▁duck	-14304
▁publ	-14305
▁tram	-14306
urches	-14307
▁Trade	-14308
▁aired	-14309
▁glory	-14310
▁sauna	-14311
▁timer	-14312
▁versa	-14313
/report	-14314
OGRAPHY	-14315
▁Arabia	-14316
▁Berlin	-14317
▁Hanami	-14318
▁Helium	-14319
▁Justin	-14320
▁Thesed	-14321
▁Valley	-14322
▁antibi	-14323
▁clerks	-14324
▁deploy	-14325
▁frying	-14326
▁kimchi	-14327
▁poeple	-14328
▁prayer	-14329
▁prizes	-14330
▁shares	-14331
▁unreal	-14332
▁worsen	-14333
▁Eschede	-14334
▁Nanjing	-14335
▁Pokemon	-14336
▁Roadmap	-14337
▁boredom	-14338
▁counted	-14339
▁estates	-14340
▁immense	-14341
▁loyalty	-14342
▁ranging	-14343
▁recieve	-14344
▁revised	-14345
▁waiters	-14346
yclopedia	-14347
▁Auckland	-14348
▁Congress	-14349
▁Hongkong	-14350
▁accessed	-14351
▁obsessed	-14352
▁protagon	-14353
▁fireflies	-14354
▁organizer	-14355
▁processed	-14356
▁prospects	-14357
otechnology	-14358
▁bookstores	-14359
▁hereditary	-14360
▁originated	-14361
▁sleepiness	-14362
▁Photography	-14363
▁compromised	-14364
▁influential	-14365
▁susceptible	-14366
▁willingness	-14367
▁compensation	-14368
▁grandchildren	-14369
▁interpretation	-14370
je	-14371
oen	-14372
▁Du	-14373
alsa	-14374
enda	-14375
oker	-14376
pace	-14377
▁BIG	-14378
▁Hem	-14379
▁SAT	-14380
▁sew	-14381
▁tho	-14382
▁wil	-14383
asive	-14384
renew	-14385
ushes	-14386
▁Days	-14387
▁Dome	-14388
▁Fair	-14389
▁Fern	-14390
▁SHOW	-14391
▁Sake	-14392
▁Spec	-14393
▁Triv	-14394
▁adds	-14395
▁aust	-14396
▁brit	-14397
▁carn	-14398
▁sail	-14399
▁soak	-14400
▁wipe	-14401
ocracy	-14402
onalds	-14403
▁HongK	-14404
▁alter	-14405
▁alumn	-14406
▁clips	-14407
▁gross	-14408
▁irreg	-14409
▁nicer	-14410
▁overt	-14411
▁peers	-14412
▁pyram	-14413
▁queen	-14414
▁rolls	-14415
▁royal	-14416
▁wiped	-14417
ivities	-14418
pecialy	-14419
▁Bridge	-14420
▁pollut	-14421
▁remedy	-14422
▁surfed	-14423
▁FRIENDS	-14424
▁Forrest	-14425
▁Tourism	-14426
▁blocked	-14427
▁cabinet	-14428
▁kotatsu	-14429
▁studyed	-14430
▁viruses	-14431
▁analyzed	-14432
▁bullying	-14433
▁definite	-14434
▁disliked	-14435
▁handicap	-14436
▁postcard	-14437
▁removing	-14438
▁scarcity	-14439
▁upgraded	-14440
▁Upgrading	-14441
▁developer	-14442
▁financing	-14443
▁pregnancy	-14444
▁soooooooo	-14445
▁strengths	-14446
▁boyfriends	-14447
▁continually	-14448
▁employability	-14449
▁unprecedented	-14450
/N	-14451
58	-14452
IO	-14453
OA	-14454
_1	-14455
cd	-14456
.00	-14457
AGE	-14458
bel	-14459
udy	-14460
ums	-14461
▁Sn	-14462
▁UF	-14463
▁Yo	-14464
▁xx	-14465
.nlm	-14466
Page	-14467
ador	-14468
hour	-14469
lied	-14470
mans	-14471
nese	-14472
pher	-14473
▁Alt	-14474
▁BIB	-14475
▁CAM	-14476
▁Doc	-14477
▁OUT	-14478
▁VOA	-14479
▁ads	-14480
▁agg	-14481
▁sax	-14482
farin	-14483
ochem	-14484
ollen	-14485
▁.The	-14486
▁Dest	-14487
▁Poor	-14488
▁RAIN	-14489
▁disk	-14490
▁dump	-14491
▁frog	-14492
▁neat	-14493
▁pipe	-14494
iguous	-14495
▁1980s	-14496
▁Rainy	-14497
▁aerob	-14498
▁bible	-14499
▁embed	-14500
▁inton	-14501
▁loses	-14502
▁screw	-14503
▁squid	-14504
▁trace	-14505
bitious	-14506
edical-	-14507
ignific	-14508
▁Afghan	-14509
▁Ghibli	-14510
▁Steven	-14511
▁condom	-14512
▁fulfil	-14513
▁laying	-14514
▁valley	-14515
▁Develop	-14516
▁Finding	-14517
▁Individ	-14518
▁Outside	-14519
▁behaved	-14520
▁density	-14521
▁flights	-14522
▁italian	-14523
▁outlook	-14524
▁trumpet	-14525
.doe.gov/	-14526
istically	-14527
▁captured	-14528
▁duration	-14529
▁findings	-14530
▁fruitful	-14531
▁humorous	-14532
▁mainland	-14533
▁postpone	-14534
▁prospect	-14535
▁Companies	-14536
▁authentic	-14537
▁incentive	-14538
▁lightning	-14539
▁Regardless	-14540
▁endangered	-14541
▁similarity	-14542
▁ineffective	-14543
▁initiatives	-14544
▁preliminary	-14545
▁progressive	-14546
▁prescription	-14547
▁//www.scienced	-14548
singstat.gov.sg/	-14549
21	-14550
NY	-14551
TIS	-14552
aug	-14553
cha	-14554
sle	-14555
wen	-14556
▁HK	-14557
▁OT	-14558
eber	-14559
ifer	-14560
oven	-14561
owed	-14562
▁ABC	-14563
▁Cas	-14564
▁Ele	-14565
▁Gay	-14566
▁Hor	-14567
▁Inv	-14568
▁Sud	-14569
▁owe	-14570
aseda	-14571
atomy	-14572
gence	-14573
ureau	-14574
wheat	-14575
▁00AM	-14576
▁bins	-14577
▁clar	-14578
▁gast	-14579
▁ties	-14580
▁unim	-14581
ctural	-14582
lights	-14583
online	-14584
▁Begin	-14585
▁Fresh	-14586
▁Milan	-14587
▁Swiss	-14588
▁burnt	-14589
▁exert	-14590
▁loyal	-14591
▁risky	-14592
▁toeic	-14593
isition	-14594
olicies	-14595
▁Chocol	-14596
▁Danish	-14597
▁expose	-14598
▁heroes	-14599
▁rechar	-14600
▁stocks	-14601
▁booking	-14602
▁dancers	-14603
▁doubted	-14604
▁harness	-14605
▁pottery	-14606
▁refrain	-14607
▁rewrite	-14608
▁spoiled	-14609
▁transit	-14610
▁tuesday	-14611
▁HongKong	-14612
▁Kumamoto	-14613
▁Therefor	-14614
▁apparent	-14615
▁envelope	-14616
▁fountain	-14617
▁vocation	-14618
▁Afterward	-14619
▁Southeast	-14620
▁afterward	-14621
▁defective	-14622
▁detective	-14623
▁interrupt	-14624
▁municipal	-14625
▁scattered	-14626
▁starbucks	-14627
▁Manchester	-14628
▁completion	-14629
▁counseling	-14630
▁designated	-14631
▁negatively	-14632
▁overweight	-14633
▁separately	-14634
▁acupuncture	-14635
▁commercials	-14636
▁inhabitants	-14637
▁demonstration	-14638
-P	-14639
/d	-14640
24	-14641
41	-14642
CH	-14643
GB	-14644
IX	-14645
dd	-14646
vy	-14647
ARS	-14648
OUR	-14649
_id	-14650
hea	-14651
isu	-14652
ubs	-14653
uer	-14654
▁63	-14655
▁Au	-14656
▁ML	-14657
▁Xi	-14658
-car	-14659
IGHT	-14660
USHI	-14661
ayao	-14662
rary	-14663
rock	-14664
usyu	-14665
utor	-14666
▁DON	-14667
▁DPJ	-14668
▁EIK	-14669
▁Eco	-14670
▁Mos	-14671
▁Shu	-14672
▁Yan	-14673
▁kat	-14674
▁phy	-14675
▁sed	-14676
▁yuk	-14677
after	-14678
ahara	-14679
hough	-14680
oning	-14681
organ	-14682
ridge	-14683
▁Beer	-14684
▁Hold	-14685
▁Maca	-14686
▁OVER	-14687
▁Resp	-14688
▁evey	-14689
▁malf	-14690
▁mold	-14691
▁mole	-14692
▁surp	-14693
▁tang	-14694
-power	-14695
2009/0	-14696
isbane	-14697
worthy	-14698
▁BIBLI	-14699
▁Miami	-14700
▁Place	-14701
▁basil	-14702
▁lined	-14703
▁livel	-14704
▁onsen	-14705
▁spoil	-14706
▁tunes	-14707
-energy	-14708
/Ethics	-14709
▁Bhutan	-14710
▁Gossip	-14711
▁Humans	-14712
▁Univer	-14713
▁awards	-14714
▁handwr	-14715
▁hugged	-14716
▁losses	-14717
▁routes	-14718
▁sweaty	-14719
▁Defense	-14720
▁Hanshin	-14721
▁Okayama	-14722
▁cheated	-14723
▁cicadas	-14724
▁dispute	-14725
▁famouse	-14726
▁founder	-14727
▁mistook	-14728
▁pianist	-14729
▁sweated	-14730
▁sweater	-14731
▁swimmer	-14732
▁Director	-14733
▁Hiragana	-14734
▁adopting	-14735
▁adorable	-14736
▁audition	-14737
▁hiragana	-14738
▁inferior	-14739
▁painters	-14740
▁releases	-14741
▁wheather	-14742
▁Accidents	-14743
▁Japanease	-14744
▁Photoshop	-14745
▁complains	-14746
▁depleting	-14747
▁exchanges	-14748
▁greetings	-14749
▁honeymoon	-14750
▁imaginary	-14751
▁maternity	-14752
▁reviewing	-14753
/Ethics-of-	-14754
▁acquainted	-14755
▁guidelines	-14756
▁spectators	-14757
▁anticipated	-14758
▁exaggerated	-14759
▁hairdresser	-14760
▁Architecture	-14761
▁BIBLIOGRAPHY	-14762
▁Sodium-Cooled	-14763
HO	-14764
IE	-14765
SE	-14766
TV	-14767
FER	-14768
INT	-14769
job	-14770
law	-14771
nie	-14772
ogy	-14773
weg	-14774
▁DE	-14775
▁KL	-14776
▁OV	-14777
▁PH	-14778
▁uk	-14779
andy	-14780
cter	-14781
cult	-14782
hile	-14783
omer	-14784
▁apr	-14785
▁hem	-14786
amber	-14787
andal	-14788
glish	-14789
icate	-14790
iller	-14791
quest	-14792
▁1985	-14793
▁Decl	-14794
▁Peru	-14795
▁aven	-14796
▁navy	-14797
▁silk	-14798
hattan	-14799
ptions	-14800
▁30000	-14801
▁Emily	-14802
▁brace	-14803
▁famil	-14804
▁imply	-14805
▁neutr	-14806
▁paras	-14807
▁prest	-14808
▁tones	-14809
▁veter	-14810
cerning	-14811
istance	-14812
osystem	-14813
▁Bright	-14814
▁Inside	-14815
▁Intell	-14816
▁Rachel	-14817
▁Waseda	-14818
▁column	-14819
▁layers	-14820
▁medals	-14821
▁mining	-14822
[...]
