<unk>	0
<s>	0
</s>	0
▁t	-0
▁a	-1
he	-2
in	-3
▁.	-4
▁w	-5
▁s	-6
▁I	-7
re	-8
▁the	-9
▁,	-10
▁m	-11
er	-12
▁o	-13
is	-14
▁to	-15
▁c	-16
▁b	-17
en	-18
▁f	-19
ha	-20
it	-21
ou	-22
ing	-23
an	-24
on	-25
or	-26
es	-27
▁p	-28
▁an	-29
ed	-30
▁d	-31
▁n	-32
▁l	-33
ll	-34
▁in	-35
ar	-36
at	-37
▁and	-38
as	-39
om	-40
▁of	-41
ve	-42
▁ha	-43
▁g	-44
le	-45
ic	-46
▁be	-47
ay	-48
▁is	-49
us	-50
▁T	-51
▁e	-52
ent	-53
ot	-54
▁'	-55
▁my	-56
ow	-57
hat	-58
ver	-59
ut	-60
al	-61
▁re	-62
▁th	-63
▁h	-64
ion	-65
ld	-66
▁y	-67
▁it	-68
im	-69
et	-70
▁for	-71
▁st	-72
▁on	-73
▁that	-74
ly	-75
▁we	-76
st	-77
oo	-78
ch	-79
▁was	-80
ct	-81
id	-82
▁he	-83
▁A	-84
ke	-85
ri	-86
op	-87
▁S	-88
▁have	-89
am	-90
gh	-91
▁you	-92
ce	-93
ro	-94
ir	-95
▁me	-96
ur	-97
un	-98
ad	-99
▁The	-100
ill	-101
ore	-102
▁li	-103
ter	-104
▁E	-105
ith	-106
▁so	-107
all	-108
her	-109
se	-110
ng	-111
▁are	-112
▁`	-113
▁with	-114
▁do	-115
't	-116
ould	-117
▁n't	-118
▁``	-119
very	-120
ome	-121
ish	-122
ap	-123
▁wh	-124
ant	-125
use	-126
ation	-127
end	-128
▁!	-129
▁M	-130
▁'s	-131
▁W	-132
▁ne	-133
▁ab	-134
▁not	-135
▁at	-136
▁as	-137
if	-138
▁H	-139
▁B	-140
out	-141
▁this	-142
lish	-143
ul	-144
▁wor	-145
▁Eng	-146
ear	-147
▁will	-148
▁but	-149
▁)	-150
▁J	-151
▁English	-152
▁can	-153
ca	-154
▁go	-155
ra	-156
▁ex	-157
day	-158
▁It	-159
ght	-160
▁k	-161
▁al	-162
▁(	-163
▁sh	-164
ally	-165
ud	-166
rom	-167
▁se	-168
▁tim	-169
th	-170
cause	-171
oun	-172
▁con	-173
▁about	-174
▁su	-175
ak	-176
▁?	-177
▁sp	-178
▁like	-179
▁-	-180
▁time	-181
▁from	-182
ac	-183
▁very	-184
il	-185
▁C	-186
▁de	-187
▁com	-188
▁j	-189
ood	-190
apan	-191
▁pro	-192
eop	-193
eople	-194
ess	-195
ag	-196
▁or	-197
hen	-198
ers	-199
▁Japan	-200
est	-201
ort	-202
fe	-203
▁because	-204
▁people	-205
ink	-206
art	-207
▁te	-208
ol	-209
pp	-210
▁'m	-211
ment	-212
ble	-213
▁F	-214
el	-215
▁en	-216
▁want	-217
▁am	-218
ust	-219
▁pl	-220
▁stud	-221
ry	-222
ure	-223
ake	-224
ate	-225
one	-226
▁some	-227
ig	-228
riend	-229
ast	-230
ity	-231
▁had	-232
ook	-233
▁un	-234
▁there	-235
▁2	-236
▁they	-237
ite	-238
ist	-239
▁day	-240
any	-241
ain	-242
▁think	-243
▁by	-244
now	-245
▁O	-246
▁us	-247
▁In	-248
ren	-249
ther	-250
ost	-251
▁friend	-252
ies	-253
ong	-254
▁more	-255
▁v	-256
▁N	-257
▁work	-258
ese	-259
ive	-260
os	-261
and	-262
▁ag	-263
▁:	-264
▁P	-265
▁im	-266
▁wr	-267
▁all	-268
han	-269
qu	-270
ich	-271
▁fe	-272
ci	-273
▁know	-274
our	-275
ind	-276
▁r	-277
▁D	-278
▁them	-279
▁cl	-280
▁one	-281
▁has	-282
up	-283
▁good	-284
ice	-285
ame	-286
▁would	-287
▁But	-288
▁their	-289
ie	-290
▁sa	-291
▁year	-292
um	-293
▁Th	-294
der	-295
▁which	-296
▁when	-297
▁ca	-298
▁1	-299
ous	-300
▁who	-301
▁other	-302
so	-303
▁R	-304
▁L	-305
00	-306
ough	-307
red	-308
ang	-309
▁imp	-310
res	-311
irst	-312
▁many	-313
▁To	-314
▁int	-315
▁comp	-316
em	-317
fter	-318
ight	-319
ool	-320
▁My	-321
▁get	-322
▁up	-323
▁Japanese	-324
ven	-325
▁could	-326
▁were	-327
▁been	-328
ob	-329
ount	-330
uc	-331
ound	-332
ep	-333
ary	-334
▁if	-335
ard	-336
ide	-337
▁every	-338
▁So	-339
ult	-340
▁exp	-341
▁We	-342
▁her	-343
ass	-344
og	-345
▁spe	-346
hi	-347
▁went	-348
▁An	-349
ine	-350
ays	-351
▁also	-352
▁Y	-353
iv	-354
▁new	-355
▁our	-356
▁study	-357
▁too	-358
▁ar	-359
age	-360
ning	-361
▁lot	-362
▁This	-363
oy	-364
▁should	-365
▁she	-366
▁dif	-367
▁now	-368
▁any	-369
▁what	-370
act	-371
vel	-372
▁out	-373
▁G	-374
ack	-375
▁ad	-376
ings	-377
omet	-378
▁gr	-379
▁friends	-380
▁your	-381
▁le	-382
▁did	-383
ans	-384
▁first	-385
chool	-386
▁K	-387
▁than	-388
ov	-389
ever	-390
▁lear	-391
ase	-392
rent	-393
▁How	-394
cc	-395
▁school	-396
▁co	-397
▁wat	-398
▁just	-399
uch	-400
▁really	-401
▁/	-402
▁only	-403
ign	-404
▁dis	-405
▁hel	-406
▁feel	-407
alk	-408
fore	-409
▁He	-410
od	-411
ect	-412
▁his	-413
▁tr	-414
▁help	-415
▁need	-416
▁make	-417
lf	-418
▁cha	-419
ought	-420
▁There	-421
ach	-422
▁count	-423
ue	-424
▁use	-425
itt	-426
able	-427
ove	-428
▁today	-429
▁read	-430
ily	-431
▁200	-432
▁how	-433
other	-434
▁U	-435
▁much	-436
ace	-437
ence	-438
▁look	-439
ek	-440
ents	-441
mer	-442
▁start	-443
▁tra	-444
▁part	-445
▁happ	-446
ub	-447
▁di	-448
ge	-449
▁going	-450
vers	-451
fic	-452
▁somet	-453
▁after	-454
▁pre	-455
ions	-456
▁qu	-457
▁res	-458
▁fam	-459
ated	-460
▁no	-461
hed	-462
▁speak	-463
ance	-464
▁tw	-465
ree	-466
▁bet	-467
iz	-468
iting	-469
ress	-470
▁However	-471
con	-472
ince	-473
▁see	-474
▁Today	-475
▁long	-476
ope	-477
hing	-478
▁When	-479
▁years	-480
▁week	-481
▁play	-482
▁If	-483
eri	-484
ade	-485
ving	-486
oc	-487
xt	-488
▁life	-489
ab	-490
▁home	-491
▁even	-492
▁har	-493
lic	-494
▁cont	-495
▁exam	-496
▁And	-497
▁learn	-498
orm	-499
▁him	-500
ical	-501
▁pr	-502
olog	-503
▁last	-504
ne	-505
reat	-506
▁bu	-507
▁most	-508
ose	-509
▁take	-510
▁way	-511
▁said	-512
pe	-513
▁such	-514
igh	-515
▁well	-516
ber	-517
ved	-518
ually	-519
▁got	-520
▁Ch	-521
▁under	-522
blem	-523
▁talk	-524
▁write	-525
ways	-526
ition	-527
▁problem	-528
▁ro	-529
lear	-530
▁fin	-531
▁mov	-532
ces	-533
ere	-534
ile	-535
▁3	-536
▁class	-537
▁things	-538
▁'ve	-539
▁two	-540
here	-541
▁rec	-542
▁book	-543
▁dec	-544
pt	-545
▁always	-546
ick	-547
▁old	-548
ester	-549
▁job	-550
▁back	-551
▁act	-552
▁inc	-553
▁say	-554
ful	-555
▁lang	-556
ract	-557
▁days	-558
▁hope	-559
▁diffe	-560
▁car	-561
▁mon	-562
ason	-563
si	-564
▁dr	-565
▁these	-566
ple	-567
▁They	-568
▁made	-569
ations	-570
▁over	-571
du	-572
▁may	-573
ors	-574
▁sk	-575
chn	-576
row	-577
joy	-578
▁hard	-579
▁ch	-580
▁bec	-581
▁still	-582
▁enjoy	-583
▁'ll	-584
▁des	-585
erest	-586
ory	-587
▁bus	-588
▁Be	-589
▁world	-590
▁app	-591
▁before	-592
▁since	-593
▁interest	-594
ds	-595
▁"	-596
▁rel	-597
▁ra	-598
▁sm	-599
av	-600
▁high	-601
oin	-602
ting	-603
▁pers	-604
ather	-605
▁try	-606
▁call	-607
esterday	-608
▁acc	-609
▁show	-610
▁ke	-611
▁fun	-612
▁ph	-613
velop	-614
▁ent	-615
oney	-616
self	-617
▁impro	-618
les	-619
ict	-620
ittle	-621
uclear	-622
ently	-623
▁kind	-624
▁thought	-625
▁chi	-626
ise	-627
▁She	-628
tern	-629
▁off	-630
rect	-631
▁love	-632
akes	-633
▁langu	-634
▁watch	-635
▁little	-636
ked	-637
per	-638
▁Al	-639
we	-640
▁import	-641
▁techn	-642
▁8	-643
▁something	-644
▁After	-645
ries	-646
▁month	-647
▁find	-648
▁money	-649
▁As	-650
form	-651
fect	-652
ouse	-653
ology	-654
ens	-655
▁here	-656
▁child	-657
ivers	-658
▁person	-659
▁chang	-660
▁ear	-661
▁better	-662
▁country	-663
▁sur	-664
stand	-665
ried	-666
▁used	-667
▁next	-668
▁again	-669
▁develop	-670
get	-671
▁gen	-672
cial	-673
ail	-674
▁sc	-675
▁Chin	-676
way	-677
▁eat	-678
te	-679
▁shop	-680
wn	-681
ited	-682
▁writing	-683
▁fl	-684
cess	-685
ert	-686
▁bl	-687
▁family	-688
▁conc	-689
ff	-690
▁into	-691
ark	-692
▁br	-693
▁str	-694
own	-695
tt	-696
▁able	-697
ficult	-698
▁man	-699
▁For	-700
ia	-701
▁;	-702
uring	-703
ower	-704
▁difficult	-705
▁understand	-706
▁per	-707
be	-708
▁che	-709
▁list	-710
▁different	-711
▁att	-712
▁fore	-713
▁important	-714
▁cor	-715
imes	-716
▁comm	-717
▁then	-718
ities	-719
▁started	-720
▁diary	-721
lease	-722
hes	-723
iversity	-724
▁happy	-725
thing	-726
ves	-727
▁best	-728
ten	-729
▁found	-730
ious	-731
▁mus	-732
▁why	-733
▁pub	-734
pl	-735
▁What	-736
▁live	-737
als	-738
▁pop	-739
▁food	-740
▁big	-741
▁great	-742
▁house	-743
▁same	-744
ward	-745
▁V	-746
port	-747
▁test	-748
aking	-749
▁Re	-750
alth	-751
▁gu	-752
▁rest	-753
▁teac	-754
ave	-755
▁never	-756
ky	-757
▁eas	-758
▁where	-759
▁reason	-760
are	-761
vent	-762
▁mor	-763
▁pos	-764
▁care	-765
ety	-766
▁come	-767
▁studying	-768
▁improve	-769
▁students	-770
▁listen	-771
▁meet	-772
▁Now	-773
▁teacher	-774
▁around	-775
erg	-776
lder	-777
▁ri	-778
▁while	-779
vern	-780
▁ago	-781
ours	-782
ody	-783
gr	-784
▁pa	-785
▁spend	-786
▁bel	-787
▁sle	-788
vernment	-789
▁night	-790
▁nuclear	-791
▁buy	-792
ck	-793
▁em	-794
▁keep	-795
▁won	-796
▁morning	-797
▁tell	-798
▁eng	-799
▁does	-800
lect	-801
▁popul	-802
▁public	-803
▁language	-804
▁place	-805
orrow	-806
ided	-807
▁trans	-808
▁myself	-809
▁real	-810
▁took	-811
▁came	-812
▁Because	-813
▁bad	-814
uture	-815
▁sum	-816
▁correct	-817
▁must	-818
▁mat	-819
▁On	-820
▁cons	-821
ire	-822
ics	-823
▁vis	-824
▁few	-825
read	-826
duct	-827
▁5	-828
bs	-829
▁government	-830
▁4	-831
urn	-832
ull	-833
▁You	-834
▁Kore	-835
▁stay	-836
cond	-837
▁han	-838
▁foreign	-839
▁op	-840
oint	-841
▁future	-842
▁its	-843
▁called	-844
▁less	-845
ied	-846
▁elder	-847
▁movie	-848
ergy	-849
ork	-850
cially	-851
▁sy	-852
▁rem	-853
▁inst	-854
ages	-855
▁fact	-856
ft	-857
▁countries	-858
▁health	-859
▁another	-860
▁That	-861
elt	-862
▁each	-863
ord	-864
ature	-865
▁give	-866
▁thing	-867
▁met	-868
▁working	-869
▁mem	-870
ative	-871
▁technology	-872
▁during	-873
▁cour	-874
▁ind	-875
▁skill	-876
▁children	-877
ip	-878
▁supp	-879
though	-880
▁university	-881
ately	-882
▁felt	-883
ired	-884
meric	-885
▁sent	-886
▁though	-887
▁experi	-888
▁exc	-889
▁2009	-890
▁end	-891
▁Americ	-892
oll	-893
▁seem	-894
▁result	-895
▁sleep	-896
▁wanted	-897
ttp	-898
au	-899
▁being	-900
▁//	-901
▁http	-902
▁example	-903
ru	-904
▁company	-905
▁elderly	-906
▁20	-907
▁add	-908
aut	-909
▁gir	-910
▁let	-911
▁Un	-912
rough	-913
▁told	-914
▁looking	-915
▁music	-916
▁pass	-917
▁hot	-918
pecially	-919
ping	-920
▁plan	-921
▁yesterday	-922
▁train	-923
▁min	-924
▁right	-925
ual	-926
▁without	-927
▁using	-928
▁disc	-929
ian	-930
▁reg	-931
ident	-932
▁design	-933
▁coll	-934
stem	-935
▁course	-936
ational	-937
▁become	-938
▁One	-939
arch	-940
▁es	-941
oth	-942
▁Do	-943
▁St	-944
▁Ne	-945
ner	-946
ortun	-947
▁often	-948
▁cost	-949
▁beaut	-950
iew	-951
▁At	-952
▁decided	-953
▁beg	-954
ieve	-955
▁First	-956
ility	-957
ream	-958
▁adv	-959
▁might	-960
▁rain	-961
▁words	-962
▁learning	-963
ments	-964
▁react	-965
▁pract	-966
▁tom	-967
▁down	-968
▁power	-969
ffect	-970
ates	-971
erv	-972
▁reading	-973
▁summer	-974
pr	-975
rents	-976
▁inform	-977
▁soon	-978
▁own	-979
conom	-980
▁energy	-981
iness	-982
▁through	-983
▁problems	-984
▁art	-985
ating	-986
▁student	-987
ised	-988
az	-989
erm	-990
▁gl	-991
ures	-992
ember	-993
▁process	-994
▁gener	-995
▁saw	-996
▁room	-997
▁wa	-998
▁Chinese	-999
▁young	-1000
▁hand	-1001
▁fav	-1002
▁sit	-1003
▁ide	-1004
sible	-1005
▁three	-1006
▁system	-1007
iful	-1008
▁incre	-1009
▁sol	-1010
▁interesting	-1011
enc	-1012
▁sometimes	-1013
ks	-1014
ject	-1015
ched	-1016
▁pol	-1017
▁Then	-1018
▁put	-1019
▁hum	-1020
▁enough	-1021
aur	-1022
ok	-1023
▁those	-1024
▁city	-1025
most	-1026
▁pres	-1027
▁cold	-1028
▁someone	-1029
▁books	-1030
iss	-1031
▁sha	-1032
▁tri	-1033
▁Se	-1034
▁bought	-1035
▁beautiful	-1036
▁TV	-1037
▁name	-1038
▁travel	-1039
▁parents	-1040
▁especially	-1041
▁near	-1042
cept	-1043
▁wonder	-1044
▁econom	-1045
▁main	-1046
▁nice	-1047
▁Lang	-1048
ished	-1049
▁asked	-1050
▁tomorrow	-1051
aurant	-1052
▁med	-1053
▁drink	-1054
ready	-1055
ial	-1056
▁rese	-1057
ween	-1058
▁product	-1059
oon	-1060
kyo	-1061
▁happen	-1062
▁already	-1063
ternet	-1064
▁]	-1065
▁between	-1066
▁dep	-1067
▁^	-1068
▁[	-1069
ric	-1070
ingap	-1071
▁restaurant	-1072
▁girl	-1073
gram	-1074
▁May	-1075
ingapore	-1076
▁small	-1077
olid	-1078
ering	-1079
▁Tokyo	-1080
▁6	-1081
ute	-1082
ai	-1083
▁forward	-1084
▁song	-1085
ild	-1086
▁commun	-1087
ater	-1088
▁inv	-1089
▁hours	-1090
▁heard	-1091
ys	-1092
▁walk	-1093
til	-1094
▁elect	-1095
▁news	-1096
ug	-1097
ell	-1098
▁free	-1099
▁site	-1100
▁run	-1101
▁ed	-1102
▁pict	-1103
▁mean	-1104
▁Therefore	-1105
▁sim	-1106
ient	-1107
▁holid	-1108
▁Singapore	-1109
duc	-1110
led	-1111
▁ac	-1112
atur	-1113
▁information	-1114
▁Some	-1115
ences	-1116
▁development	-1117
▁program	-1118
▁change	-1119
ues	-1120
com	-1121
▁almost	-1122
ime	-1123
▁19	-1124
▁makes	-1125
oup	-1126
▁sub	-1127
▁order	-1128
▁quest	-1129
▁skills	-1130
aw	-1131
▁mother	-1132
▁Although	-1133
▁colle	-1134
ath	-1135
▁10	-1136
ared	-1137
ffic	-1138
▁'d	-1139
▁famous	-1140
ax	-1141
▁prep	-1142
w.	-1143
▁doing	-1144
▁ret	-1145
▁means	-1146
ize	-1147
▁until	-1148
▁times	-1149
ww.	-1150
work	-1151
▁believe	-1152
its	-1153
▁experience	-1154
▁water	-1155
▁usually	-1156
over	-1157
ific	-1158
▁shopping	-1159
▁everyone	-1160
ets	-1161
▁//w	-1162
▁trip	-1163
▁stop	-1164
▁war	-1165
▁grad	-1166
▁cr	-1167
▁Any	-1168
omm	-1169
▁point	-1170
▁sport	-1171
▁ty	-1172
ased	-1173
▁living	-1174
▁//www.	-1175
ier	-1176
▁story	-1177
▁Wh	-1178
▁chan	-1179
oor	-1180
ote	-1181
ny	-1182
▁comput	-1183
ball	-1184
▁air	-1185
▁having	-1186
ron	-1187
▁second	-1188
▁cur	-1189
▁getting	-1190
▁clot	-1191
▁engine	-1192
▁Than	-1193
▁game	-1194
ized	-1195
anc	-1196
▁research	-1197
▁please	-1198
▁dream	-1199
▁hear	-1200
▁watching	-1201
▁favor	-1202
▁weather	-1203
br	-1204
▁conf	-1205
duce	-1206
pect	-1207
oss	-1208
▁tired	-1209
▁pri	-1210
uation	-1211
▁sw	-1212
▁bit	-1213
iron	-1214
side	-1215
road	-1216
▁speaking	-1217
▁opp	-1218
▁cult	-1219
▁wo	-1220
▁wom	-1221
▁both	-1222
▁age	-1223
▁ask	-1224
▁sure	-1225
rie	-1226
less	-1227
etic	-1228
ene	-1229
▁months	-1230
▁env	-1231
▁aged	-1232
unch	-1233
▁sl	-1234
▁tried	-1235
▁Yesterday	-1236
inner	-1237
▁soci	-1238
osed	-1239
▁anything	-1240
▁sing	-1241
▁watched	-1242
▁party	-1243
▁prov	-1244
▁contin	-1245
▁cook	-1246
▁dri	-1247
augh	-1248
▁Every	-1249
fer	-1250
hip	-1251
▁mind	-1252
▁educ	-1253
land	-1254
ted	-1255
▁inter	-1256
ered	-1257
ond	-1258
▁Please	-1259
ons	-1260
▁transport	-1261
▁whe	-1262
app	-1263
▁surpr	-1264
▁build	-1265
▁possible	-1266
▁tem	-1267
▁num	-1268
ife	-1269
▁New	-1270
ix	-1271
▁boy	-1272
▁visit	-1273
▁plant	-1274
▁%	-1275
▁everything	-1276
ives	-1277
ger	-1278
utes	-1279
▁others	-1280
▁spending	-1281
▁short	-1282
▁favorite	-1283
▁team	-1284
ital	-1285
aster	-1286
▁interested	-1287
lud	-1288
▁busy	-1289
▁thinking	-1290
▁American	-1291
▁pain	-1292
gether	-1293
▁population	-1294
osp	-1295
▁Is	-1296
▁far	-1297
io	-1298
▁business	-1299
▁China	-1300
ists	-1301
▁expl	-1302
▁clothes	-1303
▁By	-1304
▁left	-1305
▁lives	-1306
den	-1307
▁together	-1308
ming	-1309
▁teach	-1310
▁requ	-1311
▁communic	-1312
ead	-1313
▁bir	-1314
ank	-1315
▁sound	-1316
▁win	-1317
▁mist	-1318
ER	-1319
ness	-1320
▁finished	-1321
ironment	-1322
▁office	-1323
▁past	-1324
▁7	-1325
▁Rec	-1326
▁present	-1327
▁mom	-1328
▁effect	-1329
▁strong	-1330
ock	-1331
▁ma	-1332
▁society	-1333
▁Anyway	-1334
▁expect	-1335
▁listening	-1336
▁vac	-1337
▁ans	-1338
new	-1339
▁weekend	-1340
aper	-1341
▁US	-1342
ts	-1343
▁cat	-1344
itten	-1345
▁These	-1346
gest	-1347
▁Act	-1348
IN	-1349
▁support	-1350
▁Last	-1351
▁=	-1352
▁easy	-1353
▁activ	-1354
▁addition	-1355
▁bre	-1356
▁pay	-1357
bers	-1358
▁Ret	-1359
▁intro	-1360
▁early	-1361
▁recently	-1362
ister	-1363
▁environment	-1364
▁practice	-1365
▁~	-1366
▁bo	-1367
▁Korean	-1368
▁away	-1369
▁loc	-1370
ides	-1371
ense	-1372
▁Since	-1373
ution	-1374
▁idea	-1375
▁turn	-1376
▁due	-1377
▁human	-1378
▁entry	-1379
▁rece	-1380
rieved	-1381
▁Also	-1382
▁holiday	-1383
ention	-1384
▁minutes	-1385
▁Recently	-1386
▁special	-1387
▁jour	-1388
▁Maybe	-1389
▁gave	-1390
▁top	-1391
▁aging	-1392
▁taking	-1393
▁grow	-1394
▁lunch	-1395
ames	-1396
▁playing	-1397
▁popular	-1398
▁open	-1399
▁cle	-1400
▁everyday	-1401
▁ate	-1402
body	-1403
▁opin	-1404
ully	-1405
▁computer	-1406
▁written	-1407
aces	-1408
▁webs	-1409
▁da	-1410
ior	-1411
ases	-1412
▁face	-1413
urther	-1414
ency	-1415
▁seems	-1416
▁whether	-1417
ph	-1418
ular	-1419
ollow	-1420
ash	-1421
▁Can	-1422
▁mar	-1423
ploy	-1424
▁&	-1425
▁cam	-1426
▁dinner	-1427
▁express	-1428
▁begin	-1429
▁var	-1430
rence	-1431
▁making	-1432
▁Retrieved	-1433
▁Of	-1434
▁iss	-1435
▁sal	-1436
▁movies	-1437
▁ob	-1438
used	-1439
▁ext	-1440
▁fil	-1441
▁phone	-1442
ices	-1443
▁seen	-1444
ange	-1445
▁lim	-1446
▁includ	-1447
▁rep	-1448
▁prof	-1449
▁sun	-1450
▁av	-1451
▁yet	-1452
▁looked	-1453
▁snow	-1454
▁cent	-1455
yc	-1456
▁30	-1457
▁follow	-1458
▁lar	-1459
ral	-1460
uk	-1461
▁Actually	-1462
old	-1463
▁enjoyed	-1464
ars	-1465
▁ass	-1466
▁arri	-1467
▁situation	-1468
▁sec	-1469
▁serv	-1470
view	-1471
ertain	-1472
▁electric	-1473
▁season	-1474
▁comple	-1475
ably	-1476
▁group	-1477
ortunately	-1478
▁Sh	-1479
more	-1480
▁store	-1481
▁Korea	-1482
▁earth	-1483
ival	-1484
ording	-1485
▁expens	-1486
me	-1487
▁vo	-1488
▁All	-1489
▁Even	-1490
▁lead	-1491
▁cond	-1492
▁quite	-1493
▁number	-1494
rib	-1495
ination	-1496
▁bas	-1497
▁vacation	-1498
fort	-1499
ring	-1500
▁bed	-1501
ned	-1502
▁Fin	-1503
▁chance	-1504
med	-1505
▁convers	-1506
▁talked	-1507
▁played	-1508
▁wear	-1509
aughter	-1510
ories	-1511
reen	-1512
▁birth	-1513
▁education	-1514
▁college	-1515
▁bor	-1516
▁9	-1517
ird	-1518
ped	-1519
ines	-1520
perature	-1521
▁wrote	-1522
▁talking	-1523
▁phot	-1524
▁cool	-1525
▁ref	-1526
▁genetic	-1527
▁level	-1528
▁bene	-1529
▁break	-1530
▁sever	-1531
ik	-1532
▁area	-1533
▁choo	-1534
▁post	-1535
▁once	-1536
▁det	-1537
fety	-1538
ium	-1539
▁maj	-1540
sel	-1541
▁several	-1542
▁clean	-1543
▁changed	-1544
▁join	-1545
▁became	-1546
▁partic	-1547
arket	-1548
▁late	-1549
nal	-1550
▁Sep	-1551
▁pat	-1552
▁answ	-1553
▁check	-1554
▁half	-1555
▁coming	-1556
▁wife	-1557
▁remember	-1558
▁whole	-1559
▁website	-1560
▁daughter	-1561
▁TO	-1562
▁abroad	-1563
.com	-1564
icle	-1565
▁More	-1566
▁current	-1567
ustom	-1568
▁sad	-1569
ht	-1570
▁wind	-1571
gan	-1572
▁town	-1573
▁ever	-1574
ivid	-1575
▁body	-1576
▁word	-1577
ty	-1578
▁true	-1579
▁learned	-1580
▁rad	-1581
▁done	-1582
▁fast	-1583
erious	-1584
▁Somet	-1585
vert	-1586
▁ve	-1587
▁wish	-1588
▁social	-1589
ike	-1590
▁father	-1591
▁perform	-1592
▁happened	-1593
ruct	-1594
▁poor	-1595
▁ins	-1596
▁With	-1597
▁cre	-1598
▁stand	-1599
▁stre	-1600
estival	-1601
▁letter	-1602
▁_	-1603
▁aut	-1604
▁set	-1605
▁view	-1606
▁allow	-1607
▁ten	-1608
▁Dear	-1609
▁recomm	-1610
▁opinion	-1611
ider	-1612
▁major	-1613
▁Thank	-1614
▁concert	-1615
▁recommend	-1616
▁ey	-1617
▁polic	-1618
▁members	-1619
▁charact	-1620
▁pur	-1621
▁sentences	-1622
▁inf	-1623
▁ter	-1624
▁trying	-1625
▁Many	-1626
▁studied	-1627
▁employ	-1628
▁internet	-1629
book	-1630
▁feeling	-1631
▁languages	-1632
erc	-1633
▁Fr	-1634
TR	-1635
ising	-1636
▁weeks	-1637
▁head	-1638
▁maybe	-1639
▁surprised	-1640
ically	-1641
▁Sept	-1642
▁inn	-1643
▁aw	-1644
fully	-1645
▁lots	-1646
▁opportun	-1647
▁miss	-1648
▁sci	-1649
▁*	-1650
▁Second	-1651
▁instead	-1652
▁ser	-1653
▁needs	-1654
▁culture	-1655
▁concer	-1656
▁mid	-1657
▁english	-1658
▁safety	-1659
▁attend	-1660
line	-1661
sy	-1662
selves	-1663
oot	-1664
▁vide	-1665
▁actually	-1666
▁oper	-1667
▁individ	-1668
uck	-1669
▁son	-1670
▁heart	-1671
▁tast	-1672
▁def	-1673
ision	-1674
amm	-1675
▁club	-1676
▁hun	-1677
▁reactors	-1678
▁swim	-1679
▁Oct	-1680
▁priv	-1681
▁places	-1682
▁reactor	-1683
▁full	-1684
▁later	-1685
hang	-1686
▁September	-1687
▁hair	-1688
ama	-1689
▁spent	-1690
htm	-1691
▁prop	-1692
▁col	-1693
▁sign	-1694
▁picture	-1695
▁term	-1696
▁resp	-1697
▁nothing	-1698
ling	-1699
▁prom	-1700
▁amount	-1701
ternational	-1702
oke	-1703
▁dist	-1704
▁compet	-1705
▁four	-1706
▁least	-1707
rist	-1708
▁choose	-1709
▁expensive	-1710
▁gradu	-1711
▁natur	-1712
ID	-1713
▁custom	-1714
▁native	-1715
ery	-1716
▁et	-1717
▁Gen	-1718
▁daily	-1719
yle	-1720
▁VH	-1721
▁ev	-1722
aph	-1723
▁Finally	-1724
artment	-1725
▁evening	-1726
by	-1727
hile	-1728
▁sug	-1729
▁serious	-1730
▁swe	-1731
▁wait	-1732
usion	-1733
▁easily	-1734
fortable	-1735
ding	-1736
▁case	-1737
▁organ	-1738
▁'re	-1739
▁Sometimes	-1740
▁activities	-1741
▁Why	-1742
▁benef	-1743
▁quick	-1744
▁VHTR	-1745
▁tick	-1746
▁Acc	-1747
▁film	-1748
▁hosp	-1749
lement	-1750
▁Br	-1751
▁finish	-1752
duced	-1753
▁journal	-1754
▁hour	-1755
▁wrong	-1756
▁large	-1757
ality	-1758
▁park	-1759
▁lost	-1760
band	-1761
air	-1762
▁bring	-1763
▁relax	-1764
ffe	-1765
▁mess	-1766
▁known	-1767
▁finally	-1768
▁advert	-1769
▁i	-1770
▁earthqu	-1771
uel	-1772
ledge	-1773
▁sister	-1774
▁temperature	-1775
na	-1776
▁move	-1777
▁Internet	-1778
▁areas	-1779
▁occ	-1780
▁question	-1781
▁fac	-1782
▁knew	-1783
▁increase	-1784
where	-1785
▁sports	-1786
▁reasons	-1787
uly	-1788
▁games	-1789
▁fall	-1790
ressed	-1791
▁delic	-1792
▁compan	-1793
oura	-1794
▁enc	-1795
▁event	-1796
▁meeting	-1797
▁De	-1798
▁Sun	-1799
▁accident	-1800
▁kinds	-1801
▁answer	-1802
▁disapp	-1803
g/	-1804
▁innov	-1805
▁results	-1806
.htm	-1807
▁winter	-1808
ront	-1809
.com/	-1810
ros	-1811
▁succ	-1812
▁anim	-1813
▁hus	-1814
lling	-1815
night	-1816
▁dog	-1817
▁excited	-1818
oud	-1819
▁songs	-1820
▁economic	-1821
udden	-1822
▁etc	-1823
iven	-1824
▁prefer	-1825
▁various	-1826
▁Aust	-1827
▁eating	-1828
▁dise	-1829
▁hist	-1830
▁cars	-1831
▁gramm	-1832
▁husband	-1833
▁success	-1834
▁Sp	-1835
ield	-1836
▁score	-1837
▁birthday	-1838
▁dra	-1839
bably	-1840
ced	-1841
▁Tai	-1842
▁classes	-1843
▁companies	-1844
▁leave	-1845
▁matter	-1846
adays	-1847
▁worked	-1848
▁explain	-1849
▁products	-1850
ional	-1851
▁pictures	-1852
asing	-1853
▁medical	-1854
▁mistakes	-1855
▁flu	-1856
▁light	-1857
aken	-1858
▁Ind	-1859
sib	-1860
ober	-1861
orry	-1862
▁held	-1863
▁trad	-1864
▁questions	-1865
▁kid	-1866
▁Christ	-1867
▁ess	-1868
▁Moreover	-1869
▁delicious	-1870
ctor	-1871
▁necess	-1872
iced	-1873
▁knowledge	-1874
▁ann	-1875
▁effic	-1876
▁contro	-1877
▁cap	-1878
▁conversation	-1879
▁October	-1880
▁consider	-1881
▁sat	-1882
▁men	-1883
▁price	-1884
▁alone	-1885
▁cut	-1886
fortunately	-1887
llo	-1888
▁continue	-1889
ived	-1890
▁arrived	-1891
ps	-1892
▁15	-1893
▁front	-1894
itive	-1895
▁perfect	-1896
▁hig	-1897
▁outside	-1898
▁useful	-1899
▁mot	-1900
vious	-1901
▁profess	-1902
▁bab	-1903
▁natural	-1904
rences	-1905
sych	-1906
▁five	-1907
ources	-1908
▁const	-1909
ones	-1910
▁clear	-1911
▁woman	-1912
▁market	-1913
▁low	-1914
▁moment	-1915
▁suggest	-1916
ins	-1917
ilar	-1918
▁generation	-1919
▁lesson	-1920
▁waste	-1921
noon	-1922
▁America	-1923
▁pot	-1924
co	-1925
▁mo	-1926
▁worried	-1927
▁fail	-1928
▁Austral	-1929
outh	-1930
▁report	-1931
▁af	-1932
▁ap	-1933
friend	-1934
▁return	-1935
ged	-1936
▁People	-1937
▁pe	-1938
▁fuel	-1939
ging	-1940
▁Te	-1941
▁afternoon	-1942
lusion	-1943
ret	-1944
INK	-1945
▁el	-1946
▁chat	-1947
▁glad	-1948
▁comes	-1949
▁needed	-1950
▁complete	-1951
▁imag	-1952
PER	-1953
ats	-1954
FID	-1955
▁mail	-1956
uss	-1957
▁guess	-1958
▁prevent	-1959
▁}	-1960
▁trou	-1961
orld	-1962
▁service	-1963
▁earthquake	-1964
raid	-1965
▁quickly	-1966
▁{	-1967
▁brother	-1968
▁takes	-1969
▁sentence	-1970
▁certain	-1971
▁festival	-1972
▁HY	-1973
▁form	-1974
▁send	-1975
▁afraid	-1976
▁technolog	-1977
▁close	-1978
▁anyone	-1979
▁engineering	-1980
▁No	-1981
▁Tom	-1982
▁passed	-1983
▁exerc	-1984
PERL	-1985
▁depend	-1986
PERLINK	-1987
▁common	-1988
▁HYPERLINK	-1989
▁cause	-1990
▁super	-1991
▁forget	-1992
▁relations	-1993
▁2008	-1994
▁respon	-1995
▁condition	-1996
▁Hi	-1997
ush	-1998
wan	-1999
▁Well	-2000
▁July	-2001
▁RFID	-2002
▁tot	-2003
▁project	-2004
▁University	-2005
▁becom	-2006
▁ability	-2007
▁realized	-2008
▁ill	-2009
mon	-2010
ondon	-2011
uddenly	-2012
ma	-2013
▁probably	-2014
une	-2015
▁video	-2016
▁direct	-2017
▁conclusion	-2018
▁text	-2019
▁Nuclear	-2020
rible	-2021
▁older	-2022
▁teachers	-2023
▁00	-2024
▁conven	-2025
▁wonderful	-2026
▁comfortable	-2027
▁taken	-2028
▁rather	-2029
▁Mon	-2030
iving	-2031
▁London	-2032
▁Most	-2033
▁card	-2034
▁women	-2035
▁grammar	-2036
▁waiting	-2037
▁although	-2038
▁ones	-2039
▁affect	-2040
ffort	-2041
▁hospital	-2042
▁finan	-2043
▁Thus	-2044
▁prot	-2045
▁plants	-2046
▁workers	-2047
▁Sunday	-2048
ffee	-2049
▁materi	-2050
ored	-2051
▁According	-2052
▁communicate	-2053
▁station	-2054
▁12	-2055
▁TOE	-2056
ilities	-2057
▁spring	-2058
▁tradition	-2059
▁heav	-2060
▁effort	-2061
▁building	-2062
gry	-2063
rig	-2064
esides	-2065
▁meaning	-2066
mas	-2067
▁bar	-2068
▁forg	-2069
▁100	-2070
▁ris	-2071
▁funny	-2072
▁eyes	-2073
▁norm	-2074
▁arg	-2075
▁ways	-2076
rain	-2077
ism	-2078
▁foot	-2079
▁subject	-2080
▁economy	-2081
▁grand	-2082
▁rice	-2083
▁Ap	-2084
iet	-2085
▁sea	-2086
itions	-2087
▁radio	-2088
▁transl	-2089
▁tre	-2090
ili	-2091
aturday	-2092
▁difference	-2093
rely	-2094
ential	-2095
▁ce	-2096
▁mag	-2097
▁tour	-2098
ants	-2099
earch	-2100
▁Hello	-2101
raph	-2102
▁iP	-2103
▁Pro	-2104
▁nerv	-2105
▁11	-2106
ycle	-2107
▁cho	-2108
man	-2109
▁article	-2110
▁advertise	-2111
▁bro	-2112
▁works	-2113
▁nervous	-2114
▁strange	-2115
▁cell	-2116
▁interview	-2117
▁coffee	-2118
▁electricity	-2119
obal	-2120
▁wants	-2121
uge	-2122
▁save	-2123
▁While	-2124
urthermore	-2125
ailable	-2126
tain	-2127
▁Taiwan	-2128
▁prepare	-2129
▁necessary	-2130
IC	-2131
wards	-2132
▁ach	-2133
▁similar	-2134
▁paper	-2135
▁received	-2136
▁attract	-2137
isf	-2138
▁accept	-2139
ara	-2140
▁From	-2141
▁val	-2142
▁lack	-2143
▁themselves	-2144
▁hur	-2145
▁ple	-2146
▁sky	-2147
▁mil	-2148
anger	-2149
▁compared	-2150
▁web	-2151
▁lived	-2152
▁given	-2153
▁psych	-2154
▁cra	-2155
▁lov	-2156
▁began	-2157
▁relationship	-2158
▁Me	-2159
iction	-2160
▁provide	-2161
▁Saturday	-2162
cture	-2163
▁defin	-2164
icles	-2165
▁deal	-2166
idents	-2167
▁swimming	-2168
dern	-2169
ze	-2170
ada	-2171
urs	-2172
▁treat	-2173
ciation	-2174
mp	-2175
▁opportunity	-2176
▁tend	-2177
▁invest	-2178
▁pron	-2179
▁warm	-2180
aff	-2181
atives	-2182
▁del	-2183
▁baby	-2184
▁kill	-2185
▁above	-2186
200	-2187
▁En	-2188
▁road	-2189
▁Furthermore	-2190
▁increasing	-2191
▁saying	-2192
▁discuss	-2193
omp	-2194
ountain	-2195
▁helped	-2196
hod	-2197
▁appre	-2198
oes	-2199
llen	-2200
▁sorry	-2201
▁running	-2202
▁expected	-2203
obile	-2204
▁encoura	-2205
oto	-2206
▁seemed	-2207
▁says	-2208
ands	-2209
ither	-2210
uff	-2211
▁law	-2212
▁higher	-2213
▁side	-2214
▁Yours	-2215
▁hotel	-2216
▁safe	-2217
▁green	-2218
▁however	-2219
care	-2220
▁201	-2221
▁history	-2222
▁step	-2223
▁field	-2224
▁foreigners	-2225
ril	-2226
▁invent	-2227
ients	-2228
▁beginning	-2229
▁dev	-2230
▁issue	-2231
▁regard	-2232
▁Our	-2233
▁cal	-2234
▁Ar	-2235
▁against	-2236
▁huge	-2237
▁boyfriend	-2238
▁neg	-2239
▁method	-2240
▁hob	-2241
ying	-2242
▁Secondly	-2243
▁developed	-2244
dle	-2245
▁foc	-2246
▁advant	-2247
ib	-2248
▁simple	-2249
▁TH	-2250
▁World	-2251
▁equ	-2252
iding	-2253
oms	-2254
▁limited	-2255
▁exciting	-2256
▁surve	-2257
gen	-2258
▁shows	-2259
▁style	-2260
▁usual	-2261
▁dem	-2262
acy	-2263
▁among	-2264
urity	-2265
▁Christmas	-2266
▁helps	-2267
▁forgot	-2268
▁stayed	-2269
▁thank	-2270
tty	-2271
▁Another	-2272
hib	-2273
▁policies	-2274
▁char	-2275
▁fire	-2276
▁traditional	-2277
▁clim	-2278
anna	-2279
▁character	-2280
to	-2281
▁drinking	-2282
lu	-2283
oad	-2284
ney	-2285
▁fre	-2286
ee	-2287
brary	-2288
▁tele	-2289
min	-2290
ible	-2291
▁indust	-2292
▁guy	-2293
▁liked	-2294
▁press	-2295
▁financial	-2296
ience	-2297
▁closed	-2298
iqu	-2299
▁Eur	-2300
the	-2301
▁jun	-2302
▁share	-2303
▁staff	-2304
▁satisf	-2305
▁er	-2306
lebr	-2307
▁Con	-2308
▁ord	-2309
▁pretty	-2310
.or	-2311
▁longer	-2312
▁visited	-2313
▁bur	-2314
▁Day	-2315
▁looks	-2316
▁worry	-2317
ror	-2318
▁creat	-2319
▁sounds	-2320
▁lessons	-2321
▁six	-2322
ots	-2323
▁cou	-2324
rench	-2325
▁type	-2326
▁rainy	-2327
▁walking	-2328
▁attention	-2329
▁X	-2330
▁fish	-2331
ule	-2332
▁girls	-2333
▁modern	-2334
▁available	-2335
▁jobs	-2336
▁testing	-2337
illance	-2338
▁contrib	-2339
▁exchang	-2340
▁$	-2341
▁solve	-2342
▁Z	-2343
kes	-2344
▁goal	-2345
▁phys	-2346
▁Australia	-2347
▁effective	-2348
▁wanna	-2349
▁including	-2350
▁Next	-2351
▁Europe	-2352
▁boss	-2353
ashion	-2354
▁celebr	-2355
▁mod	-2356
▁advertisement	-2357
▁Ky	-2358
ables	-2359
▁appreci	-2360
resh	-2361
rigin	-2362
▁account	-2363
▁April	-2364
▁mountain	-2365
▁starting	-2366
▁Tw	-2367
▁Aug	-2368
▁gone	-2369
▁disappoint	-2370
▁younger	-2371
gress	-2372
▁reduce	-2373
▁Besides	-2374
▁feelings	-2375
▁His	-2376
ction	-2377
▁individual	-2378
▁ideas	-2379
▁Germ	-2380
▁Unfortunately	-2381
ata	-2382
▁Mic	-2383
▁draw	-2384
▁mention	-2385
▁training	-2386
▁During	-2387
▁protect	-2388
sian	-2389
▁pick	-2390
▁typ	-2391
▁amaz	-2392
▁challen	-2393
▁contact	-2394
▁introduce	-2395
▁woke	-2396
▁final	-2397
▁agree	-2398
astic	-2399
▁lose	-2400
▁suit	-2401
▁weight	-2402
come	-2403
idence	-2404
▁Gener	-2405
▁local	-2406
ah	-2407
ances	-2408
▁self	-2409
medi	-2410
▁2007	-2411
▁seeing	-2412
ator	-2413
nect	-2414
bo	-2415
▁costs	-2416
▁manag	-2417
▁Thanks	-2418
sibility	-2419
▁voice	-2420
▁global	-2421
ined	-2422
▁bath	-2423
▁fine	-2424
▁Firstly	-2425
▁Have	-2426
▁mach	-2427
rop	-2428
▁doctor	-2429
▁homework	-2430
▁international	-2431
▁Before	-2432
▁Ex	-2433
▁purp	-2434
eriod	-2435
▁mobile	-2436
▁IV	-2437
▁blog	-2438
utions	-2439
▁except	-2440
▁red	-2441
itting	-2442
aring	-2443
▁camp	-2444
▁moved	-2445
▁third	-2446
ograph	-2447
▁March	-2448
▁caused	-2449
▁classm	-2450
▁stress	-2451
ude	-2452
▁vol	-2453
▁engineers	-2454
▁Hence	-2455
▁Though	-2456
for	-2457
aka	-2458
▁Ph	-2459
illion	-2460
▁healthy	-2461
▁advice	-2462
▁quality	-2463
▁easier	-2464
▁worse	-2465
▁danger	-2466
▁hold	-2467
zy	-2468
mber	-2469
.html	-2470
ability	-2471
▁issues	-2472
nis	-2473
▁cute	-2474
▁online	-2475
▁period	-2476
▁terrible	-2477
▁following	-2478
irc	-2479
▁Ital	-2480
▁further	-2481
▁particular	-2482
und	-2483
▁sick	-2484
▁suddenly	-2485
itiz	-2486
▁lab	-2487
.org/	-2488
▁kids	-2489
▁abs	-2490
▁personal	-2491
ross	-2492
▁control	-2493
▁deg	-2494
▁>	-2495
hern	-2496
▁Not	-2497
▁else	-2498
▁slow	-2499
▁sense	-2500
▁joined	-2501
▁goes	-2502
▁stopped	-2503
▁hearing	-2504
▁speakers	-2505
▁French	-2506
▁benefits	-2507
▁origin	-2508
ane	-2509
▁track	-2510
▁private	-2511
AN	-2512
▁Rus	-2513
yd	-2514
▁199	-2515
▁disease	-2516
aught	-2517
▁decide	-2518
▁planning	-2519
ural	-2520
▁connect	-2521
▁Oh	-2522
▁deep	-2523
▁August	-2524
▁couple	-2525
bul	-2526
atre	-2527
▁everybody	-2528
▁black	-2529
▁heavy	-2530
ji	-2531
▁security	-2532
▁colleag	-2533
iday	-2534
▁boring	-2535
▁resources	-2536
▁PC	-2537
▁national	-2538
orn	-2539
amed	-2540
▁born	-2541
▁poll	-2542
▁normal	-2543
▁library	-2544
▁performance	-2545
ler	-2546
lain	-2547
▁middle	-2548
ured	-2549
▁along	-2550
▁dam	-2551
▁sus	-2552
▁brought	-2553
▁crow	-2554
ccer	-2555
▁turned	-2556
hone	-2557
▁shops	-2558
▁completely	-2559
▁Refe	-2560
cast	-2561
▁hate	-2562
▁focus	-2563
ton	-2564
▁medic	-2565
▁Tomorrow	-2566
▁Ad	-2567
▁Mr	-2568
iter	-2569
room	-2570
enced	-2571
▁June	-2572
▁state	-2573
▁trouble	-2574
▁effici	-2575
▁respect	-2576
▁repl	-2577
▁dou	-2578
▁gas	-2579
ource	-2580
▁exams	-2581
ization	-2582
▁dest	-2583
▁appro	-2584
ym	-2585
▁suff	-2586
pd	-2587
▁fa	-2588
▁log	-2589
▁guys	-2590
▁exercise	-2591
ket	-2592
uri	-2593
pite	-2594
time	-2595
▁bag	-2596
▁Year	-2597
▁married	-2598
.g	-2599
▁manage	-2600
▁Canada	-2601
▁noticed	-2602
ON	-2603
itical	-2604
▁concern	-2605
▁disappointed	-2606
▁ball	-2607
▁graduate	-2608
▁aff	-2609
▁surf	-2610
▁particip	-2611
▁ticket	-2612
▁science	-2613
▁don	-2614
▁tennis	-2615
▁Pat	-2616
▁choice	-2617
▁related	-2618
▁risk	-2619
▁Her	-2620
▁pie	-2621
▁citiz	-2622
▁leg	-2623
▁holidays	-2624
▁Cl	-2625
▁hous	-2626
▁Monday	-2627
▁Ab	-2628
▁Os	-2629
cent	-2630
▁wed	-2631
▁beer	-2632
▁veget	-2633
▁search	-2634
▁soccer	-2635
apt	-2636
▁tea	-2637
s/	-2638
ima	-2639
oid	-2640
▁fr	-2641
omed	-2642
▁USA	-2643
itely	-2644
▁base	-2645
▁applic	-2646
▁communication	-2647
ume	-2648
▁Just	-2649
▁beha	-2650
▁either	-2651
▁mis	-2652
▁catch	-2653
▁influ	-2654
▁Nowadays	-2655
▁tax	-2656
▁stuff	-2657
▁street	-2658
▁tonight	-2659
aki	-2660
▁hands	-2661
▁taught	-2662
▁Or	-2663
ught	-2664
▁soft	-2665
▁previous	-2666
▁sen	-2667
▁2004	-2668
pdf	-2669
▁ste	-2670
▁points	-2671
▁Friday	-2672
ami	-2673
▁junior	-2674
▁imagine	-2675
▁instance	-2676
els	-2677
▁voca	-2678
▁white	-2679
▁series	-2680
sia	-2681
▁relatives	-2682
ians	-2683
ieved	-2684
▁TOEIC	-2685
▁ren	-2686
▁hor	-2687
lfriend	-2688
▁gain	-2689
▁healthcare	-2690
▁fell	-2691
ued	-2692
▁surveillance	-2693
tle	-2694
▁drank	-2695
▁space	-2696
000	-2697
anced	-2698
▁doll	-2699
▁door	-2700
▁growth	-2701
▁drama	-2702
▁driving	-2703
▁friendly	-2704
ges	-2705
▁tit	-2706
▁yen	-2707
▁fresh	-2708
▁inside	-2709
▁girlfriend	-2710
▁desc	-2711
▁Kyoto	-2712
▁cooking	-2713
▁mistake	-2714
▁message	-2715
▁amazing	-2716
▁mine	-2717
▁weak	-2718
▁immedi	-2719
ules	-2720
▁Let	-2721
▁clock	-2722
▁novel	-2723
▁raining	-2724
ises	-2725
obody	-2726
▁ens	-2727
anish	-2728
▁exist	-2729
▁harder	-2730
▁rate	-2731
▁access	-2732
▁teaching	-2733
▁developing	-2734
▁competition	-2735
awa	-2736
▁invol	-2737
▁topic	-2738
▁drive	-2739
▁50	-2740
▁phr	-2741
▁achieve	-2742
▁complain	-2743
▁appreciate	-2744
useum	-2745
▁rele	-2746
ires	-2747
▁touch	-2748
▁member	-2749
▁sca	-2750
▁favour	-2751
▁technologies	-2752
▁positive	-2753
ucky	-2754
▁camer	-2755
de	-2756
▁Es	-2757
▁basket	-2758
▁14	-2759
▁angry	-2760
▁stage	-2761
▁fashion	-2762
▁line	-2763
▁role	-2764
▁nature	-2765
▁opt	-2766
▁ran	-2767
aries	-2768
▁flow	-2769
▁aspect	-2770
▁football	-2771
▁<	-2772
▁musical	-2773
▁solution	-2774
▁implement	-2775
▁net	-2776
▁window	-2777
▁entries	-2778
bulary	-2779
▁studies	-2780
▁Sky	-2781
▁cher	-2782
▁taste	-2783
▁factors	-2784
▁supposed	-2785
▁progress	-2786
▁2005	-2787
▁exchange	-2788
sequ	-2789
istic	-2790
right	-2791
AT	-2792
▁sold	-2793
▁sight	-2794
▁schools	-2795
▁convenient	-2796
rast	-2797
▁color	-2798
▁create	-2799
▁spec	-2800
ded	-2801
▁trave	-2802
▁tas	-2803
.gov	-2804
aving	-2805
▁cheap	-2806
▁adult	-2807
▁plans	-2808
▁est	-2809
▁definitely	-2810
set	-2811
works	-2812
▁likes	-2813
▁diction	-2814
▁Are	-2815
▁appear	-2816
▁lat	-2817
ental	-2818
▁homet	-2819
▁retire	-2820
▁based	-2821
▁newsp	-2822
▁sweet	-2823
uth	-2824
▁Tha	-2825
▁Brit	-2826
▁materials	-2827
rance	-2828
▁Good	-2829
▁scient	-2830
▁signific	-2831
▁examination	-2832
▁Go	-2833
▁hit	-2834
EN	-2835
eb	-2836
ilt	-2837
▁kept	-2838
▁receive	-2839
▁hometown	-2840
▁13	-2841
uses	-2842
▁enter	-2843
▁staying	-2844
▁vocabulary	-2845
▁0	-2846
aves	-2847
▁Des	-2848
▁18	-2849
fast	-2850
▁band	-2851
hood	-2852
▁proper	-2853
ina	-2854
lier	-2855
▁thus	-2856
▁anymore	-2857
▁pronun	-2858
ex	-2859
▁within	-2860
▁traffic	-2861
▁Q	-2862
ech	-2863
▁totally	-2864
cha	-2865
▁25	-2866
ocol	-2867
▁Min	-2868
▁animals	-2869
▁host	-2870
▁ease	-2871
▁japan	-2872
▁Us	-2873
▁occur	-2874
▁changes	-2875
▁require	-2876
▁accidents	-2877
▁construct	-2878
bsp	-2879
onest	-2880
▁stories	-2881
▁consum	-2882
cked	-2883
rate	-2884
▁nbsp	-2885
▁sched	-2886
▁sleepy	-2887
sh	-2888
▁box	-2889
rew	-2890
load	-2891
▁par	-2892
▁gives	-2893
▁center	-2894
▁purpose	-2895
▁speaker	-2896
▁wedding	-2897
omeday	-2898
▁named	-2899
▁Ok	-2900
▁foods	-2901
▁Pl	-2902
▁bic	-2903
▁Osaka	-2904
▁favourite	-2905
lled	-2906
phone	-2907
unk	-2908
▁citizens	-2909
VD	-2910
▁Am	-2911
ighb	-2912
▁apply	-2913
▁dance	-2914
▁caught	-2915
▁basketball	-2916
▁fig	-2917
ilies	-2918
▁master	-2919
▁located	-2920
▁theatre	-2921
ique	-2922
▁16	-2923
ipp	-2924
▁cry	-2925
ached	-2926
▁DVD	-2927
▁floor	-2928
▁key	-2929
▁disaster	-2930
uals	-2931
▁motiv	-2932
▁atm	-2933
▁prin	-2934
▁discount	-2935
acks	-2936
▁realize	-2937
ift	-2938
vant	-2939
▁laz	-2940
▁pressure	-2941
▁Gr	-2942
▁concent	-2943
▁cake	-2944
bit	-2945
▁customers	-2946
▁United	-2947
▁atmosp	-2948
imin	-2949
▁climb	-2950
30	-2951
umn	-2952
▁adm	-2953
▁offic	-2954
▁worth	-2955
▁heat	-2956
▁rules	-2957
.s	-2958
gle	-2959
▁sleeping	-2960
ury	-2961
▁neighb	-2962
▁breakfast	-2963
▁mentioned	-2964
▁innovation	-2965
yl	-2966
▁entrance	-2967
▁significant	-2968
▁circ	-2969
▁Har	-2970
▁wall	-2971
▁lower	-2972
gg	-2973
▁improved	-2974
▁bot	-2975
▁presentation	-2976
ches	-2977
▁crazy	-2978
▁recent	-2979
▁becoming	-2980
▁Comp	-2981
▁dangerous	-2982
▁limit	-2983
▁detail	-2984
▁Le	-2985
▁scen	-2986
▁THE	-2987
▁earlier	-2988
.pdf	-2989
▁speed	-2990
▁programs	-2991
enty	-2992
▁medicine	-2993
▁transportation	-2994
▁immediately	-2995
▁fat	-2996
▁belong	-2997
▁pronunciation	-2998
▁non	-2999
▁2006	-3000
▁grade	-3001
▁towards	-3002
▁enjoyable	-3003
vision	-3004
▁percent	-3005
▁classmates	-3006
hael	-3007
ivity	-3008
▁sell	-3009
▁exact	-3010
▁pleas	-3011
▁impress	-3012
▁prepared	-3013
▁wake	-3014
▁introduced	-3015
har	-3016
▁death	-3017
▁characters	-3018
AR	-3019
▁decision	-3020
za	-3021
▁na	-3022
itude	-3023
▁drop	-3024
▁cities	-3025
▁families	-3026
▁apartment	-3027
board	-3028
▁Skype	-3029
▁bloss	-3030
ees	-3031
irt	-3032
por	-3033
▁ice	-3034
▁land	-3035
▁dishes	-3036
amp	-3037
▁assist	-3038
▁chocol	-3039
▁fight	-3040
▁player	-3041
▁policy	-3042
▁department	-3043
-c	-3044
ube	-3045
▁remain	-3046
▁tickets	-3047
▁Cent	-3048
▁improving	-3049
▁bat	-3050
▁ok	-3051
▁sn	-3052
▁avoid	-3053
▁contain	-3054
▁atmosphere	-3055
▁dictionary	-3056
▁+	-3057
▁volun	-3058
▁Michael	-3059
ken	-3060
▁ur	-3061
phoon	-3062
overed	-3063
▁photos	-3064
▁God	-3065
▁cup	-3066
▁Spanish	-3067
▁thoughts	-3068
▁Res	-3069
iling	-3070
ission	-3071
alif	-3072
▁events	-3073
▁element	-3074
▁keeping	-3075
▁singing	-3076
▁z	-3077
▁Inst	-3078
▁actor	-3079
▁reach	-3080
▁travelling	-3081
ison	-3082
reme	-3083
▁concept	-3084
▁psychology	-3085
ites	-3086
▁emot	-3087
▁ident	-3088
▁National	-3089
▁painting	-3090
▁la	-3091
▁Mar	-3092
▁ban	-3093
▁sincerely	-3094
▁shoes	-3095
▁biggest	-3096
nam	-3097
▁beach	-3098
▁position	-3099
▁feature	-3100
▁terms	-3101
▁confidence	-3102
▁photo	-3103
chnology	-3104
▁according	-3105
▁walked	-3106
▁effects	-3107
▁patients	-3108
ogn	-3109
▁decre	-3110
▁table	-3111
▁Everyone	-3112
iy	-3113
orth	-3114
idered	-3115
▁About	-3116
▁magaz	-3117
▁truth	-3118
▁activity	-3119
▁listened	-3120
▁reve	-3121
▁Generation	-3122
▁References	-3123
▁sem	-3124
▁Stud	-3125
iety	-3126
ocked	-3127
ground	-3128
▁parts	-3129
cer	-3130
hol	-3131
▁exce	-3132
▁paid	-3133
▁basic	-3134
▁hop	-3135
▁lif	-3136
▁cafe	-3137
▁cere	-3138
▁pack	-3139
▁considered	-3140
▁rob	-3141
▁police	-3142
▁Especially	-3143
cap	-3144
eng	-3145
▁17	-3146
▁Sum	-3147
osing	-3148
▁carry	-3149
▁lucky	-3150
▁concerned	-3151
▁broad	-3152
▁cherry	-3153
▁experiences	-3154
umb	-3155
ducing	-3156
ublic	-3157
▁Here	-3158
▁anal	-3159
▁blood	-3160
▁memor	-3161
▁created	-3162
▁produce	-3163
▁appl	-3164
▁dark	-3165
▁chose	-3166
▁aud	-3167
▁laugh	-3168
▁auth	-3169
▁built	-3170
▁blue	-3171
▁essay	-3172
▁loved	-3173
▁therefore	-3174
oul	-3175
▁helping	-3176
leep	-3177
▁Jan	-3178
▁nood	-3179
ration	-3180
▁negative	-3181
▁efficiency	-3182
▁International	-3183
itary	-3184
▁wide	-3185
▁speech	-3186
▁vegetables	-3187
▁individuals	-3188
▁oil	-3189
▁gets	-3190
▁confused	-3191
▁community	-3192
▁impact	-3193
▁enjoying	-3194
▁bud	-3195
▁privacy	-3196
▁industry	-3197
ump	-3198
▁vi	-3199
apers	-3200
▁hurt	-3201
▁opened	-3202
▁increased	-3203
itter	-3204
▁gard	-3205
▁bored	-3206
▁wondering	-3207
▁hang	-3208
ancing	-3209
▁giving	-3210
▁vers	-3211
urance	-3212
▁slept	-3213
eth	-3214
hem	-3215
ware	-3216
▁fix	-3217
▁veh	-3218
alent	-3219
▁dead	-3220
▁doub	-3221
▁extreme	-3222
▁baseball	-3223
actor	-3224
▁satisfied	-3225
ache	-3226
duction	-3227
▁changing	-3228
AS	-3229
▁Yes	-3230
▁glass	-3231
▁iPhone	-3232
▁maintain	-3233
hind	-3234
▁fill	-3235
▁argue	-3236
▁bicycle	-3237
▁camera	-3238
▁advance	-3239
▁services	-3240
▁tool	-3241
▁types	-3242
mb	-3243
▁po	-3244
▁sales	-3245
▁single	-3246
▁regular	-3247
▁retirement	-3248
itar	-3249
▁date	-3250
▁island	-3251
▁reveal	-3252
▁thanks	-3253
my	-3254
atic	-3255
▁wearing	-3256
▁remind	-3257
▁yourself	-3258
▁mass	-3259
▁funds	-3260
▁Fortunately	-3261
OU	-3262
▁nowadays	-3263
▁required	-3264
like	-3265
mony	-3266
▁systems	-3267
▁died	-3268
▁lazy	-3269
▁nobody	-3270
▁active	-3271
▁senior	-3272
▁tests	-3273
ners	-3274
▁twice	-3275
▁checked	-3276
ators	-3277
▁item	-3278
▁afford	-3279
▁someday	-3280
oh	-3281
▁Pr	-3282
▁cab	-3283
▁starts	-3284
▁advantages	-3285
cu	-3286
aptop	-3287
▁smile	-3288
▁hom	-3289
ooled	-3290
▁bank	-3291
▁plays	-3292
▁behind	-3293
▁standard	-3294
▁luck	-3295
▁meal	-3296
▁demand	-3297
▁physical	-3298
▁potential	-3299
atory	-3300
▁knows	-3301
▁source	-3302
▁benefit	-3303
▁volunte	-3304
▁behav	-3305
▁match	-3306
▁happiness	-3307
▁Dis	-3308
▁peace	-3309
▁ensure	-3310
▁typhoon	-3311
ES	-3312
▁23	-3313
▁preparing	-3314
▁reply	-3315
▁suitable	-3316
▁gym	-3317
▁smart	-3318
adem	-3319
▁buildings	-3320
aim	-3321
▁email	-3322
▁broken	-3323
▁recogn	-3324
ey	-3325
▁mood	-3326
▁laptop	-3327
▁fluently	-3328
▁rich	-3329
▁title	-3330
▁ageing	-3331
▁general	-3332
FR	-3333
istry	-3334
▁meas	-3335
iation	-3336
▁South	-3337
let	-3338
nes	-3339
rier	-3340
▁pet	-3341
▁impos	-3342
▁ready	-3343
cious	-3344
cohol	-3345
▁careful	-3346
ears	-3347
▁offer	-3348
▁growing	-3349
▁solutions	-3350
▁bal	-3351
▁sunny	-3352
▁emb	-3353
▁star	-3354
▁trees	-3355
▁States	-3356
▁collect	-3357
▁ride	-3358
▁brain	-3359
▁differences	-3360
▁UK	-3361
▁Pet	-3362
iliar	-3363
▁showed	-3364
▁original	-3365
▁restaurants	-3366
OR	-3367
▁Dan	-3368
▁York	-3369
▁elementary	-3370
uku	-3371
istics	-3372
▁hobby	-3373
▁guitar	-3374
▁becomes	-3375
▁planned	-3376
IS	-3377
▁40	-3378
▁Feb	-3379
▁fant	-3380
ference	-3381
ung	-3382
▁Med	-3383
▁rock	-3384
▁cream	-3385
▁flowers	-3386
▁computers	-3387
inary	-3388
▁appe	-3389
▁dreams	-3390
fficient	-3391
▁crowded	-3392
▁aim	-3393
fecture	-3394
▁colleagues	-3395
▁million	-3396
▁egg	-3397
▁alcohol	-3398
▁articles	-3399
▁employees	-3400
iver	-3401
▁Their	-3402
▁likely	-3403
▁British	-3404
▁specific	-3405
▁experienced	-3406
▁impossible	-3407
▁opportunities	-3408
▁OK	-3409
stood	-3410
▁patient	-3411
▁size	-3412
▁smok	-3413
▁burden	-3414
haps	-3415
▁England	-3416
▁uses	-3417
▁smell	-3418
▁museum	-3419
▁machine	-3420
▁request	-3421
▁meat	-3422
▁German	-3423
▁earn	-3424
▁scared	-3425
ka	-3426
ateg	-3427
ronic	-3428
▁determ	-3429
▁allowed	-3430
▁honest	-3431
ugh	-3432
▁mainly	-3433
▁record	-3434
▁facilities	-3435
▁successful	-3436
ydro	-3437
ining	-3438
▁river	-3439
50	-3440
iled	-3441
▁frequ	-3442
▁situ	-3443
▁somebody	-3444
▁professional	-3445
par	-3446
ples	-3447
▁fru	-3448
.sg/	-3449
▁Two	-3450
▁mix	-3451
▁pool	-3452
▁Never	-3453
▁thous	-3454
▁traveling	-3455
▁Per	-3456
▁faith	-3457
▁attended	-3458
▁somewhere	-3459
▁App	-3460
▁note	-3461
▁humans	-3462
▁diseases	-3463
▁television	-3464
▁21	-3465
ceed	-3466
irty	-3467
▁memory	-3468
▁dram	-3469
hernob	-3470
▁garden	-3471
▁pollution	-3472
cher	-3473
▁haha	-3474
active	-3475
▁Man	-3476
▁ele	-3477
▁Could	-3478
▁author	-3479
icken	-3480
▁excell	-3481
go	-3482
ms	-3483
oom	-3484
▁stat	-3485
▁spoke	-3486
▁buying	-3487
▁chocolate	-3488
▁faster	-3489
▁notice	-3490
▁port	-3491
▁cheaper	-3492
▁ceremony	-3493
ters	-3494
▁fan	-3495
▁semester	-3496
▁Nag	-3497
▁shr	-3498
▁bike	-3499
uary	-3500
▁asleep	-3501
▁moving	-3502
nel	-3503
▁Tr	-3504
▁2000	-3505
theless	-3506
10	-3507
▁stra	-3508
▁tough	-3509
▁superm	-3510
▁schedule	-3511
▁treatment	-3512
▁gon	-3513
itted	-3514
▁soup	-3515
verage	-3516
▁users	-3517
▁select	-3518
hernobyl	-3519
.d	-3520
bies	-3521
▁regret	-3522
▁players	-3523
▁airport	-3524
▁below	-3525
▁funding	-3526
▁conditions	-3527
▁24	-3528
▁page	-3529
▁pian	-3530
▁bread	-3531
▁comments	-3532
▁Face	-3533
▁military	-3534
▁responsibility	-3535
hest	-3536
▁Other	-3537
▁sushi	-3538
▁himself	-3539
▁efficient	-3540
▁extra	-3541
oken	-3542
rees	-3543
▁rap	-3544
▁annoy	-3545
iture	-3546
estern	-3547
▁altern	-3548
▁secret	-3549
▁worker	-3550
▁essential	-3551
▁Bl	-3552
itor	-3553
▁media	-3554
▁nation	-3555
▁corrections	-3556
int	-3557
▁id	-3558
rend	-3559
▁Sir	-3560
▁Energy	-3561
▁released	-3562
▁production	-3563
eed	-3564
▁Calif	-3565
▁houses	-3566
▁happens	-3567
▁currently	-3568
▁excellent	-3569
▁importance	-3570
lig	-3571
uted	-3572
▁subs	-3573
▁ended	-3574
ological	-3575
li	-3576
▁Mad	-3577
izing	-3578
▁Comm	-3579
▁exha	-3580
ply	-3581
▁quit	-3582
▁budget	-3583
▁Californ	-3584
▁mel	-3585
usted	-3586
▁Russian	-3587
icing	-3588
▁Does	-3589
▁claim	-3590
▁gotten	-3591
ager	-3592
▁docu	-3593
▁surv	-3594
▁stars	-3595
uesday	-3596
▁advanced	-3597
round	-3598
▁equip	-3599
▁action	-3600
▁Italian	-3601
ification	-3602
▁Sci	-3603
▁lic	-3604
▁ground	-3605
▁cooked	-3606
▁regist	-3607
▁ordered	-3608
▁Ry	-3609
▁Over	-3610
▁helpful	-3611
▁lecture	-3612
▁expressions	-3613
▁memories	-3614
▁surprise	-3615
▁corrected	-3616
▁processes	-3617
ana	-3618
▁Kim	-3619
iring	-3620
▁Viet	-3621
▁till	-3622
ydrogen	-3623
▁stores	-3624
▁newspaper	-3625
ura	-3626
itic	-3627
▁198	-3628
ption	-3629
▁cases	-3630
▁hardly	-3631
▁exactly	-3632
▁shocked	-3633
▁sitting	-3634
▁..	-3635
ended	-3636
▁prize	-3637
▁California	-3638
upid	-3639
▁fit	-3640
EL	-3641
oph	-3642
epend	-3643
▁January	-3644
▁invited	-3645
▁encourage	-3646
sing	-3647
▁div	-3648
▁clearly	-3649
nd	-3650
cember	-3651
▁resear	-3652
▁Facebook	-3653
▁Tuesday	-3654
▁hobbies	-3655
▁impressed	-3656
▁professor	-3657
▁innovations	-3658
arr	-3659
▁hund	-3660
▁figure	-3661
▁object	-3662
▁overse	-3663
▁software	-3664
pa	-3665
▁fly	-3666
▁extremely	-3667
▁Usually	-3668
ox	-3669
▁subjects	-3670
▁ourselves	-3671
eing	-3672
▁announ	-3673
▁hundred	-3674
ief	-3675
wered	-3676
▁review	-3677
AM	-3678
arb	-3679
ify	-3680
▁gra	-3681
▁pan	-3682
▁descri	-3683
▁whenever	-3684
▁graduated	-3685
▁address	-3686
▁entered	-3687
▁Technology	-3688
▁understood	-3689
▁application	-3690
▁broke	-3691
ography	-3692
▁income	-3693
▁stupid	-3694
▁Sa	-3695
▁Spe	-3696
ulation	-3697
▁aspects	-3698
▁warming	-3699
ugg	-3700
▁Who	-3701
▁sil	-3702
using	-3703
▁degree	-3704
▁japanese	-3705
aced	-3706
▁2003	-3707
▁stru	-3708
▁exper	-3709
▁total	-3710
▁Reactor	-3711
▁relative	-3712
▁understanding	-3713
ij	-3714
▁Sw	-3715
ified	-3716
▁race	-3717
advant	-3718
▁lifest	-3719
▁December	-3720
pm	-3721
▁Wed	-3722
▁imm	-3723
▁loud	-3724
▁math	-3725
▁throw	-3726
▁phones	-3727
▁answered	-3728
▁advantage	-3729
▁1st	-3730
olute	-3731
▁dress	-3732
▁blossoms	-3733
▁entertain	-3734
▁career	-3735
▁experim	-3736
▁willing	-3737
▁material	-3738
▁surround	-3739
▁Chernobyl	-3740
▁operation	-3741
ev	-3742
▁hes	-3743
▁comb	-3744
▁piece	-3745
▁governments	-3746
ows	-3747
▁lol	-3748
▁discovered	-3749
▁concentrate	-3750
▁22	-3751
▁die	-3752
gency	-3753
▁Which	-3754
▁highly	-3755
▁leaves	-3756
▁unique	-3757
▁dollars	-3758
▁Nevertheless	-3759
▁arr	-3760
▁data	-3761
▁pray	-3762
▁unc	-3763
▁whose	-3764
▁produced	-3765
▁Hong	-3766
▁Once	-3767
nesday	-3768
▁failed	-3769
▁latest	-3770
▁capital	-3771
▁requires	-3772
▁textbook	-3773
▁diet	-3774
▁milk	-3775
▁hesit	-3776
▁consequ	-3777
▁challenge	-3778
▁insurance	-3779
▁IT	-3780
▁piano	-3781
▁complic	-3782
▁everywhere	-3783
.n	-3784
tit	-3785
erve	-3786
play	-3787
▁feels	-3788
▁separ	-3789
▁Festival	-3790
▁cultures	-3791
▁flight	-3792
▁chicken	-3793
▁CD	-3794
ashi	-3795
▁France	-3796
▁academ	-3797
▁relaxed	-3798
▁version	-3799
▁Ear	-3800
▁rent	-3801
▁Summer	-3802
15	-3803
▁cru	-3804
▁gre	-3805
▁fantastic	-3806
▁familiar	-3807
▁returned	-3808
/p	-3809
▁dogs	-3810
▁fever	-3811
▁midnight	-3812
▁prefecture	-3813
▁construction	-3814
ady	-3815
uce	-3816
▁harm	-3817
▁driver	-3818
▁lovely	-3819
▁comment	-3820
▁management	-3821
▁recommended	-3822
▁tur	-3823
▁situations	-3824
gery	-3825
tery	-3826
erson	-3827
▁stom	-3828
▁viol	-3829
▁welf	-3830
▁India	-3831
▁autom	-3832
▁minim	-3833
▁quiet	-3834
▁include	-3835
▁sens	-3836
urious	-3837
▁shown	-3838
▁illness	-3839
een	-3840
how	-3841
▁Hel	-3842
▁obs	-3843
▁goods	-3844
▁terror	-3845
▁welfare	-3846
▁technological	-3847
itute	-3848
▁brow	-3849
▁groups	-3850
▁overseas	-3851
cl	-3852
▁causes	-3853
FL	-3854
▁pm	-3855
under	-3856
▁mark	-3857
▁vict	-3858
▁seriously	-3859
▁pen	-3860
ading	-3861
ishes	-3862
▁High	-3863
▁sort	-3864
▁Engine	-3865
▁assign	-3866
▁Vietnam	-3867
ING	-3868
ode	-3869
▁inj	-3870
▁wel	-3871
ruary	-3872
▁conduct	-3873
▁dancing	-3874
wise	-3875
force	-3876
▁emer	-3877
▁fireworks	-3878
▁faithfully	-3879
▁registered	-3880
▁oblig	-3881
▁despite	-3882
▁ver	-3883
antly	-3884
▁acqu	-3885
▁hall	-3886
▁Danny	-3887
▁seven	-3888
▁worst	-3889
▁simply	-3890
▁absolute	-3891
▁strongly	-3892
key	-3893
▁Brook	-3894
▁Third	-3895
▁curry	-3896
▁labor	-3897
▁solar	-3898
▁gradually	-3899
▁graduation	-3900
▁autumn	-3901
ustr	-3902
ctors	-3903
ropri	-3904
▁doubt	-3905
▁entire	-3906
▁itself	-3907
▁spoken	-3908
▁degrees	-3909
▁attitude	-3910
ew	-3911
▁SC	-3912
▁cop	-3913
▁leaving	-3914
▁disadvant	-3915
ED	-3916
▁Sur	-3917
▁diver	-3918
▁scene	-3919
▁damage	-3920
▁affected	-3921
▁happening	-3922
▁n.d	-3923
▁spread	-3924
▁variety	-3925
▁February	-3926
WR	-3927
ato	-3928
▁calm	-3929
▁clos	-3930
▁coun	-3931
▁tent	-3932
▁wine	-3933
▁noodles	-3934
▁appropri	-3935
▁Wednesday	-3936
▁ep	-3937
▁ut	-3938
▁fair	-3939
▁skin	-3940
▁anime	-3941
▁eight	-3942
▁films	-3943
▁liter	-3944
▁relig	-3945
osition	-3946
▁involved	-3947
▁Mal	-3948
▁via	-3949
▁lone	-3950
▁allows	-3951
▁trains	-3952
▁visiting	-3953
anga	-3954
rors	-3955
▁Its	-3956
ctions	-3957
lished	-3958
▁Butler	-3959
▁adults	-3960
▁subtit	-3961
rd	-3962
rict	-3963
ommod	-3964
▁chem	-3965
▁fort	-3966
▁depressed	-3967
yr	-3968
oogle	-3969
▁Asian	-3970
▁motor	-3971
▁hungry	-3972
▁neighbor	-3973
▁possibility	-3974
▁rev	-3975
▁Your	-3976
▁enhan	-3977
▁convenience	-3978
▁ir	-3979
▁deb	-3980
▁rapid	-3981
▁distance	-3982
▁practicing	-3983
▁spir	-3984
▁cheer	-3985
▁lonely	-3986
▁suffering	-3987
rim	-3988
itics	-3989
▁Hope	-3990
▁sites	-3991
▁killed	-3992
▁anywhere	-3993
▁designed	-3994
▁radioactive	-3995
ef	-3996
ano	-3997
▁ant	-3998
▁bill	-3999
▁rout	-4000
▁troub	-4001
▁nearly	-4002
▁manager	-4003
▁2010	-4004
▁across	-4005
▁bigger	-4006
▁install	-4007
▁surfing	-4008
▁accommod	-4009
▁Rob	-4010
isure	-4011
▁remem	-4012
▁streng	-4013
▁features	-4014
▁Pol	-4015
▁pred	-4016
▁Chi	-4017
▁argu	-4018
ustain	-4019
▁screen	-4020
▁celebrate	-4021
▁Af	-4022
▁Pa	-4023
urch	-4024
▁Mac	-4025
▁cris	-4026
▁paint	-4027
▁asking	-4028
▁topics	-4029
▁Despite	-4030
hand	-4031
▁...	-4032
▁cats	-4033
▁singer	-4034
▁finding	-4035
▁hydrogen	-4036
▁equipment	-4037
sis	-4038
▁Gu	-4039
cape	-4040
▁whom	-4041
▁Public	-4042
▁phrase	-4043
▁pleased	-4044
▁MS	-4045
▁kit	-4046
▁suc	-4047
▁unf	-4048
ossil	-4049
▁gift	-4050
▁moon	-4051
rently	-4052
bered	-4053
▁pair	-4054
mother	-4055
▁Germany	-4056
▁environmental	-4057
ips	-4058
▁ign	-4059
ority	-4060
▁City	-4061
▁fear	-4062
▁musc	-4063
▁customer	-4064
▁Sc	-4065
▁Car	-4066
▁rid	-4067
▁boys	-4068
ourses	-4069
▁charge	-4070
pha	-4071
amen	-4072
▁dig	-4073
duces	-4074
ously	-4075
▁Health	-4076
▁confident	-4077
▁yell	-4078
▁habit	-4079
▁proud	-4080
▁complicated	-4081
uf	-4082
▁CP	-4083
chen	-4084
idge	-4085
▁dorm	-4086
▁gold	-4087
▁applied	-4088
▁succeed	-4089
▁unfortunately	-4090
EC	-4091
eal	-4092
▁BB	-4093
▁eye	-4094
▁fle	-4095
▁flat	-4096
onents	-4097
▁meals	-4098
rest	-4099
pring	-4100
▁cancer	-4101
▁prices	-4102
▁average	-4103
▁century	-4104
ades	-4105
rets	-4106
ension	-4107
▁commer	-4108
▁independ	-4109
▁opinions	-4110
▁difficulties	-4111
IT	-4112
ams	-4113
ido	-4114
▁smo	-4115
ially	-4116
▁weird	-4117
▁lifestyle	-4118
xic	-4119
▁provided	-4120
omen	-4121
▁loves	-4122
▁lately	-4123
▁courses	-4124
▁ordinary	-4125
▁overcome	-4126
▁continued	-4127
asc	-4128
bon	-4129
2009	-4130
▁Will	-4131
▁loss	-4132
ession	-4133
▁TOEFL	-4134
▁Three	-4135
▁actors	-4136
▁errors	-4137
▁chatting	-4138
▁carefully	-4139
▁programme	-4140
aged	-4141
▁bra	-4142
▁Kong	-4143
▁details	-4144
▁obvious	-4145
▁smoking	-4146
uts	-4147
▁Sy	-4148
ursday	-4149
▁dry	-4150
overy	-4151
▁minute	-4152
dered	-4153
▁Both	-4154
▁intern	-4155
▁drawing	-4156
▁messages	-4157
▁broadcast	-4158
chi	-4159
▁bi	-4160
airs	-4161
▁jog	-4162
▁asso	-4163
▁meant	-4164
▁value	-4165
▁anyway	-4166
▁repres	-4167
▁Genetic	-4168
▁reality	-4169
▁magazine	-4170
▁Cha	-4171
▁mic	-4172
light	-4173
▁dish	-4174
▁Mc	-4175
iland	-4176
▁vill	-4177
nuclear	-4178
▁tag	-4179
▁cart	-4180
▁mult	-4181
▁weap	-4182
▁slowly	-4183
▁appeared	-4184
▁radiation	-4185
▁difficulty	-4186
▁anx	-4187
▁continu	-4188
▁directly	-4189
ki	-4190
ald	-4191
aches	-4192
▁cards	-4193
▁drunk	-4194
idering	-4195
▁background	-4196
amb	-4197
rup	-4198
▁mouth	-4199
-cooled	-4200
▁chances	-4201
▁diaries	-4202
▁kitchen	-4203
▁reduced	-4204
▁theater	-4205
oko	-4206
▁Pre	-4207
▁jud	-4208
▁drug	-4209
▁task	-4210
▁breat	-4211
▁upset	-4212
▁destro	-4213
val	-4214
iles	-4215
▁aid	-4216
▁Only	-4217
▁drinks	-4218
▁parties	-4219
▁subtitles	-4220
▁contribute	-4221
▁45	-4222
ovember	-4223
▁crisis	-4224
▁fossil	-4225
▁suffer	-4226
▁European	-4227
▁motivation	-4228
▁remembered	-4229
▁alternative	-4230
▁60	-4231
▁sex	-4232
ycling	-4233
▁salary	-4234
▁subsid	-4235
▁discover	-4236
▁promised	-4237
▁suggested	-4238
▁supermarket	-4239
upp	-4240
▁AN	-4241
▁cow	-4242
▁desk	-4243
▁eaten	-4244
▁concerns	-4245
▁expression	-4246
20	-4247
lla	-4248
▁kn	-4249
ancy	-4250
▁Italy	-4251
▁sustain	-4252
▁univers	-4253
▁whatever	-4254
emperature	-4255
▁fif	-4256
▁tar	-4257
chite	-4258
▁ther	-4259
▁goals	-4260
▁Instead	-4261
▁cultural	-4262
/0	-4263
▁shy	-4264
▁surgery	-4265
▁eventually	-4266
AL	-4267
uz	-4268
edia	-4269
▁bow	-4270
▁SCWR	-4271
▁exhib	-4272
▁arrive	-4273
▁depends	-4274
▁license	-4275
▁behavior	-4276
▁attractive	-4277
pro	-4278
sun	-4279
▁purcha	-4280
▁convent	-4281
▁methods	-4282
▁absolutely	-4283
esome	-4284
▁sand	-4285
▁Those	-4286
▁Where	-4287
▁factor	-4288
▁threat	-4289
▁grandmother	-4290
-s	-4291
.S	-4292
▁efforts	-4293
▁items	-4294
▁extent	-4295
▁network	-4296
▁November	-4297
▁headache	-4298
▁volunteer	-4299
iny	-4300
men	-4301
▁ing	-4302
▁prim	-4303
olution	-4304
▁bright	-4305
▁twenty	-4306
▁wet	-4307
▁cover	-4308
▁fully	-4309
▁sauce	-4310
rastruct	-4311
▁Thursday	-4312
▁tourists	-4313
asp	-4314
ards	-4315
▁cand	-4316
▁homes	-4317
▁tasks	-4318
▁teeth	-4319
▁content	-4320
▁Thailand	-4321
▁childhood	-4322
▁appropriate	-4323
chan	-4324
▁School	-4325
▁attack	-4326
▁passion	-4327
▁function	-4328
▁influence	-4329
▁scientists	-4330
▁Very	-4331
▁cast	-4332
▁borrow	-4333
▁failure	-4334
▁transfer	-4335
ending	-4336
▁accent	-4337
▁missed	-4338
▁carrier	-4339
▁pronoun	-4340
ubb	-4341
male	-4342
▁female	-4343
▁accepted	-4344
ET	-4345
af	-4346
▁Cur	-4347
▁shape	-4348
▁beauty	-4349
▁reached	-4350
▁section	-4351
▁sources	-4352
▁usage	-4353
▁brings	-4354
bow	-4355
aked	-4356
▁Par	-4357
▁bott	-4358
▁nurs	-4359
▁comed	-4360
▁image	-4361
▁uncom	-4362
▁riding	-4363
▁slight	-4364
▁provides	-4365
▁squ	-4366
riage	-4367
▁adop	-4368
itable	-4369
▁expenses	-4370
▁Wr	-4371
▁Park	-4372
▁former	-4373
▁videos	-4374
▁partner	-4375
ita	-4376
▁roomm	-4377
▁waited	-4378
atically	-4379
ohn	-4380
▁model	-4381
▁Russia	-4382
▁Science	-4383
▁streets	-4384
oof	-4385
illy	-4386
ship	-4387
itory	-4388
▁Asia	-4389
▁tree	-4390
▁awesome	-4391
▁sightse	-4392
▁infrastruct	-4393
▁Did	-4394
▁War	-4395
▁2002	-4396
▁cance	-4397
▁force	-4398
▁embarr	-4399
▁promot	-4400
▁approach	-4401
▁technical	-4402
bum	-4403
edu	-4404
osh	-4405
▁Like	-4406
▁nose	-4407
▁operating	-4408
▁translate	-4409
▁frequently	-4410
▁fing	-4411
▁reli	-4412
▁seat	-4413
▁estab	-4414
▁plane	-4415
▁stick	-4416
▁strict	-4417
▁climbing	-4418
US	-4419
mm	-4420
uy	-4421
.gov/	-4422
ively	-4423
uable	-4424
▁2001	-4425
▁instru	-4426
▁saving	-4427
▁strateg	-4428
▁implemented	-4429
ulf	-4430
▁subst	-4431
.gov.sg/	-4432
▁contrast	-4433
▁conversations	-4434
icy	-4435
▁Earth	-4436
▁nearby	-4437
▁managed	-4438
oku	-4439
▁Thai	-4440
▁cous	-4441
▁mostly	-4442
▁insp	-4443
▁mall	-4444
▁greatly	-4445
▁describe	-4446
▁generations	-4447
▁responsible	-4448
ino	-4449
heme	-4450
ilipp	-4451
▁repe	-4452
▁cleaning	-4453
att	-4454
▁29	-4455
erts	-4456
▁Bra	-4457
ipped	-4458
▁John	-4459
▁Afric	-4460
▁names	-4461
▁expend	-4462
▁smooth	-4463
▁target	-4464
▁complex	-4465
▁includes	-4466
▁exhausted	-4467
▁workforce	-4468
▁commercial	-4469
oe	-4470
irm	-4471
oses	-4472
order	-4473
▁cred	-4474
▁wore	-4475
pected	-4476
▁obtain	-4477
▁vehicles	-4478
▁Americans	-4479
▁mountains	-4480
▁cloud	-4481
rimination	-4482
▁throughout	-4483
ster	-4484
ufact	-4485
▁chair	-4486
▁gather	-4487
▁histor	-4488
▁devices	-4489
▁stomach	-4490
▁embarrass	-4491
40	-4492
▁dad	-4493
▁Ryan	-4494
▁Madam	-4495
▁Spring	-4496
▁engineer	-4497
▁relaxing	-4498
▁impression	-4499
▁Happ	-4500
▁fund	-4501
sunami	-4502
▁victim	-4503
▁providing	-4504
oka	-4505
rag	-4506
▁init	-4507
▁album	-4508
▁mental	-4509
▁pleasure	-4510
29	-4511
oya	-4512
▁Part	-4513
▁salt	-4514
▁wash	-4515
▁aware	-4516
▁fried	-4517
▁seve	-4518
▁dramas	-4519
▁phrases	-4520
▁practiced	-4521
▁regarding	-4522
▁structure	-4523
ened	-4524
riger	-4525
ulate	-4526
▁Time	-4527
▁cross	-4528
▁unable	-4529
▁sightseeing	-4530
▁introduction	-4531
▁relationships	-4532
▁x	-4533
▁CPF	-4534
▁reci	-4535
▁crying	-4536
▁filled	-4537
▁Philipp	-4538
atch	-4539
fered	-4540
▁Hall	-4541
igning	-4542
▁analy	-4543
▁beings	-4544
▁audience	-4545
▁occurred	-4546
▁improvement	-4547
aug	-4548
▁28	-4549
▁Reg	-4550
▁dom	-4551
yrics	-4552
▁Gold	-4553
▁Work	-4554
▁seek	-4555
▁teen	-4556
▁board	-4557
▁forever	-4558
▁measures	-4559
▁colleague	-4560
rove	-4561
▁Art	-4562
ening	-4563
▁disp	-4564
▁Disney	-4565
▁church	-4566
▁hunting	-4567
▁letters	-4568
▁wondered	-4569
gy	-4570
inf	-4571
▁Shin	-4572
araoke	-4573
▁range	-4574
▁lyrics	-4575
▁electronic	-4576
unt	-4577
▁26	-4578
▁Sm	-4579
house	-4580
▁Life	-4581
▁picked	-4582
▁thousand	-4583
▁discounts	-4584
▁forgotten	-4585
head	-4586
▁Camp	-4587
▁fruit	-4588
▁safer	-4589
▁trust	-4590
▁instruct	-4591
▁valuable	-4592
▁friendship	-4593
▁participate	-4594
nce	-4595
nals	-4596
▁Tra	-4597
▁ski	-4598
▁epis	-4599
▁Spain	-4600
▁owner	-4601
▁semin	-4602
velopment	-4603
.edu	-4604
▁guest	-4605
▁fields	-4606
▁Suddenly	-4607
▁relatively	-4608
ori	-4609
▁Okin	-4610
▁n.d.	-4611
▁quar	-4612
▁Right	-4613
▁Seoul	-4614
▁Would	-4615
▁sweets	-4616
▁manufact	-4617
▁properly	-4618
hai	-4619
▁golf	-4620
▁rise	-4621
▁novels	-4622
▁archite	-4623
▁replace	-4624
▁projects	-4625
▁refriger	-4626
OM	-4627
uki	-4628
▁Haw	-4629
▁feed	-4630
▁Power	-4631
▁raise	-4632
▁lights	-4633
▁display	-4634
▁practical	-4635
▁Ob	-4636
osen	-4637
place	-4638
▁brand	-4639
ointing	-4640
▁Almost	-4641
▁telling	-4642
▁political	-4643
▁accommodation	-4644
omb	-4645
▁humid	-4646
▁generate	-4647
▁employment	-4648
▁universities	-4649
TS	-4650
azz	-4651
▁NY	-4652
icted	-4653
▁Central	-4654
▁glasses	-4655
know	-4656
▁guide	-4657
▁examples	-4658
▁machines	-4659
▁foreigner	-4660
▁lay	-4661
▁sav	-4662
▁2011	-4663
itation	-4664
▁forest	-4665
▁talent	-4666
▁comfort	-4667
▁destroy	-4668
▁greater	-4669
▁generated	-4670
▁IN	-4671
izza	-4672
lymp	-4673
▁buses	-4674
▁raised	-4675
▁balance	-4676
▁disadvantages	-4677
ns	-4678
eria	-4679
▁facing	-4680
▁welcome	-4681
▁troubles	-4682
rill	-4683
▁kil	-4684
▁cove	-4685
▁sector	-4686
▁supply	-4687
▁anybody	-4688
▁housing	-4689
▁secrets	-4690
of	-4691
ale	-4692
▁farm	-4693
ateful	-4694
▁robot	-4695
▁Google	-4696
▁deeply	-4697
▁rights	-4698
▁artists	-4699
▁journey	-4700
▁Everything	-4701
ole	-4702
itch	-4703
▁fee	-4704
▁umb	-4705
ionally	-4706
▁telephone	-4707
/1	-4708
ec	-4709
▁Im	-4710
▁hy	-4711
▁Due	-4712
cient	-4713
▁user	-4714
▁North	-4715
▁fuels	-4716
eg	-4717
itals	-4718
▁Look	-4719
▁standing	-4720
▁straight	-4721
▁strength	-4722
▁animation	-4723
▁Ed	-4724
▁Ton	-4725
▁cin	-4726
▁dent	-4727
▁umbre	-4728
▁Lastly	-4729
▁shower	-4730
▁spirit	-4731
▁Perhaps	-4732
▁billion	-4733
▁recover	-4734
▁scenery	-4735
▁explained	-4736
UR	-4737
cing	-4738
▁U.S	-4739
▁beat	-4740
ception	-4741
▁marriage	-4742
▁president	-4743
▁considering	-4744
▁uncomfortable	-4745
▁coal	-4746
▁carbon	-4747
▁searching	-4748
▁link	-4749
▁graph	-4750
▁pieces	-4751
▁rising	-4752
▁reasonable	-4753
▁researcher	-4754
down	-4755
iest	-4756
▁1000	-4757
▁fans	-4758
▁flav	-4759
▁manga	-4760
▁tense	-4761
▁chosen	-4762
▁covered	-4763
▁27	-4764
▁Av	-4765
ushima	-4766
▁academic	-4767
▁incident	-4768
▁effectively	-4769
▁infrastructure	-4770
▁god	-4771
▁Such	-4772
▁impl	-4773
▁pros	-4774
▁Harry	-4775
▁decor	-4776
▁ingred	-4777
▁intell	-4778
▁cartoon	-4779
▁numbers	-4780
▁grateful	-4781
well	-4782
▁Hok	-4783
ament	-4784
▁stri	-4785
▁Mexic	-4786
▁smoke	-4787
▁flower	-4788
▁yellow	-4789
▁decrease	-4790
▁presents	-4791
ux	-4792
mal	-4793
tro	-4794
▁Bud	-4795
▁hero	-4796
▁rule	-4797
▁Peter	-4798
▁Island	-4799
▁possib	-4800
▁typical	-4801
▁San	-4802
▁nap	-4803
▁Test	-4804
▁faces	-4805
▁spite	-4806
▁theme	-4807
▁knowing	-4808
▁represent	-4809
put	-4810
▁Em	-4811
edom	-4812
▁ham	-4813
▁lie	-4814
apped	-4815
isions	-4816
▁dropped	-4817
▁stronger	-4818
▁ju	-4819
▁Sha	-4820
▁Braz	-4821
▁Educ	-4822
▁kore	-4823
▁airpl	-4824
▁occas	-4825
▁skype	-4826
eration	-4827
▁accomp	-4828
▁associ	-4829
▁device	-4830
▁region	-4831
▁Twitter	-4832
▁invention	-4833
▁personality	-4834
rel	-4835
▁3D	-4836
yles	-4837
▁okay	-4838
▁tong	-4839
▁hence	-4840
▁notes	-4841
▁horrible	-4842
▁consideration	-4843
▁80	-4844
▁dut	-4845
kaido	-4846
▁explan	-4847
▁frustr	-4848
▁primary	-4849
▁weekends	-4850
▁See	-4851
▁den	-4852
ijing	-4853
while	-4854
▁Love	-4855
▁burn	-4856
▁eager	-4857
▁grown	-4858
tenance	-4859
▁benefic	-4860
▁monitor	-4861
iff	-4862
ensive	-4863
orrect	-4864
▁comic	-4865
▁faced	-4866
▁upload	-4867
inations	-4868
▁journals	-4869
-f	-4870
aku	-4871
▁Pot	-4872
▁core	-4873
imately	-4874
▁Friend	-4875
▁falling	-4876
▁Research	-4877
▁functions	-4878
▁sufficient	-4879
OT	-4880
hama	-4881
oooo	-4882
ushed	-4883
▁upon	-4884
▁Elect	-4885
▁tells	-4886
▁desire	-4887
▁Okinawa	-4888
ils	-4889
bits	-4890
▁Cup	-4891
arily	-4892
▁fulf	-4893
▁Sorry	-4894
▁added	-4895
▁round	-4896
▁curious	-4897
▁Ministry	-4898
▁believed	-4899
▁relieved	-4900
AP	-4901
▁nor	-4902
▁bear	-4903
▁chin	-4904
▁conv	-4905
▁handle	-4906
▁reported	-4907
▁websites	-4908
▁interests	-4909
oga	-4910
▁Ca	-4911
iant	-4912
▁Bar	-4913
▁spr	-4914
ooper	-4915
▁fasc	-4916
▁male	-4917
▁Apple	-4918
▁cinem	-4919
▁Indian	-4920
▁suppose	-4921
▁correctly	-4922
eah	-4923
king	-4924
▁empha	-4925
▁losing	-4926
▁Whenever	-4927
▁memorize	-4928
▁encouraged	-4929
▁Philippines	-4930
agn	-4931
ucks	-4932
▁Sup	-4933
ulations	-4934
▁highest	-4935
▁discovery	-4936
rial	-4937
osite	-4938
▁Yoko	-4939
▁Happy	-4940
▁Olymp	-4941
▁rooms	-4942
▁temple	-4943
▁certainly	-4944
▁D.	-4945
tion	-4946
▁Kan	-4947
erved	-4948
action	-4949
▁shirt	-4950
▁carried	-4951
▁depress	-4952
▁Hokkaido	-4953
▁correcting	-4954
▁scientific	-4955
▁particularly	-4956
km	-4957
▁cabin	-4958
▁steps	-4959
▁cowork	-4960
▁detect	-4961
▁statement	-4962
▁Government	-4963
▁Co	-4964
erior	-4965
▁myst	-4966
▁drove	-4967
▁tasty	-4968
▁actions	-4969
▁answers	-4970
▁missing	-4971
▁disorder	-4972
tes	-4973
news	-4974
▁Bus	-4975
▁Fuk	-4976
▁beef	-4977
▁apart	-4978
▁scary	-4979
▁centre	-4980
▁crimin	-4981
▁Beijing	-4982
▁Without	-4983
▁grandpa	-4984
▁smaller	-4985
▁western	-4986
▁hospitals	-4987
oro	-4988
ague	-4989
uman	-4990
▁2nd	-4991
▁Rep	-4992
▁lady	-4993
▁menu	-4994
ritical	-4995
▁challenges	-4996
▁consequences	-4997
▁Ke	-4998
▁ast	-4999
▁ages	-5000
▁roll	-5001
▁sang	-5002
▁summ	-5003
▁cried	-5004
▁shock	-5005
▁Through	-5006
▁designs	-5007
▁village	-5008
▁clothing	-5009
dom	-5010
ivil	-5011
▁jum	-5012
athon	-5013
hered	-5014
store	-5015
▁Each	-5016
▁Green	-5017
▁Hawai	-5018
formation	-5019
▁announced	-5020
▁discrimination	-5021
hus	-5022
umst	-5023
▁tow	-5024
▁eggs	-5025
▁sore	-5026
▁crime	-5027
▁ramen	-5028
▁Nagoya	-5029
▁larger	-5030
▁refres	-5031
▁thinks	-5032
▁appoint	-5033
▁tsunami	-5034
▁learners	-5035
▁powerful	-5036
▁inventions	-5037
▁disappointing	-5038
▁lo	-5039
roat	-5040
▁Should	-5041
▁digital	-5042
▁freedom	-5043
▁Development	-5044
OL	-5045
atoes	-5046
▁forced	-5047
▁prepar	-5048
▁opening	-5049
▁putting	-5050
abor	-5051
days	-5052
▁roads	-5053
▁describ	-5054
▁rapidly	-5055
▁weapons	-5056
▁majority	-5057
▁generally	-5058
▁expenditure	-5059
obe	-5060
▁Ge	-5061
irts	-5062
▁mir	-5063
▁uns	-5064
aying	-5065
▁levels	-5066
▁coolant	-5067
▁seminar	-5068
▁somehow	-5069
▁beneficial	-5070
▁historical	-5071
ikip	-5072
known	-5073
olley	-5074
▁rare	-5075
▁teams	-5076
ikipedia	-5077
▁organiz	-5078
▁promise	-5079
▁Sim	-5080
▁tut	-5081
▁Lear	-5082
▁onto	-5083
ourage	-5084
▁contr	-5085
▁ideal	-5086
▁banned	-5087
▁fascin	-5088
▁speaks	-5089
▁offered	-5090
▁Education	-5091
▁emergency	-5092
ocks	-5093
ords	-5094
▁3rd	-5095
▁pun	-5096
▁Nice	-5097
▁bloom	-5098
▁fewer	-5099
▁noise	-5100
▁Nature	-5101
▁severe	-5102
▁subway	-5103
▁selling	-5104
▁precious	-5105
▁response	-5106
▁designing	-5107
▁perfectly	-5108
60	-5109
▁AM	-5110
▁fro	-5111
▁bull	-5112
▁pizza	-5113
▁climate	-5114
▁conclud	-5115
▁factory	-5116
▁survive	-5117
▁download	-5118
▁opposite	-5119
IF	-5120
UT	-5121
▁upd	-5122
▁iPad	-5123
▁dirty	-5124
▁lines	-5125
▁leader	-5126
▁tongue	-5127
▁circumst	-5128
▁constantly	-5129
▁surprising	-5130
▁educational	-5131
▁Ma	-5132
host	-5133
iors	-5134
oshi	-5135
uting	-5136
▁King	-5137
▁News	-5138
▁Shang	-5139
▁serve	-5140
▁invented	-5141
AY	-5142
▁Air	-5143
onald	-5144
▁wheel	-5145
▁option	-5146
▁pleasant	-5147
▁Engineering	-5148
▁translation	-5149
asy	-5150
▁eth	-5151
▁joy	-5152
▁soy	-5153
▁iPod	-5154
▁pull	-5155
▁spot	-5156
▁cousin	-5157
▁misunder	-5158
▁psychological	-5159
aya	-5160
▁31	-5161
▁rely	-5162
▁unex	-5163
▁shout	-5164
▁Brazil	-5165
▁leisure	-5166
▁discussed	-5167
NS	-5168
▁65	-5169
dium	-5170
ingu	-5171
unic	-5172
ouver	-5173
▁Rain	-5174
▁dont	-5175
▁feet	-5176
▁sear	-5177
▁tall	-5178
angers	-5179
▁delay	-5180
▁multi	-5181
▁System	-5182
▁leading	-5183
▁reflect	-5184
▁replied	-5185
▁savings	-5186
▁diverted	-5187
▁umbrella	-5188
▁abilities	-5189
▁conditioner	-5190
-p	-5191
iry	-5192
▁Ha	-5193
▁ip	-5194
.asp	-5195
oned	-5196
▁Pop	-5197
▁kim	-5198
▁mas	-5199
▁renew	-5200
▁contest	-5201
▁dentist	-5202
▁shortage	-5203
IV	-5204
OS	-5205
che	-5206
ony	-5207
▁Di	-5208
rical	-5209
▁Shop	-5210
▁clin	-5211
father	-5212
▁brush	-5213
▁spare	-5214
▁animal	-5215
▁gained	-5216
▁decades	-5217
▁Yokohama	-5218
▁normally	-5219
▁Singaporeans	-5220
back	-5221
reed	-5222
▁plenty	-5223
▁tasted	-5224
ancouver	-5225
▁anxious	-5226
▁crucial	-5227
▁vehicle	-5228
sequently	-5229
▁contract	-5230
▁documents	-5231
▁independent	-5232
▁Li	-5233
husi	-5234
▁Mus	-5235
▁lands	-5236
▁Potter	-5237
▁chinese	-5238
▁plastic	-5239
ko	-5240
ari	-5241
hop	-5242
uton	-5243
▁Take	-5244
ealand	-5245
▁Child	-5246
▁enthusi	-5247
▁herself	-5248
▁Everybody	-5249
aps	-5250
▁Yet	-5251
▁led	-5252
▁grew	-5253
▁noon	-5254
▁alive	-5255
▁cakes	-5256
▁resol	-5257
▁solved	-5258
▁Someone	-5259
▁neglect	-5260
olleyball	-5261
▁contains	-5262
▁Vancouver	-5263
▁discussion	-5264
pes	-5265
▁pow	-5266
▁decl	-5267
▁legs	-5268
ctures	-5269
▁cinema	-5270
▁fluent	-5271
▁papers	-5272
▁rarely	-5273
▁repair	-5274
▁widely	-5275
▁Zealand	-5276
▁arrange	-5277
▁classmate	-5278
▁economics	-5279
▁exercises	-5280
▁snowboard	-5281
▁newspapers	-5282
▁entertainment	-5283
gn	-5284
bed	-5285
rab	-5286
uan	-5287
▁Da	-5288
hiba	-5289
▁500	-5290
▁AND	-5291
▁bye	-5292
odies	-5293
▁laug	-5294
▁path	-5295
▁sale	-5296
▁ship	-5297
▁wood	-5298
▁Canad	-5299
▁fault	-5300
▁sweat	-5301
ibility	-5302
▁Golden	-5303
▁proced	-5304
▁throat	-5305
▁increases	-5306
uate	-5307
▁shut	-5308
▁util	-5309
▁champ	-5310
▁Econom	-5311
▁enhance	-5312
▁Australian	-5313
arm	-5314
▁sou	-5315
akers	-5316
▁cloudy	-5317
▁compar	-5318
▁parent	-5319
▁resist	-5320
▁parking	-5321
▁passing	-5322
▁priority	-5323
▁stressed	-5324
▁conventional	-5325
OW	-5326
vis	-5327
cean	-5328
▁SFR	-5329
▁rom	-5330
▁Week	-5331
▁pace	-5332
▁analys	-5333
▁tastes	-5334
▁performed	-5335
70	-5336
LE	-5337
ono	-5338
▁Fu	-5339
zing	-5340
▁Net	-5341
anium	-5342
▁birds	-5343
henomen	-5344
▁corner	-5345
▁choices	-5346
▁cleaned	-5347
▁consult	-5348
▁heavily	-5349
-t	-5350
▁Mo	-5351
▁lift	-5352
▁unus	-5353
▁Having	-5354
▁indeed	-5355
▁thesis	-5356
▁painful	-5357
▁singers	-5358
▁consists	-5359
▁Fukushima	-5360
▁Taiwanese	-5361
▁dormitory	-5362
▁unexpected	-5363
aker	-5364
happ	-5365
▁300	-5366
▁rode	-5367
▁awful	-5368
▁closer	-5369
▁scheme	-5370
▁included	-5371
ani	-5372
hel	-5373
arin	-5374
▁Tur	-5375
▁wild	-5376
ournal	-5377
▁Start	-5378
▁youth	-5379
▁Malays	-5380
▁credit	-5381
▁toward	-5382
▁Shanghai	-5383
▁Currently	-5384
▁connected	-5385
AK	-5386
HI	-5387
rit	-5388
▁70	-5389
▁OR	-5390
aint	-5391
▁indic	-5392
▁escape	-5393
▁habits	-5394
▁wishes	-5395
▁fulfill	-5396
▁kinderg	-5397
▁laughed	-5398
▁release	-5399
▁suggestions	-5400
▁organization	-5401
lor	-5402
▁Dr	-5403
icks	-5404
▁yes	-5405
▁U.S.	-5406
▁incon	-5407
▁Lately	-5408
▁shrine	-5409
▁Indones	-5410
▁jogging	-5411
▁victims	-5412
▁forecast	-5413
▁searched	-5414
▁regularly	-5415
▁translated	-5416
▁consumption	-5417
▁Qu	-5418
rief	-5419
▁eld	-5420
anted	-5421
▁cooper	-5422
▁phenomen	-5423
/s	-5424
▁ge	-5425
yond	-5426
▁Age	-5427
▁Bas	-5428
▁Rog	-5429
▁Shi	-5430
▁Tor	-5431
employ	-5432
inking	-5433
minist	-5434
▁calls	-5435
▁leads	-5436
▁stood	-5437
▁stuck	-5438
▁mechan	-5439
▁values	-5440
▁ancient	-5441
▁consist	-5442
▁beginner	-5443
▁magazines	-5444
▁applications	-5445
riv	-5446
ses	-5447
▁Mrs	-5448
▁Coll	-5449
▁DVDs	-5450
▁downt	-5451
▁unknown	-5452
vest	-5453
▁Ang	-5454
▁tiring	-5455
▁Koreans	-5456
▁creating	-5457
▁creative	-5458
▁followed	-5459
▁location	-5460
▁investment	-5461
▁volleyball	-5462
▁competitive	-5463
▁destination	-5464
rs	-5465
▁M.	-5466
▁Fam	-5467
▁awa	-5468
▁keeps	-5469
▁occup	-5470
▁apolog	-5471
▁reducing	-5472
▁cellphone	-5473
▁finishing	-5474
▁experiment	-5475
fl	-5476
▁Miy	-5477
▁artist	-5478
▁writer	-5479
▁counter	-5480
▁emotional	-5481
▁appearance	-5482
▁#	-5483
cri	-5484
omic	-5485
▁Dep	-5486
▁adj	-5487
verse	-5488
▁coup	-5489
▁qual	-5490
▁Being	-5491
▁Hawaii	-5492
▁rained	-5493
▁respond	-5494
▁fighting	-5495
antic	-5496
iveness	-5497
▁strugg	-5498
▁demands	-5499
▁washing	-5500
▁bathroom	-5501
▁existing	-5502
AC	-5503
PS	-5504
▁cas	-5505
▁Best	-5506
▁mixed	-5507
▁tears	-5508
▁Tonight	-5509
▁regards	-5510
▁document	-5511
▁published	-5512
▁recognize	-5513
ext	-5514
▁Nor	-5515
igare	-5516
orter	-5517
▁neck	-5518
▁Helen	-5519
▁Africa	-5520
▁Valent	-5521
▁comics	-5522
▁offers	-5523
▁unhapp	-5524
▁concepts	-5525
▁impressive	-5526
▁researchers	-5527
-2	-5528
hy	-5529
isc	-5530
▁Id	-5531
anch	-5532
▁Lee	-5533
▁MSR	-5534
▁Ste	-5535
igent	-5536
▁Wind	-5537
▁laws	-5538
▁alloc	-5539
▁gases	-5540
▁magic	-5541
▁thirty	-5542
▁wealth	-5543
▁investig	-5544
▁assistant	-5545
▁unb	-5546
▁cram	-5547
▁outd	-5548
▁touc	-5549
▁cycle	-5550
▁karaoke	-5551
▁official	-5552
▁significantly	-5553
gu	-5554
eral	-5555
▁Cam	-5556
atics	-5557
▁thin	-5558
▁south	-5559
▁tools	-5560
▁critic	-5561
▁double	-5562
▁affects	-5563
▁religion	-5564
▁efficiently	-5565
▁ingredients	-5566
▁productivity	-5567
OO	-5568
ION	-5569
mes	-5570
mit	-5571
agers	-5572
venir	-5573
▁expand	-5574
▁interp	-5575
▁Thirdly	-5576
▁director	-5577
▁maintenance	-5578
▁90	-5579
uage	-5580
▁Add	-5581
▁Aut	-5582
▁vir	-5583
rehen	-5584
▁Paris	-5585
▁fixed	-5586
▁horse	-5587
▁saved	-5588
standing	-5589
▁harmful	-5590
▁matters	-5591
▁laughing	-5592
▁roommate	-5593
▁traveled	-5594
▁bookstore	-5595
lim	-5596
▁mum	-5597
▁Pres	-5598
rendip	-5599
▁Times	-5600
▁accur	-5601
▁begun	-5602
▁views	-5603
▁princi	-5604
▁showing	-5605
AD	-5606
gent	-5607
▁sym	-5608
oring	-5609
▁obst	-5610
▁taxi	-5611
▁civil	-5612
▁greet	-5613
▁pages	-5614
▁tents	-5615
▁trend	-5616
▁advent	-5617
▁campus	-5618
▁fortun	-5619
▁courage	-5620
▁treated	-5621
▁annoying	-5622
▁checking	-5623
▁hesitate	-5624
▁smoothly	-5625
▁employers	-5626
▁organized	-5627
▁controvers	-5628
▁laboratory	-5629
pei	-5630
▁Mt	-5631
▁Han	-5632
▁YOU	-5633
▁deli	-5634
▁learnt	-5635
▁scenes	-5636
▁battery	-5637
▁holding	-5638
▁peaceful	-5639
▁circumstances	-5640
▁Bo	-5641
▁ath	-5642
akura	-5643
▁rubb	-5644
porary	-5645
▁Trans	-5646
▁disag	-5647
▁agreed	-5648
▁incred	-5649
▁snacks	-5650
▁//www.n	-5651
▁damaged	-5652
▁politic	-5653
▁argument	-5654
▁attending	-5655
▁decisions	-5656
▁marketing	-5657
▁naturally	-5658
▁literature	-5659
arten	-5660
▁purs	-5661
▁soph	-5662
▁upgr	-5663
▁Aging	-5664
▁shoot	-5665
▁Museum	-5666
▁states	-5667
▁besides	-5668
▁leaders	-5669
▁emotions	-5670
▁greatest	-5671
▁Reference	-5672
▁embarrassed	-5673
▁developments	-5674
eds	-5675
▁Gl	-5676
orge	-5677
▁raw	-5678
▁joke	-5679
▁admit	-5680
▁salon	-5681
▁cheese	-5682
▁shaped	-5683
▁Children	-5684
▁facebook	-5685
▁prevented	-5686
ls	-5687
igr	-5688
▁Cr	-5689
atsu	-5690
ushi	-5691
olten	-5692
▁Long	-5693
▁empt	-5694
▁minds	-5695
▁Design	-5696
▁bother	-5697
▁posted	-5698
▁served	-5699
▁perhaps	-5700
▁twitter	-5701
▁attached	-5702
▁employee	-5703
▁reaction	-5704
▁tracking	-5705
hold	-5706
izes	-5707
▁idi	-5708
iques	-5709
▁Fuku	-5710
▁lake	-5711
▁remov	-5712
article	-5713
▁depart	-5714
▁compare	-5715
▁Shopping	-5716
▁Valentine	-5717
▁conference	-5718
iki	-5719
ona	-5720
sec	-5721
▁inev	-5722
▁shot	-5723
▁comedy	-5724
▁paying	-5725
▁washed	-5726
▁distrib	-5727
▁Learning	-5728
▁airplane	-5729
▁choosing	-5730
▁souvenir	-5731
▁Hey	-5732
▁tor	-5733
oline	-5734
▁drum	-5735
▁Hiros	-5736
▁House	-5737
▁brown	-5738
▁north	-5739
▁shall	-5740
▁theory	-5741
▁unhappy	-5742
▁contents	-5743
▁refrigerator	-5744
▁successfully	-5745
RL	-5746
▁Col	-5747
▁Sant	-5748
▁bags	-5749
▁sake	-5750
▁cigare	-5751
▁achieved	-5752
▁protection	-5753
ills	-5754
▁gif	-5755
▁und	-5756
aging	-5757
ulous	-5758
▁Paul	-5759
▁cash	-5760
▁ring	-5761
▁acting	-5762
▁placed	-5763
▁reports	-5764
▁movement	-5765
▁classroom	-5766
▁workplace	-5767
▁determined	-5768
▁electrical	-5769
hima	-5770
mbur	-5771
okes	-5772
estic	-5773
▁ment	-5774
▁pret	-5775
▁stro	-5776
ulated	-5777
▁beyond	-5778
▁latter	-5779
▁Western	-5780
▁marathon	-5781
▁visitors	-5782
▁completed	-5783
▁connection	-5784
▁industrial	-5785
osal	-5786
▁4th	-5787
▁Che	-5788
▁sch	-5789
eside	-5790
inter	-5791
▁repro	-5792
▁formal	-5793
▁hambur	-5794
▁insist	-5795
▁doctors	-5796
▁purposes	-5797
▁stations	-5798
▁photograph	-5799
-4	-5800
enn	-5801
reet	-5802
▁Inc	-5803
▁tun	-5804
▁Arab	-5805
▁East	-5806
▁pork	-5807
▁dairy	-5808
▁hurry	-5809
▁instit	-5810
▁unusual	-5811
▁critical	-5812
▁reminded	-5813
▁classical	-5814
▁exhibition	-5815
ixt	-5816
iece	-5817
▁cos	-5818
power	-5819
▁copy	-5820
coming	-5821
▁drugs	-5822
▁suffe	-5823
▁unlike	-5824
▁Canadian	-5825
▁photography	-5826
empt	-5827
▁Com	-5828
adium	-5829
▁fare	-5830
▁Later	-5831
▁toile	-5832
▁neighborhood	-5833
ica	-5834
erry	-5835
▁tap	-5836
shine	-5837
▁boat	-5838
▁dawn	-5839
▁eval	-5840
▁fest	-5841
▁tooth	-5842
ervation	-5843
▁dislike	-5844
▁snowing	-5845
▁serendip	-5846
▁slightly	-5847
▁greenhouse	-5848
▁grandfather	-5849
▁kindergarten	-5850
/2	-5851
ba	-5852
nt	-5853
doc	-5854
ounds	-5855
world	-5856
▁furn	-5857
▁empty	-5858
▁judge	-5859
▁pregn	-5860
▁fourth	-5861
▁profit	-5862
▁stable	-5863
▁routine	-5864
▁realised	-5865
▁countryside	-5866
elf	-5867
ley	-5868
▁OF	-5869
▁duty	-5870
▁estim	-5871
▁marry	-5872
▁unless	-5873
▁Fashion	-5874
▁contrary	-5875
▁appointment	-5876
▁participated	-5877
.c	-5878
ago	-5879
ban	-5880
▁jump	-5881
▁nine	-5882
▁trips	-5883
▁colors	-5884
▁colour	-5885
▁chatted	-5886
▁Information	-5887
isy	-5888
▁Po	-5889
hoku	-5890
teen	-5891
▁mut	-5892
▁nar	-5893
▁sup	-5894
▁magn	-5895
▁prem	-5896
▁aband	-5897
▁hoping	-5898
▁mathem	-5899
▁delight	-5900
▁purchase	-5901
RE	-5902
▁Ag	-5903
ichi	-5904
▁Was	-5905
▁gent	-5906
▁keen	-5907
▁nort	-5908
▁shar	-5909
▁juice	-5910
▁risks	-5911
▁vital	-5912
▁Taipei	-5913
▁bodies	-5914
▁bottom	-5915
▁Speaking	-5916
▁concerts	-5917
▁consumers	-5918
▁explanation	-5919
iev	-5920
oors	-5921
▁spl	-5922
▁Yeah	-5923
▁Until	-5924
▁forms	-5925
▁scale	-5926
▁babies	-5927
▁explos	-5928
▁motorc	-5929
▁Language	-5930
▁notebook	-5931
-1	-5932
wa	-5933
ids	-5934
etics	-5935
▁push	-5936
▁turns	-5937
pective	-5938
▁intend	-5939
▁invite	-5940
▁analysis	-5941
▁thousands	-5942
▁additional	-5943
▁influenced	-5944
dy	-5945
hab	-5946
ula	-5947
wide	-5948
ender	-5949
▁Budd	-5950
▁mails	-5951
▁optim	-5952
▁sugar	-5953
▁boiled	-5954
▁bottle	-5955
▁height	-5956
▁Looking	-5957
▁Writing	-5958
▁setting	-5959
▁disagree	-5960
▁politics	-5961
▁comprehen	-5962
▁earthquakes	-5963
▁communicating	-5964
▁dy	-5965
cons	-5966
▁Syd	-5967
▁max	-5968
▁ends	-5969
▁Human	-5970
▁begins	-5971
▁circle	-5972
▁causing	-5973
▁reminds	-5974
▁windows	-5975
▁inconven	-5976
▁Institute	-5977
▁frustrated	-5978
BA	-5979
ege	-5980
cont	-5981
▁Red	-5982
▁gar	-5983
osure	-5984
▁aunt	-5985
▁fees	-5986
▁Sydney	-5987
▁episode	-5988
▁injured	-5989
▁operate	-5990
▁propert	-5991
▁conclude	-5992
▁destroyed	-5993
▁supporting	-5994
/f	-5995
80	-5996
cel	-5997
lif	-5998
urt	-5999
,000	-6000
inal	-6001
olic	-6002
▁SNS	-6003
▁URL	-6004
▁scr	-6005
news/	-6006
▁Asso	-6007
▁inte	-6008
phones	-6009
▁laund	-6010
▁seats	-6011
▁guests	-6012
▁survey	-6013
▁borrowed	-6014
▁supported	-6015
lex	-6016
▁p.	-6017
oxide	-6018
ports	-6019
▁hung	-6020
▁finger	-6021
▁surely	-6022
▁touched	-6023
▁continues	-6024
▁depression	-6025
log	-6026
▁BBC	-6027
▁bon	-6028
iency	-6029
▁Chan	-6030
▁tiny	-6031
ortion	-6032
▁adapt	-6033
▁discl	-6034
▁error	-6035
▁gentle	-6036
▁shared	-6037
▁informed	-6038
▁worrying	-6039
▁Hiroshima	-6040
▁phenomenon	-6041
cks	-6042
uis	-6043
▁Circ	-6044
▁bird	-6045
▁liqu	-6046
▁alarm	-6047
friendly	-6048
▁actress	-6049
▁rubbish	-6050
▁sending	-6051
▁Generally	-6052
▁otherwise	-6053
▁preparation	-6054
▁II	-6055
▁PS	-6056
/200	-6057
▁boo	-6058
▁mad	-6059
▁mur	-6060
conds	-6061
▁Show	-6062
▁bell	-6063
▁cert	-6064
▁lies	-6065
▁soul	-6066
▁stim	-6067
▁yoga	-6068
▁truly	-6069
▁Rogers	-6070
▁korean	-6071
▁teaches	-6072
itionally	-6073
▁daughters	-6074
▁Department	-6075
▁Consequently	-6076
-b	-6077
▁35	-6078
▁Mat	-6079
▁McD	-6080
arant	-6081
sters	-6082
▁Cons	-6083
▁arts	-6084
▁talks	-6085
issions	-6086
▁Nobody	-6087
▁profile	-6088
▁Minister	-6089
▁chemical	-6090
▁innovative	-6091
IL	-6092
gl	-6093
ogr	-6094
going	-6095
▁Prov	-6096
▁cope	-6097
▁hoped	-6098
▁sympt	-6099
▁clinic	-6100
▁signed	-6101
▁status	-6102
▁sudden	-6103
▁dioxide	-6104
▁seasons	-6105
▁suffered	-6106
▁producing	-6107
▁residents	-6108
▁subsidies	-6109
IM	-6110
equ	-6111
ops	-6112
▁IS	-6113
▁Tohoku	-6114
▁approx	-6115
▁freely	-6116
▁attempt	-6117
▁context	-6118
▁largest	-6119
▁persons	-6120
▁skating	-6121
▁tourist	-6122
▁turning	-6123
▁Malaysia	-6124
▁register	-6125
▁installed	-6126
▁suggestion	-6127
wr	-6128
ott	-6129
▁XD	-6130
aven	-6131
otic	-6132
▁Exp	-6133
▁Out	-6134
▁arm	-6135
oween	-6136
ycles	-6137
▁wise	-6138
minton	-6139
▁rates	-6140
▁butter	-6141
▁helium	-6142
▁promote	-6143
▁seconds	-6144
▁resulted	-6145
▁stressful	-6146
ero	-6147
▁ON	-6148
iers	-6149
▁Toy	-6150
▁era	-6151
▁army	-6152
▁bare	-6153
▁pity	-6154
health	-6155
orders	-6156
▁ahead	-6157
▁basis	-6158
▁ending	-6159
▁fruits	-6160
▁infect	-6161
▁planet	-6162
▁resort	-6163
▁fishing	-6164
▁uranium	-6165
▁u	-6166
ilos	-6167
▁unp	-6168
ancer	-6169
erous	-6170
hamed	-6171
iform	-6172
▁jazz	-6173
▁disap	-6174
▁tourn	-6175
▁Center	-6176
▁Regard	-6177
▁warmer	-6178
▁reliable	-6179
▁pronounce	-6180
▁internship	-6181
IK	-6182
ern	-6183
sen	-6184
▁IEL	-6185
ivals	-6186
▁1999	-6187
▁Luck	-6188
▁cler	-6189
▁court	-6190
▁ghost	-6191
▁pasta	-6192
▁noodle	-6193
▁pattern	-6194
▁sharing	-6195
▁gasoline	-6196
▁receiving	-6197
▁grandparents	-6198
-C	-6199
:15	-6200
hou	-6201
tic	-6202
Tube	-6203
▁Fuji	-6204
▁runs	-6205
▁thick	-6206
▁Mother	-6207
▁candid	-6208
▁robots	-6209
▁blossom	-6210
▁cycling	-6211
▁solving	-6212
veillance	-6213
▁applying	-6214
▁techniques	-6215
UN	-6216
fa	-6217
ien	-6218
▁ID	-6219
▁UN	-6220
▁je	-6221
onom	-6222
irect	-6223
▁cure	-6224
▁jack	-6225
▁mill	-6226
▁rail	-6227
▁Psych	-6228
▁petro	-6229
▁reven	-6230
▁schol	-6231
▁tutor	-6232
▁channel	-6233
▁couples	-6234
▁Everyday	-6235
▁designer	-6236
▁educated	-6237
▁teenagers	-6238
19	-6239
cue	-6240
nee	-6241
osc	-6242
uled	-6243
▁jam	-6244
unity	-6245
▁none	-6246
▁scar	-6247
▁suic	-6248
▁susp	-6249
usting	-6250
▁Intro	-6251
▁genes	-6252
▁grass	-6253
▁ocean	-6254
▁Mexico	-6255
▁beside	-6256
▁images	-6257
▁Friends	-6258
▁kilomet	-6259
▁sectors	-6260
▁attracted	-6261
▁instruments	-6262
▁architecture	-6263
term	-6264
▁Tan	-6265
▁pig	-6266
▁tal	-6267
ittee	-6268
▁hell	-6269
▁kiss	-6270
▁tags	-6271
arbage	-6272
▁demon	-6273
▁stated	-6274
▁YouTube	-6275
▁cutting	-6276
▁uniform	-6277
▁conducted	-6278
▁Ts	-6279
sect	-6280
enses	-6281
itous	-6282
point	-6283
▁fert	-6284
▁Great	-6285
▁IELTS	-6286
▁hello	-6287
▁moral	-6288
▁salad	-6289
▁Indeed	-6290
▁Social	-6291
▁arrang	-6292
▁grades	-6293
▁obstac	-6294
▁muscles	-6295
▁stadium	-6296
▁addicted	-6297
▁district	-6298
▁downtown	-6299
▁selected	-6300
▁illnesses	-6301
sp	-6302
onto	-6303
▁Ten	-6304
▁hat	-6305
▁pal	-6306
▁Mand	-6307
▁arms	-6308
▁Event	-6309
▁brill	-6310
▁gifts	-6311
▁maxim	-6312
▁waves	-6313
▁actual	-6314
▁agency	-6315
▁integr	-6316
▁Anyways	-6317
▁College	-6318
▁annoyed	-6319
▁election	-6320
▁recorded	-6321
▁sometime	-6322
▁direction	-6323
▁establish	-6324
▁celebrated	-6325
▁requirements	-6326
ih	-6327
info	-6328
ores	-6329
what	-6330
▁Big	-6331
▁Web	-6332
▁pra	-6333
idden	-6334
▁pock	-6335
▁verb	-6336
mitted	-6337
peared	-6338
▁Chang	-6339
ionship	-6340
▁advise	-6341
▁colder	-6342
▁flying	-6343
▁shirts	-6344
▁wallet	-6345
▁laundry	-6346
▁nations	-6347
▁Students	-6348
▁identify	-6349
▁resource	-6350
▁restrict	-6351
▁disasters	-6352
▁opponents	-6353
da	-6354
zen	-6355
▁Gir	-6356
▁Yam	-6357
▁14th	-6358
▁Amaz	-6359
▁Bang	-6360
▁Mean	-6361
▁iron	-6362
▁writ	-6363
▁secure	-6364
▁pension	-6365
▁delivery	-6366
▁Halloween	-6367
▁furniture	-6368
▁programming	-6369
▁improvements	-6370
oty	-6371
▁Je	-6372
ldom	-6373
▁Bel	-6374
▁gap	-6375
▁Kind	-6376
actors	-6377
overty	-6378
▁Among	-6379
▁refer	-6380
▁tries	-6381
▁convin	-6382
▁session	-6383
▁refreshed	-6384
▁assignment	-6385
sed	-6386
▁CN	-6387
▁MY	-6388
gypt	-6389
erves	-6390
▁Egypt	-6391
▁brief	-6392
▁capac	-6393
▁seldom	-6394
▁sheets	-6395
▁tourism	-6396
▁brothers	-6397
▁replaced	-6398
▁romantic	-6399
▁sunshine	-6400
▁festivals	-6401
▁associated	-6402
▁dependency	-6403
▁examinations	-6404
▁approximately	-6405
zu	-6406
reg	-6407
▁HD	-6408
wing	-6409
▁lux	-6410
▁List	-6411
▁asks	-6412
engers	-6413
istory	-6414
outube	-6415
▁diagn	-6416
▁inher	-6417
▁essays	-6418
▁meters	-6419
▁recall	-6420
▁scream	-6421
▁Theatre	-6422
▁capable	-6423
▁evidence	-6424
▁meanings	-6425
▁possibly	-6426
▁depending	-6427
▁expecting	-6428
▁disappeared	-6429
▁snowboarding	-6430
▁characteristics	-6431
-w	-6432
.1	-6433
rif	-6434
juku	-6435
mend	-6436
resp	-6437
▁Dem	-6438
▁gro	-6439
arest	-6440
ciety	-6441
▁Port	-6442
▁enro	-6443
▁metal	-6444
▁prove	-6445
▁simpl	-6446
utonium	-6447
▁Circle	-6448
▁resume	-6449
▁Reading	-6450
▁camping	-6451
▁follows	-6452
▁garbage	-6453
▁predict	-6454
▁useless	-6455
▁Compared	-6456
▁majoring	-6457
▁practise	-6458
▁creativity	-6459
▁Additionally	-6460
&_	-6461
inc	-6462
▁AL	-6463
quar	-6464
▁gun	-6465
▁sac	-6466
▁san	-6467
▁zoo	-6468
▁flex	-6469
▁virt	-6470
reness	-6471
▁slang	-6472
▁absent	-6473
▁Toronto	-6474
▁Probably	-6475
▁Starting	-6476
▁separate	-6477
▁obviously	-6478
▁sensitive	-6479
▁percentage	-6480
▁physically	-6481
▁experiments	-6482
..	-6483
CE	-6484
▁19.	-6485
▁Kam	-6486
▁Tak	-6487
▁Fund	-6488
▁Starb	-6489
▁cough	-6490
▁falls	-6491
▁noisy	-6492
▁straw	-6493
▁tight	-6494
▁annual	-6495
▁athlet	-6496
▁skiing	-6497
▁overall	-6498
▁imagined	-6499
▁meetings	-6500
▁proposed	-6501
▁temperatures	-6502
lin	-6503
nic	-6504
ails	-6505
▁5th	-6506
uries	-6507
▁symb	-6508
▁coach	-6509
▁marks	-6510
▁castle	-6511
▁dealing	-6512
▁reduces	-6513
▁smiling	-6514
▁minister	-6515
▁numerous	-6516
▁badminton	-6517
▁textbooks	-6518
▁advertising	-6519
▁contributed	-6520
vey	-6521
▁PM	-6522
anda	-6523
▁Fil	-6524
▁Get	-6525
▁Rad	-6526
▁ang	-6527
▁pod	-6528
▁rat	-6529
▁ult	-6530
▁wis	-6531
aling	-6532
▁Send	-6533
▁rang	-6534
▁Autumn	-6535
▁corpor	-6536
▁surface	-6537
▁thermal	-6538
▁whereas	-6539
▁administ	-6540
▁entering	-6541
▁handsome	-6542
▁unemploy	-6543
▁profession	-6544
▁encouraging	-6545
&D	-6546
iate	-6547
▁capt	-6548
▁20:15	-6549
▁Black	-6550
▁Frank	-6551
▁aside	-6552
▁spicy	-6553
▁elimin	-6554
▁Journal	-6555
▁anytime	-6556
▁ashamed	-6557
▁customs	-6558
▁demonst	-6559
▁guarant	-6560
▁produces	-6561
▁Indonesia	-6562
▁assistance	-6563
:30	-6564
▁Fl	-6565
aded	-6566
▁dum	-6567
▁gri	-6568
berry	-6569
rooms	-6570
▁Fast	-6571
▁Holl	-6572
▁poss	-6573
▁prec	-6574
▁visa	-6575
▁categ	-6576
▁parks	-6577
▁threw	-6578
▁button	-6579
▁encoun	-6580
▁stands	-6581
▁toilet	-6582
▁carrying	-6583
▁awareness	-6584
▁dependent	-6585
▁Vietnamese	-6586
▁surrounded	-6587
cy	-6588
agi	-6589
ikes	-6590
name	-6591
▁Cel	-6592
▁Hot	-6593
▁leak	-6594
▁melt	-6595
▁pure	-6596
▁unne	-6597
▁flood	-6598
▁haven	-6599
▁insect	-6600
▁focused	-6601
▁neither	-6602
▁poverty	-6603
▁recovered	-6604
▁struggling	-6605
xy	-6606
uls	-6607
harm	-6608
▁R&D	-6609
▁gat	-6610
riers	-6611
▁Fore	-6612
▁Home	-6613
▁Stat	-6614
▁Watch	-6615
▁blind	-6616
▁rough	-6617
▁breath	-6618
▁commit	-6619
▁microw	-6620
▁polite	-6621
▁central	-6622
▁weakness	-6623
▁chemistry	-6624
▁emissions	-6625
▁reference	-6626
▁productive	-6627
VE	-6628
rid	-6629
▁La	-6630
▁Up	-6631
page	-6632
▁avo	-6633
▁caf	-6634
▁dil	-6635
▁pic	-6636
▁bomb	-6637
▁calc	-6638
▁hairst	-6639
▁sodium	-6640
▁Luckily	-6641
-friendly	-6642
▁Christian	-6643
▁Meanwhile	-6644
▁concerning	-6645
▁advancement	-6646
fu	-6647
asu	-6648
▁Ac	-6649
▁Cor	-6650
acher	-6651
▁tips	-6652
▁badly	-6653
▁humor	-6654
▁shift	-6655
outhern	-6656
▁excuse	-6657
▁loudly	-6658
▁safely	-6659
▁mothers	-6660
ufficient	-6661
▁pregnant	-6662
▁relevant	-6663
▁shoulder	-6664
▁motivated	-6665
▁organizations	-6666
-T	-6667
45	-6668
sc	-6669
ENT	-6670
▁Jo	-6671
wood	-6672
▁Mom	-6673
▁WAS	-6674
▁hon	-6675
▁sam	-6676
.edu/	-6677
arian	-6678
▁Kobe	-6679
▁Soon	-6680
▁code	-6681
▁drew	-6682
▁rush	-6683
atical	-6684
ternal	-6685
▁Santa	-6686
▁awake	-6687
▁narrow	-6688
▁physics	-6689
▁strategy	-6690
▁unnecess	-6691
▁industries	-6692
▁statistics	-6693
bur	-6694
top	-6695
uzz	-6696
▁Uk	-6697
raft	-6698
umes	-6699
▁Rom	-6700
▁dess	-6701
▁kick	-6702
▁boost	-6703
▁disab	-6704
▁trade	-6705
▁Honest	-6706
▁Safety	-6707
▁models	-6708
▁Windows	-6709
▁options	-6710
▁gathered	-6711
▁basically	-6712
▁coworkers	-6713
▁described	-6714
▁determine	-6715
▁recycling	-6716
▁revealing	-6717
▁economical	-6718
▁originally	-6719
▁recognized	-6720
-d	-6721
DP	-6722
aga	-6723
▁od	-6724
adget	-6725
▁Back	-6726
▁Char	-6727
▁dear	-6728
▁sons	-6729
▁irrit	-6730
▁stone	-6731
▁uncle	-6732
▁debate	-6733
▁nights	-6734
▁intended	-6735
▁northern	-6736
▁overtime	-6737
▁Starbucks	-6738
▁reception	-6739
▁Eventually	-6740
▁Population	-6741
▁tournament	-6742
VER	-6743
asm	-6744
que	-6745
▁Pe	-6746
▁hug	-6747
▁Rock	-6748
▁coat	-6749
▁tack	-6750
▁cited	-6751
▁belief	-6752
▁instant	-6753
▁massage	-6754
▁nursing	-6755
▁sisters	-6756
▁suicide	-6757
▁multiple	-6758
▁instrument	-6759
▁motorcycle	-6760
▁obligation	-6761
▁perspective	-6762
PM	-6763
▁S.	-6764
gers	-6765
▁amb	-6766
▁map	-6767
owing	-6768
▁exec	-6769
▁load	-6770
▁miso	-6771
▁jokes	-6772
▁philos	-6773
▁studio	-6774
▁appears	-6775
▁daytime	-6776
▁measure	-6777
▁pointed	-6778
▁worries	-6779
▁involves	-6780
▁disappear	-6781
▁worldwide	-6782
▁interviews	-6783
▁regardless	-6784
▁established	-6785
bye	-6786
ris	-6787
ocal	-6788
▁Imp	-6789
agawa	-6790
ashed	-6791
ieves	-6792
imate	-6793
▁Mile	-6794
▁firm	-6795
▁Using	-6796
▁shame	-6797
▁emphas	-6798
▁hamper	-6799
▁mature	-6800
▁happier	-6801
▁brilliant	-6802
▁decreasing	-6803
▁implementation	-6804
12	-6805
uya	-6806
▁AS	-6807
▁E.	-6808
▁ES	-6809
aign	-6810
outs	-6811
▁Met	-6812
eliev	-6813
kward	-6814
▁gate	-6815
▁hide	-6816
▁Apart	-6817
▁Going	-6818
▁Techn	-6819
▁Under	-6820
▁sandw	-6821
▁skunk	-6822
isation	-6823
▁adjust	-6824
▁assess	-6825
▁reject	-6826
▁symbol	-6827
▁wasted	-6828
iversary	-6829
ositions	-6830
▁//www.m	-6831
▁Rainbow	-6832
▁weekdays	-6833
▁incorrect	-6834
▁operators	-6835
▁correction	-6836
▁graduating	-6837
▁passengers	-6838
▁Association	-6839
33	-6840
▁AT	-6841
pped	-6842
▁BBQ	-6843
▁Sea	-6844
▁fed	-6845
▁nut	-6846
iking	-6847
▁bowl	-6848
▁ears	-6849
▁oven	-6850
▁poem	-6851
▁Press	-6852
▁Still	-6853
▁chips	-6854
▁rural	-6855
▁spect	-6856
▁stock	-6857
▁golden	-6858
▁Youtube	-6859
▁burning	-6860
▁raising	-6861
▁cheerful	-6862
▁Temperature	-6863
▁appreciated	-6864
▁environmentally	-6865
ae	-6866
alt	-6867
▁ST	-6868
▁ru	-6869
.net	-6870
ouds	-6871
uter	-6872
▁Opp	-6873
▁Swed	-6874
▁beans	-6875
▁taxes	-6876
▁Sendai	-6877
▁excess	-6878
▁flavor	-6879
▁muscle	-6880
▁Program	-6881
▁divided	-6882
▁drivers	-6883
▁capacity	-6884
▁thankful	-6885
▁challenging	-6886
▁automatically	-6887
yo	-6888
itz	-6889
ford	-6890
kind	-6891
▁Mid	-6892
▁Drag	-6893
▁cuis	-6894
▁east	-6895
▁Khand	-6896
▁Water	-6897
▁accum	-6898
▁sides	-6899
▁silly	-6900
▁spots	-6901
mission	-6902
▁Medical	-6903
▁happily	-6904
▁rainbow	-6905
▁Honestly	-6906
▁technique	-6907
▁programmes	-6908
▁mathematics	-6909
▁unnecessary	-6910
/S	-6911
bre	-6912
ont	-6913
▁RE	-6914
oted	-6915
pert	-6916
▁Mur	-6917
▁que	-6918
▁unt	-6919
▁vul	-6920
▁Party	-6921
▁bills	-6922
▁cells	-6923
▁clubs	-6924
▁Person	-6925
▁fallen	-6926
▁incent	-6927
▁scores	-6928
▁tested	-6929
▁cameras	-6930
▁limiting	-6931
▁comparison	-6932
▁terrorists	-6933
▁composition	-6934
▁Ah	-6935
▁Bu	-6936
▁El	-6937
urse	-6938
hemes	-6939
▁1986	-6940
▁flew	-6941
▁rude	-6942
▁enorm	-6943
▁forth	-6944
▁forty	-6945
▁trial	-6946
▁cabins	-6947
▁rented	-6948
▁switch	-6949
▁Britain	-6950
▁hanging	-6951
▁remains	-6952
▁Mandarin	-6953
▁Peterson	-6954
▁mysterious	-6955
yen	-6956
bour	-6957
edic	-6958
▁Dav	-6959
rated	-6960
▁2012	-6961
▁hind	-6962
ipping	-6963
▁Prime	-6964
▁absor	-6965
▁bands	-6966
▁lying	-6967
▁quant	-6968
▁virus	-6969
▁well-	-6970
▁desper	-6971
▁fright	-6972
▁remove	-6973
▁Society	-6974
▁Khandani	-6975
▁domestic	-6976
▁repeated	-6977
▁scholars	-6978
▁symptoms	-6979
▁youngest	-6980
▁Hopefully	-6981
▁separated	-6982
▁manufacture	-6983
▁politicians	-6984
65	-6985
▁Ty	-6986
bing	-6987
inct	-6988
rett	-6989
▁Sec	-6990
▁rab	-6991
▁toy	-6992
utive	-6993
▁21st	-6994
▁Cont	-6995
▁Kans	-6996
▁diss	-6997
▁pets	-6998
▁toys	-6999
esting	-7000
inated	-7001
▁remark	-7002
▁conflic	-7003
▁schemes	-7004
▁Olympics	-7005
▁campaign	-7006
▁electron	-7007
▁emission	-7008
▁farewell	-7009
▁musicians	-7010
▁plutonium	-7011
▁presented	-7012
▁accomplish	-7013
▁comprehens	-7014
▁journalists	-7015
.w	-7016
ota	-7017
▁G.	-7018
▁Wi	-7019
odes	-7020
rupt	-7021
▁CDs	-7022
▁loo	-7023
oscow	-7024
▁Jack	-7025
▁feas	-7026
atural	-7027
ivered	-7028
▁click	-7029
▁casual	-7030
▁distur	-7031
▁calling	-7032
▁exposed	-7033
▁shorter	-7034
▁patience	-7035
11	-7036
▁NE	-7037
asaki	-7038
▁Main	-7039
▁cock	-7040
▁prev	-7041
▁vacc	-7042
▁Inter	-7043
▁Obama	-7044
ologist	-7045
▁Winter	-7046
▁awkward	-7047
▁explore	-7048
▁officer	-7049
▁arranged	-7050
▁designers	-7051
▁reprocess	-7052
▁affordable	-7053
▁serendipitous	-7054
▁identification	-7055
IR	-7056
kok	-7057
uit	-7058
mark	-7059
▁197	-7060
▁Sam	-7061
onent	-7062
▁enem	-7063
▁pink	-7064
▁plat	-7065
uments	-7066
▁urban	-7067
ustomed	-7068
▁clouds	-7069
▁costly	-7070
▁filial	-7071
▁volume	-7072
▁Fukuoka	-7073
▁package	-7074
▁sounded	-7075
▁Studying	-7076
▁announce	-7077
▁existence	-7078
▁explosion	-7079
▁household	-7080
▁obligated	-7081
▁incredible	-7082
kg	-7083
▁Ir	-7084
▁SH	-7085
requ	-7086
▁Hak	-7087
▁Job	-7088
▁Nar	-7089
weigh	-7090
▁Sapp	-7091
▁defe	-7092
▁dial	-7093
▁nick	-7094
▁Forum	-7095
▁lover	-7096
▁prior	-7097
▁Moscow	-7098
▁battle	-7099
▁bridge	-7100
▁gadget	-7101
▁Leisure	-7102
▁aggress	-7103
▁passport	-7104
▁objective	-7105
▁strategies	-7106
▁treatments	-7107
ta	-7108
ius	-7109
▁DO	-7110
endo	-7111
ethe	-7112
grad	-7113
olen	-7114
oles	-7115
▁Wow	-7116
eping	-7117
▁grab	-7118
▁king	-7119
encies	-7120
ulture	-7121
▁bride	-7122
▁dying	-7123
▁hated	-7124
▁Poland	-7125
▁cookies	-7126
▁joining	-7127
▁freshman	-7128
▁Regarding	-7129
▁promising	-7130
▁strangers	-7131
▁expectations	-7132
Gen	-7133
hew	-7134
php	-7135
▁WH	-7136
▁fi	-7137
▁oh	-7138
look	-7139
▁elev	-7140
▁equal	-7141
▁yours	-7142
▁Street	-7143
▁admire	-7144
▁orange	-7145
▁nearest	-7146
▁lectures	-7147
▁partners	-7148
▁unbeliev	-7149
▁Something	-7150
▁scheduled	-7151
AG	-7152
OP	-7153
▁@	-7154
.php	-7155
sius	-7156
▁Sil	-7157
▁row	-7158
▁15th	-7159
▁1998	-7160
▁oral	-7161
lderly	-7162
▁apple	-7163
▁illeg	-7164
▁rains	-7165
▁stead	-7166
▁Amazon	-7167
▁output	-7168
-nuclear	-7169
▁Sapporo	-7170
▁passive	-7171
▁hundreds	-7172
liferation	-7173
▁Otherwise	-7174
▁temporary	-7175
▁inevitable	-7176
▁fascinating	-7177
▁surrounding	-7178
-m	-7179
LY	-7180
bu	-7181
.uk	-7182
exp	-7183
▁Ms	-7184
▁ec	-7185
▁km	-7186
anes	-7187
itan	-7188
then	-7189
▁Mel	-7190
.aspx	-7191
▁Four	-7192
▁cosm	-7193
▁leng	-7194
▁Buddh	-7195
▁Grand	-7196
▁Micro	-7197
▁appet	-7198
▁overs	-7199
▁treas	-7200
▁argued	-7201
▁barely	-7202
▁branch	-7203
▁horror	-7204
▁ignore	-7205
▁monthly	-7206
▁museums	-7207
▁tremend	-7208
▁encounter	-7209
▁housework	-7210
▁microwave	-7211
▁sophistic	-7212
▁regulations	-7213
gs	-7214
zed	-7215
atar	-7216
orce	-7217
▁FOR	-7218
▁Sub	-7219
▁fab	-7220
▁pup	-7221
backs	-7222
index	-7223
▁Prof	-7224
▁hire	-7225
▁roof	-7226
ifying	-7227
▁Labor	-7228
▁cater	-7229
▁clerk	-7230
▁nurse	-7231
▁pants	-7232
▁prime	-7233
▁cooler	-7234
▁titled	-7235
▁acquire	-7236
▁refused	-7237
▁satisfy	-7238
▁institute	-7239
▁financially	-7240
▁fortunately	-7241
▁imagination	-7242
▁contribution	-7243
IG	-7244
abe	-7245
iku	-7246
uke	-7247
▁PR	-7248
ript	-7249
▁dia	-7250
▁lad	-7251
itate	-7252
▁cant	-7253
▁west	-7254
alking	-7255
▁agent	-7256
▁blank	-7257
▁congr	-7258
▁reput	-7259
▁Family	-7260
▁amazed	-7261
▁enable	-7262
▁expert	-7263
▁smiled	-7264
▁cartoons	-7265
▁colorful	-7266
▁interact	-7267
▁outweigh	-7268
▁President	-7269
▁adventure	-7270
▁popularity	-7271
▁anniversary	-7272
hyth	-7273
uchi	-7274
ummy	-7275
▁Bet	-7276
▁GPS	-7277
▁Mor	-7278
erial	-7279
uggle	-7280
▁20th	-7281
▁shel	-7282
ieving	-7283
ushing	-7284
▁Radio	-7285
▁parag	-7286
▁pharm	-7287
▁soooo	-7288
▁Report	-7289
▁client	-7290
▁elders	-7291
▁manner	-7292
▁pocket	-7293
▁silent	-7294
▁stolen	-7295
▁congrat	-7296
▁lottery	-7297
▁painted	-7298
▁delivered	-7299
▁paintings	-7300
▁Psychology	-7301
▁expectancy	-7302
▁attractions	-7303
▁Surveillance	-7304
38	-7305
▁Hy	-7306
▁Lat	-7307
▁Wil	-7308
chair	-7309
erget	-7310
essed	-7311
ribly	-7312
▁mini	-7313
urning	-7314
▁19:30	-7315
▁blame	-7316
▁facts	-7317
▁suits	-7318
content	-7319
ruction	-7320
▁Agency	-7321
▁arrest	-7322
▁potato	-7323
▁rental	-7324
▁reward	-7325
▁voices	-7326
articles	-7327
▁amounts	-7328
▁confirm	-7329
▁enables	-7330
▁killing	-7331
▁massive	-7332
▁disorders	-7333
▁renewable	-7334
▁afterwards	-7335
▁proportion	-7336
gar	-7337
isp	-7338
▁BE	-7339
▁ME	-7340
▁Sk	-7341
fall	-7342
food	-7343
▁Cat	-7344
▁Mart	-7345
▁prob	-7346
rivacy	-7347
▁adequ	-7348
▁block	-7349
▁innoc	-7350
▁steam	-7351
▁Future	-7352
▁behavi	-7353
▁kimono	-7354
▁stages	-7355
▁wastes	-7356
▁creates	-7357
▁dialect	-7358
▁energet	-7359
▁seniors	-7360
▁skilled	-7361
▁conscious	-7362
▁healthier	-7363
cil	-7364
ito	-7365
ocr	-7366
opp	-7367
rep	-7368
was	-7369
▁L.	-7370
▁mal	-7371
▁pha	-7372
▁West	-7373
arkets	-7374
▁Angel	-7375
▁State	-7376
▁brave	-7377
▁incur	-7378
▁tower	-7379
▁Kansai	-7380
▁booked	-7381
▁proven	-7382
▁recipe	-7383
ferences	-7384
▁clients	-7385
▁wasting	-7386
▁distingu	-7387
▁enormous	-7388
▁kindness	-7389
▁potatoes	-7390
▁somewhat	-7391
▁standards	-7392
▁accustomed	-7393
▁insufficient	-7394
▁performances	-7395
▁sophisticated	-7396
-e	-7397
cest	-7398
ophy	-7399
▁400	-7400
▁LFR	-7401
▁Sen	-7402
ingly	-7403
▁symp	-7404
▁vast	-7405
▁White	-7406
▁coast	-7407
▁tomato	-7408
ficiency	-7409
▁attacks	-7410
▁portion	-7411
▁selfish	-7412
▁canceled	-7413
▁criminal	-7414
▁criminals	-7415
▁revolution	-7416
90	-7417
▁OS	-7418
▁pp	-7419
soft	-7420
▁Bye	-7421
▁Non	-7422
▁ble	-7423
▁rum	-7424
ented	-7425
▁Book	-7426
▁chef	-7427
▁fond	-7428
▁Sports	-7429
▁ancest	-7430
▁clever	-7431
▁hotels	-7432
▁mirror	-7433
▁refund	-7434
▁wisdom	-7435
▁decline	-7436
▁fortune	-7437
▁ignored	-7438
▁passage	-7439
▁retired	-7440
▁trained	-7441
▁McDonald	-7442
▁elements	-7443
▁platform	-7444
▁terrorist	-7445
▁businesses	-7446
▁generating	-7447
▁procedures	-7448
▁importantly	-7449
CR	-7450
ida	-7451
pal	-7452
sip	-7453
umi	-7454
uro	-7455
▁hi	-7456
mare	-7457
▁429	-7458
▁ori	-7459
▁ped	-7460
asant	-7461
eries	-7462
itage	-7463
▁13th	-7464
▁Club	-7465
▁Free	-7466
▁Franc	-7467
▁amuse	-7468
▁bound	-7469
▁fifty	-7470
▁hurts	-7471
▁jeans	-7472
▁long-	-7473
▁recru	-7474
▁iphone	-7475
▁league	-7476
▁qualif	-7477
▁script	-7478
▁styles	-7479
▁vision	-7480
▁vulner	-7481
▁adopted	-7482
▁cleaner	-7483
▁finance	-7484
▁moments	-7485
▁commonly	-7486
▁identity	-7487
▁Provident	-7488
▁instructor	-7489
▁assignments	-7490
14	-7491
Eng	-7492
▁K.	-7493
▁R.	-7494
high	-7495
html	-7496
iyaki	-7497
▁Star	-7498
▁THAT	-7499
▁thor	-7500
▁dedic	-7501
▁mouse	-7502
▁stops	-7503
▁frozen	-7504
▁History	-7505
▁Someday	-7506
▁delayed	-7507
▁deliver	-7508
▁fiction	-7509
▁fingers	-7510
▁precise	-7511
▁talents	-7512
▁bringing	-7513
▁substant	-7514
▁energetic	-7515
▁hamburger	-7516
▁encourages	-7517
▁personally	-7518
25	-7519
ham	-7520
ray	-7521
berg	-7522
▁Dec	-7523
▁Den	-7524
▁Eve	-7525
▁fol	-7526
attle	-7527
▁//en	-7528
▁Miss	-7529
▁bars	-7530
▁file	-7531
▁soap	-7532
▁award	-7533
▁Global	-7534
▁crimes	-7535
▁exists	-7536
▁packed	-7537
▁winner	-7538
▁//www.s	-7539
▁Nothing	-7540
▁cuisine	-7541
▁deadline	-7542
▁keyboard	-7543
▁superior	-7544
▁Community	-7545
▁scholarship	-7546
▁underground	-7547
UM	-7548
ya	-7549
car	-7550
una	-7551
▁SO	-7552
alty	-7553
icon	-7554
▁Gre	-7555
▁wit	-7556
uters	-7557
▁Sara	-7558
▁sett	-7559
▁yout	-7560
▁Fried	-7561
▁plate	-7562
▁ridic	-7563
▁windy	-7564
iration	-7565
quarium	-7566
viously	-7567
▁immigr	-7568
▁oldest	-7569
▁societ	-7570
▁Bangkok	-7571
▁Teacher	-7572
▁matches	-7573
▁focusing	-7574
▁arguments	-7575
▁paragraph	-7576
▁stability	-7577
▁Afterwards	-7578
▁chocolates	-7579
▁Singaporean	-7580
▁controversial	-7581
▁advertisements	-7582
.in	-7583
ora	-7584
son	-7585
▁EN	-7586
fish	-7587
zard	-7588
▁Jun	-7589
▁MSN	-7590
▁Mil	-7591
▁bul	-7592
aired	-7593
craft	-7594
endar	-7595
▁pill	-7596
▁puzz	-7597
▁wire	-7598
▁Organ	-7599
▁blogs	-7600
▁honey	-7601
▁initi	-7602
▁Taking	-7603
▁homest	-7604
▁harvest	-7605
▁possess	-7606
▁Business	-7607
▁Shinjuku	-7608
▁indirect	-7609
▁continuous	-7610
▁controlled	-7611
▁meaningful	-7612
LD	-7613
▁Ak	-7614
▁SP	-7615
▁WE	-7616
ttes	-7617
will	-7618
▁GDP	-7619
▁Off	-7620
▁Rel	-7621
▁tid	-7622
▁11th	-7623
▁Fall	-7624
▁disg	-7625
▁laun	-7626
▁plot	-7627
.org/w	-7628
▁gorge	-7629
▁signs	-7630
▁trash	-7631
arently	-7632
▁Dragon	-7633
▁Polish	-7634
▁prison	-7635
▁square	-7636
▁careless	-7637
▁terribly	-7638
▁delighted	-7639
▁factories	-7640
▁nightmare	-7641
▁succeeded	-7642
▁vegetable	-7643
▁supermarkets	-7644
/C	-7645
gi	-7646
map	-7647
oly	-7648
apse	-7649
▁ben	-7650
iscal	-7651
years	-7652
▁Come	-7653
▁boom	-7654
▁diff	-7655
uition	-7656
▁barbe	-7657
▁boxes	-7658
▁comma	-7659
▁stret	-7660
-Cooled	-7661
▁Robert	-7662
▁stairs	-7663
▁Roberts	-7664
▁advised	-7665
▁mankind	-7666
▁podcast	-7667
▁temples	-7668
▁warning	-7669
▁youtube	-7670
▁inspired	-7671
▁musician	-7672
▁southern	-7673
▁wherever	-7674
▁hopefully	-7675
▁landscape	-7676
▁recession	-7677
▁remaining	-7678
▁fashionable	-7679
▁troublesome	-7680
▁economically	-7681
▁manufacturing	-7682
67	-7683
AI	-7684
gin	-7685
nov	-7686
▁AB	-7687
asia	-7688
▁Mas	-7689
upper	-7690
▁alot	-7691
▁grap	-7692
undant	-7693
▁Surpr	-7694
▁legal	-7695
▁sheet	-7696
▁Parents	-7697
▁comprom	-7698
▁deserve	-7699
▁ethical	-7700
▁experts	-7701
▁haven't	-7702
▁shining	-7703
▁constant	-7704
▁regarded	-7705
▁spelling	-7706
▁struggle	-7707
▁talented	-7708
▁touching	-7709
ercritical	-7710
▁Available	-7711
▁estimated	-7712
▁introducing	-7713
▁competitions	-7714
ga	-7715
▁Na	-7716
▁Op	-7717
long	-7718
▁238	-7719
ghter	-7720
raine	-7721
▁Help	-7722
▁drag	-7723
▁tons	-7724
lation	-7725
▁crowd	-7726
▁rhyth	-7727
▁route	-7728
▁trick	-7729
▁Ageing	-7730
▁Living	-7731
▁caring	-7732
▁heaven	-7733
▁kindly	-7734
▁molten	-7735
▁owners	-7736
▁sunset	-7737
▁supper	-7738
▁update	-7739
▁defense	-7740
▁impacts	-7741
▁printed	-7742
▁gathering	-7743
▁intention	-7744
▁neglected	-7745
▁championship	-7746
▁increasingly	-7747
New	-7748
isa	-7749
▁Ka	-7750
emon	-7751
icip	-7752
otes	-7753
pper	-7754
rich	-7755
▁Ass	-7756
▁Vol	-7757
▁une	-7758
onder	-7759
▁Beat	-7760
▁Hear	-7761
▁Okay	-7762
▁deny	-7763
▁dict	-7764
▁envy	-7765
▁leaf	-7766
ealous	-7767
erable	-7768
▁baked	-7769
▁persu	-7770
▁unple	-7771
▁jacket	-7772
▁Celsius	-7773
▁claimed	-7774
▁summary	-7775
▁Watching	-7776
▁millions	-7777
▁Committee	-7778
▁Wikipedia	-7779
▁architect	-7780
▁sustainable	-7781
ku	-7782
pan	-7783
isco	-7784
▁Hun	-7785
▁Pal	-7786
▁eco	-7787
▁mos	-7788
▁twe	-7789
ansen	-7790
table	-7791
▁Jane	-7792
▁hill	-7793
▁jams	-7794
▁pour	-7795
▁unre	-7796
rition	-7797
▁Chiba	-7798
▁deple	-7799
▁dolls	-7800
▁passes	-7801
▁refuse	-7802
▁typing	-7803
▁visual	-7804
ographic	-7805
▁//www.c	-7806
▁posting	-7807
▁advances	-7808
▁gorgeous	-7809
▁organize	-7810
▁revealed	-7811
▁terrorism	-7812
▁discoveries	-7813
▁intelligent	-7814
▁transferred	-7815
▁unbelievable	-7816
NA	-7817
EST	-7818
fid	-7819
imi	-7820
kin	-7821
▁CH	-7822
▁Mov	-7823
▁Old	-7824
▁Yuk	-7825
▁unl	-7826
/2009	-7827
ATION	-7828
▁non-	-7829
▁19.30	-7830
▁Board	-7831
▁flour	-7832
▁walls	-7833
mediate	-7834
▁jumped	-7835
▁lasted	-7836
▁academy	-7837
▁quarter	-7838
▁wanting	-7839
unication	-7840
▁homestay	-7841
▁sickness	-7842
▁organised	-7843
▁resulting	-7844
▁roommates	-7845
▁reputation	-7846
▁combination	-7847
▁electronics	-7848
bb	-7849
▁\	-7850
-of	-7851
usa	-7852
-240	-7853
osis	-7854
▁HDB	-7855
▁Kar	-7856
tered	-7857
▁Need	-7858
▁anti	-7859
▁edge	-7860
▁Class	-7861
▁chain	-7862
▁fiscal	-7863
▁unfair	-7864
▁Systems	-7865
▁compete	-7866
▁grilled	-7867
▁illustr	-7868
▁jealous	-7869
▁realise	-7870
▁regrett	-7871
▁springs	-7872
▁undergo	-7873
.org/wiki	-7874
▁emphasis	-7875
▁property	-7876
▁obstacles	-7877
▁proliferation	-7878
apy	-7879
▁au	-7880
acha	-7881
iffe	-7882
ilty	-7883
lete	-7884
▁spa	-7885
anton	-7886
▁Exam	-7887
cience	-7888
▁River	-7889
▁unfor	-7890
▁Portug	-7891
▁atomic	-7892
▁repeat	-7893
▁sooner	-7894
▁Olympic	-7895
▁belongs	-7896
▁minimum	-7897
▁accounts	-7898
▁episodes	-7899
▁nickname	-7900
▁tomatoes	-7901
▁neighbour	-7902
▁unpleasant	-7903
▁volunteers	-7904
/A	-7905
/n	-7906
17	-7907
CT	-7908
EA	-7909
OG	-7910
ho	-7911
iko	-7912
/gen	-7913
athy	-7914
irth	-7915
udes	-7916
▁Bon	-7917
icill	-7918
▁bree	-7919
▁dust	-7920
encing	-7921
iently	-7922
▁Diary	-7923
raining	-7924
respond	-7925
ultural	-7926
▁behave	-7927
▁devast	-7928
▁dollar	-7929
▁illust	-7930
▁launch	-7931
▁occurs	-7932
▁Working	-7933
▁colored	-7934
▁dreamed	-7935
▁dressed	-7936
▁earning	-7937
▁insects	-7938
▁removed	-7939
▁sadness	-7940
▁Electric	-7941
▁certific	-7942
▁feasible	-7943
▁mentally	-7944
▁workshop	-7945
.wikipedia	-7946
▁personnel	-7947
▁incentives	-7948
▁limitations	-7949
/c	-7950
TER	-7951
aly	-7952
▁vs	-7953
▁7th	-7954
▁Tos	-7955
enger	-7956
▁Filip	-7957
▁arise	-7958
▁audio	-7959
▁proof	-7960
▁bitter	-7961
▁lovers	-7962
activity	-7963
▁command	-7964
▁dessert	-7965
▁grandma	-7966
▁mission	-7967
▁refresh	-7968
▁acquaint	-7969
▁launched	-7970
▁Microsoft	-7971
▁convinced	-7972
▁advertised	-7973
▁//en.wikipedia	-7974
/m	-7975
22	-7976
St	-7977
_re	-7978
▁33	-7979
itty	-7980
▁ache	-7981
▁sixt	-7982
▁Smith	-7983
▁crack	-7984
▁escap	-7985
▁medal	-7986
▁posts	-7987
▁storm	-7988
▁easing	-7989
▁hiking	-7990
▁implic	-7991
etheless	-7992
▁bedroom	-7993
▁sailing	-7994
▁accurate	-7995
▁competit	-7996
▁composed	-7997
▁meltdown	-7998
▁resident	-7999
▁photographs	-8000
uma	-8001
hett	-8002
▁800	-8003
▁Ann	-8004
▁Cla	-8005
▁hay	-8006
▁kan	-8007
aters	-8008
orage	-8009
▁Math	-8010
▁merc	-8011
everal	-8012
▁David	-8013
▁Music	-8014
▁fifth	-8015
▁Correct	-8016
▁Seattle	-8017
▁analyze	-8018
▁barrier	-8019
▁initial	-8020
▁restart	-8021
▁shouted	-8022
▁attacked	-8023
▁calendar	-8024
▁homeless	-8025
▁shocking	-8026
▁uploaded	-8027
▁Robertson	-8028
▁amusement	-8029
▁confusing	-8030
▁movements	-8031
▁definition	-8032
▁continuously	-8033
▁participants	-8034
lem	-8035
▁J.	-8036
▁LA	-8037
▁Lo	-8038
onym	-8039
▁Nan	-8040
▁gay	-8041
oured	-8042
▁Plan	-8043
▁Post	-8044
▁crit	-8045
▁evil	-8046
▁shad	-8047
▁whis	-8048
orters	-8049
▁Count	-8050
▁Young	-8051
▁flies	-8052
▁input	-8053
▁texts	-8054
ospital	-8055
▁forces	-8056
▁hahaha	-8057
▁hearts	-8058
▁relief	-8059
▁resign	-8060
▁Company	-8061
▁citizen	-8062
▁commute	-8063
▁compuls	-8064
▁logical	-8065
▁proceed	-8066
▁publish	-8067
▁coworker	-8068
▁promotion	-8069
▁realistic	-8070
▁Electronic	-8071
▁continuing	-8072
▁performing	-8073
▁wheelchair	-8074
RI	-8075
hu	-8076
lt	-8077
uct	-8078
▁55	-8079
▁CO	-8080
▁SW	-8081
▁ug	-8082
elve	-8083
nels	-8084
pter	-8085
rown	-8086
▁6th	-8087
▁Mr.	-8088
▁Pen	-8089
▁mob	-8090
heast	-8091
ograp	-8092
▁Nara	-8093
▁balls	-8094
▁phase	-8095
▁spell	-8096
▁Kindle	-8097
▁diving	-8098
▁pulled	-8099
▁rabbit	-8100
▁Several	-8101
▁outdoor	-8102
▁robotic	-8103
▁dreaming	-8104
▁innocent	-8105
▁minimize	-8106
▁soldiers	-8107
▁procedure	-8108
▁secondary	-8109
▁Statistics	-8110
▁kilometers	-8111
▁researching	-8112
▁enthusiastic	-8113
▁reprocessing	-8114
oba	-8115
▁NO	-8116
phew	-8117
▁600	-8118
▁CNN	-8119
▁Yak	-8120
itzer	-8121
▁10th	-8122
▁2030	-8123
▁Road	-8124
▁mand	-8125
▁sofa	-8126
ackson	-8127
astrop	-8128
igence	-8129
▁10000	-8130
▁dried	-8131
▁finds	-8132
▁overw	-8133
▁steak	-8134
▁tends	-8135
icillin	-8136
▁rhythm	-8137
▁tackle	-8138
▁traged	-8139
.edu.sg/	-8140
igration	-8141
▁anxiety	-8142
▁cooling	-8143
▁prosper	-8144
▁writers	-8145
▁province	-8146
▁unforget	-8147
▁neighbors	-8148
▁cigarettes	-8149
▁cooperation	-8150
▁possibilities	-8151
▁presentations	-8152
ju	-8153
era	-8154
tte	-8155
▁Er	-8156
ango	-8157
brid	-8158
cipl	-8159
iger	-8160
roid	-8161
▁Ken	-8162
▁diz	-8163
▁hip	-8164
▁pit	-8165
▁ups	-8166
▁van	-8167
isave	-8168
lands	-8169
▁rank	-8170
▁swam	-8171
▁wave	-8172
▁Tower	-8173
▁agric	-8174
▁bunch	-8175
▁surge	-8176
▁upper	-8177
▁Unlike	-8178
▁breeze	-8179
▁deaths	-8180
▁defect	-8181
▁length	-8182
▁nephew	-8183
▁proved	-8184
▁prover	-8185
critical	-8186
▁//www.b	-8187
▁238-240	-8188
▁Ukraine	-8189
▁classic	-8190
▁figures	-8191
▁maximum	-8192
▁mindset	-8193
▁premium	-8194
▁aquarium	-8195
▁consumer	-8196
▁improves	-8197
▁interpre	-8198
▁repaired	-8199
▁expressed	-8200
▁Surprising	-8201
▁correspond	-8202
▁consequence	-8203
▁distinguish	-8204
▁grammatical	-8205
▁satisfaction	-8206
--	-8207
box	-8208
gic	-8209
▁GM	-8210
▁HA	-8211
▁Yu	-8212
▁Gas	-8213
▁Tim	-8214
▁lun	-8215
andom	-8216
inate	-8217
mates	-8218
ywood	-8219
▁chop	-8220
▁gene	-8221
▁supr	-8222
celona	-8223
▁drums	-8224
▁minor	-8225
▁sharp	-8226
▁Arabic	-8227
▁Turkey	-8228
▁filmed	-8229
▁hidden	-8230
▁struck	-8231
▁wished	-8232
▁Foreign	-8233
▁Jackson	-8234
▁Toshiba	-8235
▁climbed	-8236
▁fitness	-8237
▁mystery	-8238
▁thunder	-8239
itzerland	-8240
▁appetite	-8241
▁equipped	-8242
▁Barcelona	-8243
▁professors	-8244
▁ridiculous	-8245
▁vulnerable	-8246
▁approaching	-8247
▁Introduction	-8248
▁occasionally	-8249
.5	-8250
84	-8251
ANG	-8252
imp	-8253
▁Ni	-8254
urai	-8255
▁Iss	-8256
acing	-8257
attoo	-8258
inent	-8259
▁1990	-8260
▁aims	-8261
▁flaw	-8262
▁spag	-8263
▁sung	-8264
▁ugly	-8265
▁wars	-8266
bourne	-8267
▁Write	-8268
▁scold	-8269
vention	-8270
▁conver	-8271
▁dialog	-8272
▁handic	-8273
▁labour	-8274
▁makers	-8275
▁sevent	-8276
▁silver	-8277
▁Testing	-8278
▁accents	-8279
▁outcome	-8280
conscious	-8281
▁Reactors	-8282
▁adequate	-8283
▁allowing	-8284
▁stranger	-8285
▁abandoned	-8286
▁behaviour	-8287
▁investing	-8288
▁souvenirs	-8289
▁comprehension	-8290
ado	-8291
iji	-8292
oma	-8293
ycl	-8294
▁C.	-8295
cery	-8296
rete	-8297
▁Aki	-8298
▁rub	-8299
▁tip	-8300
iders	-8301
oking	-8302
▁Arts	-8303
▁Fire	-8304
▁Serv	-8305
stairs	-8306
▁Alice	-8307
▁Quest	-8308
▁adopt	-8309
▁chest	-8310
▁drawn	-8311
▁hopes	-8312
▁quake	-8313
▁toler	-8314
▁motorb	-8315
▁punish	-8316
▁weapon	-8317
▁Wilpert	-8318
▁bottles	-8319
▁fifteen	-8320
▁goodbye	-8321
▁manners	-8322
▁winning	-8323
▁breaking	-8324
▁feedback	-8325
▁flexible	-8326
▁treasure	-8327
ifications	-8328
▁catastrop	-8329
▁responsib	-8330
▁collection	-8331
▁monitoring	-8332
▁philosophy	-8333
▁preventing	-8334
▁Switzerland	-8335
▁maintaining	-8336
▁implementing	-8337
▁radioactivity	-8338
▁supercritical	-8339
.2	-8340
13	-8341
EO	-8342
.co	-8343
▁Sl	-8344
rack	-8345
rene	-8346
rfid	-8347
zhou	-8348
▁Bre	-8349
ammer	-8350
hetti	-8351
rimin	-8352
▁Lots	-8353
▁Mark	-8354
▁Stra	-8355
icious	-8356
▁Night	-8357
▁dumpl	-8358
▁inexp	-8359
▁mirac	-8360
▁print	-8361
▁suppl	-8362
▁towns	-8363
ificial	-8364
▁Academ	-8365
▁guilty	-8366
▁prohib	-8367
▁pursue	-8368
▁reluct	-8369
▁stroke	-8370
inkansen	-8371
▁defined	-8372
▁illegal	-8373
▁payment	-8374
▁pretend	-8375
▁revenue	-8376
▁seafood	-8377
▁shaking	-8378
▁tuition	-8379
vironment	-8380
▁shooting	-8381
▁allocated	-8382
▁fertility	-8383
▁religious	-8384
▁acceptable	-8385
▁expressing	-8386
▁invitation	-8387
▁Supercritical	-8388
-and	-8389
▁Fun	-8390
▁Rem	-8391
▁Sol	-8392
▁Whe	-8393
▁odd	-8394
ching	-8395
▁Cong	-8396
▁Know	-8397
▁Tele	-8398
▁mush	-8399
▁puts	-8400
▁rose	-8401
▁James	-8402
▁Super	-8403
▁fatig	-8404
▁flash	-8405
▁gloom	-8406
▁sells	-8407
▁yummy	-8408
▁assume	-8409
▁hotter	-8410
▁housew	-8411
▁ladies	-8412
▁picnic	-8413
▁smiles	-8414
▁strain	-8415
▁anticip	-8416
▁avoided	-8417
▁involve	-8418
▁nursery	-8419
▁readers	-8420
▁employed	-8421
▁tendency	-8422
▁Basically	-8423
▁Listening	-8424
▁committed	-8425
▁decreased	-8426
▁immediate	-8427
▁returning	-8428
▁translator	-8429
▁inconvenient	-8430
▁specifically	-8431
▁unforgettable	-8432
RC	-8433
TH	-8434
p/	-8435
ako	-8436
▁Fe	-8437
/doc	-8438
▁GIF	-8439
▁nin	-8440
agger	-8441
chest	-8442
eting	-8443
ormal	-8444
▁1996	-8445
▁Care	-8446
▁Mary	-8447
▁Phot	-8448
▁Plus	-8449
▁Rome	-8450
▁Sing	-8451
▁hole	-8452
▁knee	-8453
▁mode	-8454
▁pump	-8455
▁Holid	-8456
▁files	-8457
▁grows	-8458
▁wrest	-8459
amental	-8460
▁Modern	-8461
▁decade	-8462
▁dining	-8463
▁driven	-8464
▁merely	-8465
graduate	-8466
▁lacking	-8467
▁largely	-8468
▁Hospital	-8469
▁Engineers	-8470
▁apologize	-8471
▁incidents	-8472
▁spaghetti	-8473
▁accounting	-8474
▁complained	-8475
▁compulsory	-8476
▁authorities	-8477
▁Surprisingly	-8478
▁dramatically	-8479
▁surroundings	-8480
▁concentration	-8481
EP	-8482
In	-8483
-in	-8484
fly	-8485
lus	-8486
olf	-8487
▁NH	-8488
▁P.	-8489
.nus	-8490
iser	-8491
phan	-8492
▁Bal	-8493
▁GFR	-8494
▁Mem	-8495
▁Pac	-8496
▁Tri	-8497
▁Veg	-8498
▁spo	-8499
,2009	-8500
flies	-8501
▁Alex	-8502
▁Phys	-8503
▁carr	-8504
▁fake	-8505
▁pupp	-8506
▁Dream	-8507
▁Sushi	-8508
▁aston	-8509
▁china	-8510
▁doors	-8511
▁facil	-8512
▁flats	-8513
▁halls	-8514
▁holds	-8515
▁Master	-8516
▁chilly	-8517
▁cooled	-8518
▁idioms	-8519
▁rushed	-8520
▁Mexican	-8521
▁grocery	-8522
▁inspect	-8523
▁witness	-8524
▁belonged	-8525
▁bicycles	-8526
▁elevator	-8527
▁socially	-8528
▁supervis	-8529
▁Hollywood	-8530
▁long-term	-8531
▁Personally	-8532
▁confidential	-8533
▁intermediate	-8534
▁unemployment	-8535
39	-8536
don	-8537
uba	-8538
▁Ot	-8539
gant	-8540
illa	-8541
uing	-8542
▁150	-8543
▁wid	-8544
gical	-8545
isher	-8546
zuoka	-8547
▁Anna	-8548
▁Chic	-8549
▁Wall	-8550
▁isol	-8551
stract	-8552
▁abuse	-8553
agement	-8554
ashions	-8555
▁consec	-8556
▁emails	-8557
▁fought	-8558
▁twelve	-8559
▁urgent	-8560
▁Similar	-8561
▁learner	-8562
▁profits	-8563
▁silence	-8564
▁storage	-8565
▁viewing	-8566
▁Shizuoka	-8567
▁assigned	-8568
▁disabled	-8569
▁admission	-8570
▁Prefecture	-8571
▁exercising	-8572
▁resolution	-8573
ss	-8574
hin	-8575
ogi	-8576
▁'t	-8577
▁B.	-8578
▁Ham	-8579
▁NOT	-8580
▁Que	-8581
▁mac	-8582
pping	-8583
▁12th	-8584
▁Kant	-8585
▁sets	-8586
▁temp	-8587
allery	-8588
ethics	-8589
teries	-8590
▁Women	-8591
▁boots	-8592
▁forum	-8593
▁mosqu	-8594
through	-8595
ulating	-8596
▁Scient	-8597
▁Sweden	-8598
▁breaks	-8599
▁earned	-8600
▁formed	-8601
▁inject	-8602
▁minded	-8603
▁poison	-8604
▁pushed	-8605
▁gaining	-8606
▁highway	-8607
▁Medisave	-8608
▁channels	-8609
▁deterior	-8610
▁overwhel	-8611
▁enthusiasm	-8612
▁skunkworks	-8613
▁institutions	-8614
▁professionals	-8615
hal	-8616
▁H.	-8617
ahoo	-8618
heim	-8619
life	-8620
▁Adv	-8621
▁Cal	-8622
▁Tem	-8623
▁fal	-8624
about	-8625
oston	-8626
▁25th	-8627
▁Tour	-8628
▁buff	-8629
▁pose	-8630
▁thri	-8631
oshima	-8632
▁anger	-8633
▁candy	-8634
▁lasts	-8635
▁miles	-8636
▁postp	-8637
▁snowy	-8638
▁unfam	-8639
ensions	-8640
▁Nether	-8641
▁breast	-8642
▁danced	-8643
▁headed	-8644
▁random	-8645
▁reader	-8646
▁refers	-8647
▁reform	-8648
▁rivers	-8649
▁snowed	-8650
▁violin	-8651
▁species	-8652
▁virtual	-8653
▁calories	-8654
▁presence	-8655
▁cigarette	-8656
▁highlight	-8657
▁reduction	-8658
▁fascinated	-8659
▁immigrants	-8660
▁networking	-8661
▁opposition	-8662
▁comfortably	-8663
▁differently	-8664
▁misunderstand	-8665
/inf	-8666
High	-8667
▁Ben	-8668
▁Law	-8669
▁Mag	-8670
▁fry	-8671
▁lit	-8672
▁mer	-8673
▁rot	-8674
akami	-8675
▁Ever	-8676
▁Play	-8677
▁grat	-8678
▁mixi	-8679
▁penc	-8680
▁seas	-8681
▁sole	-8682
.co.uk	-8683
itudes	-8684
▁Innov	-8685
▁dizzy	-8686
▁honor	-8687
▁kinda	-8688
▁moder	-8689
▁limits	-8690
▁scored	-8691
entially	-8692
ologists	-8693
▁General	-8694
▁Profess	-8695
▁closely	-8696
▁discipl	-8697
▁farmers	-8698
▁offices	-8699
▁resolve	-8700
▁arrested	-8701
▁networks	-8702
▁starring	-8703
▁Opponents	-8704
▁previously	-8705
▁unfamiliar	-8706
-temperature	-8707
▁complaining	-8708
1/	-8709
DS	-8710
RT	-8711
aby	-8712
aru	-8713
oop	-8714
▁Bi	-8715
▁Iz	-8716
▁tv	-8717
made	-8718
▁Boy	-8719
▁Ins	-8720
▁Jes	-8721
▁Jul	-8722
▁Lin	-8723
▁fra	-8724
▁nav	-8725
oyaki	-8726
▁Self	-8727
▁bean	-8728
▁guid	-8729
▁zero	-8730
atient	-8731
▁camps	-8732
▁draft	-8733
▁guard	-8734
▁allerg	-8735
▁gloomy	-8736
▁heater	-8737
▁petrol	-8738
▁forgive	-8739
▁funeral	-8740
▁relieve	-8741
▁creation	-8742
▁detailed	-8743
▁quantity	-8744
▁violence	-8745
▁discrimin	-8746
▁necessity	-8747
▁limitation	-8748
▁mechanical	-8749
▁tremendous	-8750
▁consecutive	-8751
▁investments	-8752
▁reservation	-8753
27	-8754
-re	-8755
AIN	-8756
zes	-8757
race	-8758
▁Def	-8759
▁ESL	-8760
▁Exc	-8761
▁Too	-8762
▁ine	-8763
▁tan	-8764
range	-8765
▁2050	-8766
▁Moon	-8767
▁Shib	-8768
▁Snow	-8769
▁Sure	-8770
▁Tell	-8771
▁Vict	-8772
▁cups	-8773
▁fuck	-8774
▁idol	-8775
▁plus	-8776
▁vote	-8777
▁assum	-8778
▁onion	-8779
▁roles	-8780
▁sheep	-8781
▁swine	-8782
▁'cause	-8783
▁appeal	-8784
▁brands	-8785
▁confir	-8786
▁pupils	-8787
▁jumping	-8788
▁planted	-8789
▁prototy	-8790
▁disposal	-8791
▁fashions	-8792
▁//www.gen	-8793
▁Francisco	-8794
▁nutrition	-8795
▁permission	-8796
▁strengthen	-8797
▁accidentally	-8798
34	-8799
64	-8800
yu	-8801
ANT	-8802
iri	-8803
▁Ev	-8804
▁NZ	-8805
▁Ta	-8806
▁ta	-8807
0000	-8808
atto	-8809
hard	-8810
▁Nov	-8811
▁Sch	-8812
▁Try	-8813
▁pad	-8814
▁pil	-8815
.net/	-8816
rific	-8817
▁Cost	-8818
▁Rest	-8819
▁eats	-8820
▁intr	-8821
▁mart	-8822
▁neut	-8823
▁para	-8824
▁slim	-8825
▁Youth	-8826
▁cloth	-8827
▁crops	-8828
▁fairy	-8829
▁negot	-8830
▁snack	-8831
ocratic	-8832
▁Argent	-8833
▁Boston	-8834
▁define	-8835
▁eldest	-8836
▁serves	-8837
▁stream	-8838
▁submit	-8839
/nuclear	-8840
▁Elderly	-8841
▁beaches	-8842
▁records	-8843
▁Economic	-8844
▁Whatever	-8845
▁admitted	-8846
▁barbecue	-8847
▁collapse	-8848
▁concrete	-8849
▁external	-8850
▁greeting	-8851
▁proposal	-8852
▁reserved	-8853
▁Melbourne	-8854
▁collected	-8855
▁positions	-8856
▁requested	-8857
▁upgrading	-8858
▁accessible	-8859
▁operations	-8860
▁//www.world	-8861
IA	-8862
hh	-8863
aho	-8864
ipe	-8865
▁DS	-8866
2008	-8867
ibly	-8868
rise	-8869
▁Kat	-8870
▁Las	-8871
▁Mot	-8872
▁Squ	-8873
▁alt	-8874
▁flo	-8875
▁Land	-8876
▁Step	-8877
▁junk	-8878
▁noun	-8879
▁soil	-8880
▁unst	-8881
▁worn	-8882
▁Group	-8883
▁races	-8884
▁convey	-8885
▁dating	-8886
▁liquid	-8887
▁sexual	-8888
▁tattoo	-8889
requency	-8890
▁Chicago	-8891
▁absence	-8892
▁costume	-8893
▁emotion	-8894
▁quarrel	-8895
▁railway	-8896
▁regions	-8897
▁exposure	-8898
▁obtained	-8899
▁portable	-8900
▁thorough	-8901
▁constrain	-8902
▁exception	-8903
▁guarantee	-8904
▁irritated	-8905
▁preferred	-8906
▁influences	-8907
▁prevention	-8908
.nus.edu.sg/	-8909
▁celebration	-8910
▁fundamental	-8911
▁substantial	-8912
▁broadcasting	-8913
LO	-8914
OK	-8915
-st	-8916
aro	-8917
met	-8918
pot	-8919
rob	-8920
▁Gi	-8921
▁Hu	-8922
/pdf	-8923
eric	-8924
mate	-8925
▁Has	-8926
▁Lou	-8927
.com.	-8928
aning	-8929
azaki	-8930
child	-8931
illed	-8932
rends	-8933
▁acts	-8934
▁bass	-8935
▁lets	-8936
▁poet	-8937
▁tiss	-8938
habara	-8939
iances	-8940
l.gov/	-8941
▁Very-	-8942
▁cruel	-8943
▁mates	-8944
▁needy	-8945
▁runny	-8946
▁solid	-8947
▁Little	-8948
▁Nagano	-8949
▁ballet	-8950
▁cancel	-8951
▁chores	-8952
▁injury	-8953
▁priced	-8954
▁produc	-8955
▁Station	-8956
▁Univers	-8957
▁centres	-8958
▁educate	-8959
▁observe	-8960
▁Murakami	-8961
▁actively	-8962
▁blooming	-8963
▁internal	-8964
▁relation	-8965
▁survival	-8966
▁Akihabara	-8967
▁Obviously	-8968
▁miserable	-8969
▁predicted	-8970
▁qualified	-8971
▁translating	-8972
▁disadvantage	-8973
/4	-8974
ira	-8975
off	-8976
uka	-8977
▁xD	-8978
achi	-8979
asty	-8980
enza	-8981
ials	-8982
ilst	-8983
▁Cap	-8984
lines	-8985
osity	-8986
▁16th	-8987
▁17th	-8988
▁Cast	-8989
▁adap	-8990
▁fool	-8991
▁mask	-8992
▁www.	-8993
▁bless	-8994
ologies	-8995
ruption	-8996
▁medium	-8997
▁remote	-8998
▁server	-8999
▁critics	-9000
▁islands	-9001
▁tragedy	-9002
.org/info	-9003
▁deciding	-9004
▁Friedland	-9005
▁Sincerely	-9006
▁protected	-9007
▁reactions	-9008
▁Laboratory	-9009
▁indirectly	-9010
▁requesting	-9011
▁structures	-9012
▁description	-9013
▁contributing	-9014
UC	-9015
ea	-9016
edy	-9017
lib	-9018
oub	-9019
▁38	-9020
▁75	-9021
ania	-9022
gard	-9023
uous	-9024
▁DNA	-9025
iable	-9026
ician	-9027
inger	-9028
▁Pass	-9029
▁itch	-9030
▁sequ	-9031
bridge	-9032
iverse	-9033
▁Guang	-9034
▁acted	-9035
▁frame	-9036
▁lifts	-9037
▁recon	-9038
▁seeds	-9039
chestra	-9040
▁contem	-9041
▁divers	-9042
▁excite	-9043
▁underw	-9044
ographer	-9045
▁African	-9046
▁Beatles	-9047
▁adverse	-9048
onomiyaki	-9049
▁catching	-9050
▁enhanced	-9051
▁supports	-9052
▁suprised	-9053
▁ancestors	-9054
▁attitudes	-9055
▁contained	-9056
▁literally	-9057
▁transform	-9058
▁artificial	-9059
▁foundation	-9060
▁Netherlands	-9061
▁Nonetheless	-9062
▁effectiveness	-9063
AB	-9064
▁32	-9065
▁Iw	-9066
▁Ko	-9067
▁T.	-9068
atab	-9069
cake	-9070
▁Ber	-9071
▁Eth	-9072
▁abn	-9073
eches	-9074
▁Girl	-9075
▁Give	-9076
▁Oper	-9077
.shtml	-9078
energy	-9079
ishing	-9080
▁Latin	-9081
▁saves	-9082
intendo	-9083
▁Travel	-9084
▁desert	-9085
▁extend	-9086
▁loving	-9087
hibition	-9088
▁Frankly	-9089
▁Karaoke	-9090
▁Privacy	-9091
▁colours	-9092
▁enterpr	-9093
▁evident	-9094
▁fission	-9095
▁tension	-9096
▁bothered	-9097
▁entirely	-9098
▁invested	-9099
▁offering	-9100
▁organise	-9101
▁remained	-9102
▁wireless	-9103
▁graduates	-9104
▁intellect	-9105
▁principal	-9106
▁complaints	-9107
▁discussing	-9108
▁outstanding	-9109
▁participating	-9110
▁representative	-9111
.e	-9112
EM	-9113
cm	-9114
no	-9115
eno	-9116
▁Ji	-9117
lers	-9118
▁8th	-9119
▁BUT	-9120
▁syn	-9121
▁00pm	-9122
▁Haha	-9123
▁Mats	-9124
▁boil	-9125
▁fold	-9126
▁lugg	-9127
▁plum	-9128
▁Ident	-9129
▁Ramen	-9130
▁Union	-9131
▁coins	-9132
▁gover	-9133
▁moves	-9134
▁Employ	-9135
▁Office	-9136
▁banana	-9137
▁handed	-9138
▁retail	-9139
▁retain	-9140
▁stones	-9141
▁uneasy	-9142
▁waking	-9143
▁heading	-9144
▁recycle	-9145
▁Computer	-9146
▁directed	-9147
▁employer	-9148
▁displayed	-9149
▁exchanged	-9150
▁inherited	-9151
▁respected	-9152
▁withstand	-9153
▁aggressive	-9154
▁appliances	-9155
▁optimistic	-9156
▁embarrassing	-9157
▁surprisingly	-9158
-0	-9159
DF	-9160
jo	-9161
ui	-9162
OOD	-9163
bar	-9164
udi	-9165
▁IM	-9166
crib	-9167
iner	-9168
lept	-9169
utch	-9170
▁Hmm	-9171
▁gos	-9172
▁jet	-9173
▁nic	-9174
ander	-9175
herry	-9176
zheim	-9177
▁SWCR	-9178
▁Tina	-9179
▁bite	-9180
▁slic	-9181
ilight	-9182
ousing	-9183
▁Busan	-9184
▁Death	-9185
▁Manga	-9186
▁Steve	-9187
▁roast	-9188
▁Doctor	-9189
▁balcon	-9190
▁bullet	-9191
▁luxury	-9192
▁pepper	-9193
▁plates	-9194
ortunate	-9195
▁balloon	-9196
▁boiling	-9197
▁compens	-9198
▁endless	-9199
▁examine	-9200
▁extract	-9201
▁fastest	-9202
▁grammer	-9203
▁guessed	-9204
▁hardest	-9205
▁Thinking	-9206
▁carriers	-9207
▁distract	-9208
▁extended	-9209
▁recovery	-9210
▁worthwhile	-9211
▁celebrities	-9212
▁constructed	-9213
▁requirement	-9214
▁//www.nature	-9215
▁considerable	-9216
UL	-9217
▁£	-9218
.15	-9219
cal	-9220
raw	-9221
itam	-9222
onel	-9223
with	-9224
▁Nic	-9225
▁Tru	-9226
akaya	-9227
▁5000	-9228
▁Lady	-9229
▁Supp	-9230
▁bone	-9231
▁cabb	-9232
▁didn	-9233
▁yard	-9234
irable	-9235
portal	-9236
▁entit	-9237
▁fancy	-9238
▁landl	-9239
▁niece	-9240
▁verbs	-9241
ations/	-9242
hington	-9243
itution	-9244
▁//news	-9245
▁Canton	-9246
▁Centre	-9247
▁Scheme	-9248
▁Wonder	-9249
▁adding	-9250
▁legend	-9251
▁makeup	-9252
▁orders	-9253
▁perman	-9254
▁powder	-9255
▁slower	-9256
▁Whether	-9257
▁abandon	-9258
▁biology	-9259
▁implant	-9260
▁serving	-9261
▁unlucky	-9262
▁humidity	-9263
▁managing	-9264
▁Similarly	-9265
▁scientist	-9266
▁similarities	-9267
la	-9268
▁700	-9269
▁9th	-9270
▁Tex	-9271
▁bun	-9272
being	-9273
cript	-9274
ermel	-9275
orpor	-9276
uated	-9277
▁19th	-9278
▁Lake	-9279
▁Lead	-9280
▁hors	-9281
▁libr	-9282
▁perf	-9283
▁unit	-9284
▁Again	-9285
▁Beaut	-9286
▁Kanji	-9287
▁meets	-9288
▁Around	-9289
▁garlic	-9290
ilingual	-9291
▁Shibuya	-9292
▁seeking	-9293
▁division	-9294
▁upcoming	-9295
▁creatures	-9296
▁frequency	-9297
▁uncertain	-9298
ater-cooled	-9299
▁candidates	-9300
▁programmer	-9301
▁association	-9302
▁experiencing	-9303
OD	-9304
ua	-9305
ava	-9306
▁A.	-9307
gage	-9308
inci	-9309
lets	-9310
omes	-9311
vard	-9312
word	-9313
▁Bur	-9314
▁Int	-9315
▁NBA	-9316
▁NHK	-9317
▁Son	-9318
▁sne	-9319
▁wha	-9320
eness	-9321
hetic	-9322
pects	-9323
▁3000	-9324
▁Coun	-9325
▁Food	-9326
▁Real	-9327
▁ipod	-9328
▁tank	-9329
rifice	-9330
unning	-9331
▁Pract	-9332
▁alert	-9333
▁inner	-9334
▁skate	-9335
▁vivid	-9336
related	-9337
reprene	-9338
▁enrich	-9339
▁planes	-9340
▁pounds	-9341
▁summar	-9342
▁Certain	-9343
▁aftersh	-9344
▁fatigue	-9345
▁luckily	-9346
▁victory	-9347
▁arriving	-9348
▁charming	-9349
▁honestly	-9350
▁sacrifice	-9351
▁probability	-9352
▁conditioning	-9353
▁implications	-9354
.3	-9355
ST	-9356
ye	-9357
-up	-9358
:00	-9359
cut	-9360
omy	-9361
▁ni	-9362
amps	-9363
blog	-9364
comm	-9365
ties	-9366
uese	-9367
▁Kag	-9368
▁gig	-9369
atisf	-9370
eless	-9371
proxy	-9372
▁Norr	-9373
▁Shim	-9374
▁dipl	-9375
▁evac	-9376
▁hehe	-9377
astern	-9378
▁Study	-9379
▁bonus	-9380
▁cafes	-9381
▁kanji	-9382
▁maker	-9383
▁paste	-9384
▁ratio	-9385
▁reads	-9386
▁stiff	-9387
▁Avatar	-9388
▁Sodium	-9389
▁decent	-9390
▁genius	-9391
▁hybrid	-9392
▁smells	-9393
ifferent	-9394
▁arrival	-9395
▁gadgets	-9396
▁luggage	-9397
▁thanked	-9398
▁Kamakura	-9399
▁Needless	-9400
▁evaluate	-9401
▁polluted	-9402
.org/wiki/	-9403
▁excessive	-9404
▁vacations	-9405
▁represents	-9406
▁Environment	-9407
▁achievement	-9408
▁necessarily	-9409
▁dictionaries	-9410
▁contributions	-9411
18	-9412
A.	-9413
do	-9414
fm	-9415
yn	-9416
iel	-9417
lls	-9418
mor	-9419
▁34	-9420
▁Ur	-9421
opes	-9422
pack	-9423
year	-9424
▁CEO	-9425
▁Nik	-9426
▁Sad	-9427
▁Vis	-9428
▁dim	-9429
▁soo	-9430
amboo	-9431
overs	-9432
pered	-9433
▁1980	-9434
▁Note	-9435
▁bond	-9436
▁crew	-9437
▁curi	-9438
▁peak	-9439
▁peop	-9440
▁skip	-9441
▁tire	-9442
▁tofu	-9443
proxy1	-9444
▁Years	-9445
▁allev	-9446
▁fatal	-9447
▁harsh	-9448
▁messy	-9449
▁attrib	-9450
▁differ	-9451
▁strike	-9452
aneously	-9453
▁Earthqu	-9454
▁Process	-9455
▁alright	-9456
▁authors	-9457
▁balcony	-9458
▁figured	-9459
▁objects	-9460
libproxy1	-9461
▁Accident	-9462
▁handling	-9463
▁beginners	-9464
▁overnight	-9465
▁shoulders	-9466
▁Exhibition	-9467
▁researched	-9468
▁resistance	-9469
▁announcement	-9470
3-	-9471
75	-9472
ja	-9473
The	-9474
has	-9475
rer	-9476
ria	-9477
.org	-9478
case	-9479
ento	-9480
orus	-9481
▁foo	-9482
▁jew	-9483
cknow	-9484
eding	-9485
plant	-9486
umber	-9487
▁1997	-9488
▁Yoga	-9489
▁keys	-9490
▁nuts	-9491
▁sumo	-9492
apping	-9493
owered	-9494
▁Gramm	-9495
▁Jesus	-9496
▁Kanto	-9497
▁burst	-9498
▁fired	-9499
▁inert	-9500
▁prone	-9501
▁sings	-9502
▁Father	-9503
▁Haruki	-9504
▁Victor	-9505
▁attach	-9506
▁endure	-9507
▁ghosts	-9508
▁lesser	-9509
▁logged	-9510
▁partly	-9511
▁Alzheim	-9512
▁Talking	-9513
▁bowling	-9514
▁breathe	-9515
▁ceiling	-9516
▁charged	-9517
▁checkup	-9518
▁closing	-9519
▁dangers	-9520
▁granted	-9521
▁spirits	-9522
▁Nintendo	-9523
▁Norrgard	-9524
▁stomacha	-9525
▁agreement	-9526
▁commuting	-9527
▁dedicated	-9528
▁spreading	-9529
▁frightened	-9530
▁memorizing	-9531
▁passionate	-9532
▁researches	-9533
▁disappointment	-9534
7/	-9535
lly	-9536
rat	-9537
▁AC	-9538
▁W.	-9539
oyal	-9540
▁Dad	-9541
▁Ent	-9542
▁Gin	-9543
▁Top	-9544
▁Wii	-9545
▁tie	-9546
iance	-9547
istan	-9548
▁Jazz	-9549
▁Norm	-9550
▁gamb	-9551
▁pond	-9552
▁reun	-9553
▁root	-9554
▁tone	-9555
▁Clark	-9556
▁Games	-9557
▁Vegas	-9558
▁grave	-9559
▁groom	-9560
▁plain	-9561
▁steal	-9562
▁vocal	-9563
▁waist	-9564
▁wears	-9565
▁Madrid	-9566
▁burned	-9567
▁denied	-9568
▁fellow	-9569
▁plural	-9570
▁pollen	-9571
▁Android	-9572
▁exagger	-9573
▁persist	-9574
▁proverb	-9575
▁violent	-9576
▁combined	-9577
▁diligent	-9578
▁graphite	-9579
▁injuries	-9580
▁surgical	-9581
▁teenager	-9582
▁candidate	-9583
▁curiosity	-9584
▁Portuguese	-9585
▁attraction	-9586
▁excitement	-9587
▁supervisor	-9588
▁certificate	-9589
▁investigation	-9590
▁qualification	-9591
BC	-9592
IB	-9593
Id	-9594
asa	-9595
bet	-9596
▁PE	-9597
▁ga	-9598
agon	-9599
aura	-9600
rome	-9601
▁CET	-9602
▁Hal	-9603
▁dur	-9604
▁bact	-9605
▁vent	-9606
actory	-9607
search	-9608
uccess	-9609
▁Yamag	-9610
▁ought	-9611
▁tempt	-9612
▁covers	-9613
▁estate	-9614
▁prompt	-9615
ioethics	-9616
▁airline	-9617
▁charity	-9618
▁cherish	-9619
▁fantasy	-9620
▁letting	-9621
▁organic	-9622
▁picking	-9623
astically	-9624
▁Buddhist	-9625
▁Miyazaki	-9626
▁believes	-9627
▁interior	-9628
▁managers	-9629
▁motivate	-9630
▁observed	-9631
▁situated	-9632
▁suggests	-9633
▁throwing	-9634
▁watermel	-9635
▁cancelled	-9636
▁decorated	-9637
▁desperate	-9638
▁motorbike	-9639
▁regretted	-9640
▁collecting	-9641
▁entreprene	-9642
▁explaining	-9643
▁forgetting	-9644
▁hairstyles	-9645
▁proficiency	-9646
&s	-9647
-M	-9648
36	-9649
-de	-9650
.00	-9651
bus	-9652
des	-9653
ios	-9654
ths	-9655
▁WW	-9656
▁ow	-9657
ales	-9658
arts	-9659
ette	-9660
ults	-9661
▁Ire	-9662
▁Jon	-9663
▁Lim	-9664
▁Pan	-9665
▁Wat	-9666
▁dol	-9667
▁lou	-9668
▁oct	-9669
▁yog	-9670
worth	-9671
▁Bill	-9672
▁heal	-9673
▁lock	-9674
▁sunb	-9675
ansion	-9676
parent	-9677
redict	-9678
▁Hotel	-9679
▁Idaho	-9680
▁bikes	-9681
▁enemy	-9682
▁korea	-9683
▁pride	-9684
▁roses	-9685
▁skirt	-9686
▁socks	-9687
▁Making	-9688
▁apples	-9689
▁deeper	-9690
entation	-9691
▁//www.e	-9692
▁Channel	-9693
▁Manager	-9694
▁artwork	-9695
▁cabbage	-9696
▁diverse	-9697
▁dresses	-9698
▁ensures	-9699
▁foolish	-9700
▁markets	-9701
▁Filipino	-9702
▁magnific	-9703
▁occasion	-9704
▁waitress	-9705
▁Alzheimer	-9706
▁batteries	-9707
▁dumplings	-9708
▁gratitude	-9709
▁overslept	-9710
▁promoting	-9711
▁automobile	-9712
▁downloaded	-9713
▁processing	-9714
▁refreshing	-9715
▁appreciation	-9716
▁respectively	-9717
▁recommendation	-9718
89	-9719
UK	-9720
ao	-9721
ILL	-9722
ena	-9723
iya	-9724
ser	-9725
ste	-9726
▁BT	-9727
▁Ox	-9728
▁SM	-9729
▁ho	-9730
-of-	-9731
burg	-9732
inos	-9733
ongi	-9734
oser	-9735
pass	-9736
▁Los	-9737
▁Nob	-9738
▁Pri	-9739
etime	-9740
tical	-9741
▁Gree	-9742
▁Ueno	-9743
▁corn	-9744
▁slee	-9745
▁vibr	-9746
ilding	-9747
ustion	-9748
▁Birth	-9749
▁Space	-9750
▁Trave	-9751
▁chief	-9752
▁explo	-9753
▁false	-9754
▁stays	-9755
working	-9756
▁Cherry	-9757
▁Sakura	-9758
▁Things	-9759
▁divert	-9760
▁eleven	-9761
▁enroll	-9762
▁google	-9763
▁manual	-9764
▁Getting	-9765
▁Housing	-9766
▁centers	-9767
▁consume	-9768
▁easiest	-9769
▁encount	-9770
▁equally	-9771
▁expense	-9772
▁implies	-9773
▁longest	-9774
▁recipes	-9775
▁costumes	-9776
▁criteria	-9777
▁entitled	-9778
▁frequent	-9779
▁moreover	-9780
▁resolved	-9781
▁sunlight	-9782
▁comparing	-9783
▁reluctant	-9784
▁capability	-9785
▁restricted	-9786
▁stomachache	-9787
rt	-9788
eks	-9789
ker	-9790
lee	-9791
war	-9792
▁37	-9793
▁MC	-9794
▁Om	-9795
alds	-9796
elly	-9797
ille	-9798
usan	-9799
▁Dou	-9800
▁Ice	-9801
▁Jim	-9802
agana	-9803
▁THIS	-9804
▁dare	-9805
▁mate	-9806
▁ward	-9807
▁Lang8	-9808
▁dolph	-9809
▁hates	-9810
▁timet	-9811
essions	-9812
▁Molten	-9813
▁Others	-9814
▁Policy	-9815
▁acknow	-9816
▁border	-9817
▁curric	-9818
▁floors	-9819
▁hazard	-9820
▁hostel	-9821
▁interf	-9822
▁nurses	-9823
▁sorrow	-9824
▁whilst	-9825
▁Holiday	-9826
▁Nations	-9827
▁Service	-9828
▁engines	-9829
▁travels	-9830
▁balanced	-9831
▁explains	-9832
▁freezing	-9833
▁laziness	-9834
▁promoted	-9835
▁sections	-9836
▁breathing	-9837
▁confirmed	-9838
▁distances	-9839
▁hesitated	-9840
▁indicates	-9841
▁investors	-9842
▁occasions	-9843
▁recording	-9844
▁talkative	-9845
▁apartments	-9846
▁disgusting	-9847
▁positively	-9848
▁protecting	-9849
ublications/	-9850
▁Governments	-9851
▁interviewed	-9852
▁unfortunate	-9853
▁breakthrough	-9854
.0	-9855
32	-9856
FC	-9857
-te	-9858
.cn	-9859
/re	-9860
ERY	-9861
ISH	-9862
aza	-9863
ller	-9864
oded	-9865
ogen	-9866
test	-9867
ulty	-9868
▁Mix	-9869
▁Nak	-9870
▁Use	-9871
asion	-9872
icket	-9873
▁1995	-9874
▁Blue	-9875
▁Open	-9876
▁Sait	-9877
▁Thom	-9878
▁buck	-9879
▁forb	-9880
▁scan	-9881
▁spin	-9882
▁yeah	-9883
erving	-9884
▁Laura	-9885
▁coinc	-9886
▁datab	-9887
▁depri	-9888
▁opens	-9889
▁parad	-9890
▁split	-9891
▁swing	-9892
▁toast	-9893
▁vitam	-9894
berries	-9895
▁George	-9896
▁fishes	-9897
▁lively	-9898
▁lowest	-9899
▁motion	-9900
▁signal	-9901
▁stored	-9902
▁tables	-9903
▁temper	-9904
outheast	-9905
▁blowing	-9906
abilities	-9907
▁Security	-9908
▁aircraft	-9909
▁athletes	-9910
▁distinct	-9911
▁graphics	-9912
▁lecturer	-9913
▁outdoors	-9914
▁patterns	-9915
▁Cambridge	-9916
▁interpret	-9917
▁qualities	-9918
▁religions	-9919
▁Shinkansen	-9920
▁assessment	-9921
▁playground	-9922
▁remarkable	-9923
▁contributes	-9924
▁discussions	-9925
▁encountered	-9926
▁interaction	-9927
▁replacement	-9928
▁distribution	-9929
95	-9930
sk	-9931
OULD	-9932
ares	-9933
ario	-9934
engu	-9935
gans	-9936
rian	-9937
udon	-9938
ulum	-9939
▁Ban	-9940
▁Bul	-9941
▁Fed	-9942
▁Hir	-9943
▁Max	-9944
▁ton	-9945
atell	-9946
igata	-9947
▁coin	-9948
▁frag	-9949
▁laid	-9950
▁sees	-9951
▁Based	-9952
▁Bible	-9953
▁Maria	-9954
▁cafet	-9955
▁dates	-9956
▁dilem	-9957
▁illum	-9958
▁joint	-9959
▁shelf	-9960
▁subur	-9961
▁tweet	-9962
▁Easter	-9963
▁Indust	-9964
▁assert	-9965
▁attain	-9966
▁cultiv	-9967
▁duties	-9968
▁outlet	-9969
▁sights	-9970
▁Critics	-9971
▁cheered	-9972
▁counsel	-9973
▁environ	-9974
▁monster	-9975
▁occured	-9976
▁peoples	-9977
▁sandwic	-9978
▁stuffed	-9979
▁cheapest	-9980
▁discoura	-9981
▁infected	-9982
▁mobility	-9983
▁opponent	-9984
▁criticism	-9985
▁declining	-9986
▁eliminate	-9987
▁mechanism	-9988
▁viewpoint	-9989
▁leadership	-9990
▁communities	-9991
▁inspiration	-9992
▁magnificent	-9993
▁alternatives	-9994
▁photographer	-9995
▁Communication	-9996
/h	-9997
CO	-9998
iti	-9999
▁N.	-10000
have	-10001
igan	-10002
▁Ari	-10003
▁CO2	-10004
▁Det	-10005
▁Kaz	-10006
▁Men	-10007
▁NYC	-10008
▁emp	-10009
▁gam	-10010
▁pir	-10011
-and-	-10012
▁00am	-10013
▁29th	-10014
▁Cold	-10015
▁Ropp	-10016
▁Sony	-10017
▁Wood	-10018
▁diab	-10019
▁evol	-10020
▁flag	-10021
▁mixt	-10022
▁wins	-10023
iences	-10024
itably	-10025
school	-10026
▁dynam	-10027
▁newly	-10028
▁withd	-10029
▁yield	-10030
healthy	-10031
▁Miyagi	-10032
▁bamboo	-10033
▁blocks	-10034
▁crowds	-10035
▁export	-10036
▁fairly	-10037
▁horses	-10038
▁killer	-10039
▁listed	-10040
▁melody	-10041
▁namely	-10042
▁spaces	-10043
▁tempor	-10044
▁Challen	-10045
▁amongst	-10046
▁baggage	-10047
▁conserv	-10048
▁cousins	-10049
▁decides	-10050
▁heating	-10051
▁martial	-10052
▁minimal	-10053
▁updated	-10054
▁watches	-10055
▁abnormal	-10056
▁accompan	-10057
▁backpack	-10058
▁deserves	-10059
▁extraord	-10060
▁incorpor	-10061
▁rejected	-10062
▁sandwich	-10063
▁unstable	-10064
▁Brazilian	-10065
▁administr	-10066
▁departure	-10067
▁extensive	-10068
▁hairstyle	-10069
▁medicines	-10070
▁memorable	-10071
▁orchestra	-10072
▁travelled	-10073
▁hamburgers	-10074
▁properties	-10075
-Temperature	-10076
▁broadcasted	-10077
▁reliability	-10078
▁unconscious	-10079
▁entertaining	-10080
▁independence	-10081
▁administration	-10082
.4	-10083
35	-10084
6/	-10085
M.	-10086
▁|	-10087
EAR	-10088
can	-10089
not	-10090
▁NT	-10091
▁ll	-10092
aste	-10093
hell	-10094
keys	-10095
▁Gal	-10096
▁Hum	-10097
▁der	-10098
News/	-10099
elove	-10100
ycled	-10101
▁24th	-10102
▁Ball	-10103
▁Conc	-10104
▁Hang	-10105
▁chip	-10106
▁tail	-10107
▁tied	-10108
▁tube	-10109
erican	-10110
tering	-10111
▁20.15	-10112
▁Story	-10113
▁eased	-10114
▁panic	-10115
▁poems	-10116
▁postc	-10117
▁stall	-10118
▁therm	-10119
itional	-10120
product	-10121
▁Greece	-10122
▁Review	-10123
▁Speech	-10124
▁french	-10125
▁linked	-10126
▁marvel	-10127
▁soaked	-10128
▁welcom	-10129
ffective	-10130
▁Denmark	-10131
▁Problem	-10132
▁Saitama	-10133
▁intense	-10134
▁lighter	-10135
▁praised	-10136
▁childish	-10137
▁colleges	-10138
▁heritage	-10139
▁requests	-10140
▁Argentina	-10141
▁cafeteria	-10142
▁cooperate	-10143
▁detection	-10144
▁diagnosed	-10145
▁implanted	-10146
▁purchased	-10147
▁Travelling	-10148
▁reasonably	-10149
▁documentary	-10150
▁inexpensive	-10151
▁achievements	-10152
▁environments	-10153
▁explanations	-10154
▁conversational	-10155
▁recommendations	-10156
-h	-10157
.8	-10158
rad	-10159
uli	-10160
▁EX	-10161
▁Od	-10162
clip	-10163
keep	-10164
prop	-10165
▁Hen	-10166
▁ONE	-10167
▁bak	-10168
▁bom	-10169
▁cro	-10170
▁gum	-10171
▁mud	-10172
▁ric	-10173
▁tak	-10174
alley	-10175
etary	-10176
lings	-10177
▁Foot	-10178
▁GOOD	-10179
▁Rose	-10180
▁Turk	-10181
▁VERY	-10182
▁nost	-10183
▁quiz	-10184
▁sexy	-10185
▁sour	-10186
▁tuna	-10187
▁vine	-10188
antern	-10189
ceived	-10190
giving	-10191
▁Money	-10192
▁Queen	-10193
▁Roman	-10194
▁frank	-10195
▁giant	-10196
▁horiz	-10197
▁itchy	-10198
▁lang8	-10199
▁recie	-10200
▁slipp	-10201
▁trail	-10202
achelor	-10203
▁Atomic	-10204
▁Origin	-10205
▁Square	-10206
▁doubts	-10207
▁lenses	-10208
▁revise	-10209
▁steady	-10210
▁tender	-10211
▁wooden	-10212
▁yogurt	-10213
▁Pacific	-10214
▁hearted	-10215
▁miracle	-10216
▁powered	-10217
▁utilize	-10218
▁Roppongi	-10219
▁Truelove	-10220
▁collabor	-10221
▁prevents	-10222
▁Cantonese	-10223
▁automatic	-10224
▁influenza	-10225
▁mandatory	-10226
▁Washington	-10227
▁intellectual	-10228
31	-10229
IP	-10230
jud	-10231
pub	-10232
uum	-10233
▁Mi	-10234
leum	-10235
ouch	-10236
unes	-10237
▁195	-10238
▁Bad	-10239
▁Edo	-10240
▁Hig	-10241
▁yak	-10242
amoto	-10243
celer	-10244
icine	-10245
males	-10246
orous	-10247
▁Chem	-10248
▁Inte	-10249
▁butt	-10250
▁mild	-10251
▁murd	-10252
▁zone	-10253
aching	-10254
▁Claus	-10255
▁Dutch	-10256
▁conqu	-10257
▁craft	-10258
▁deter	-10259
▁dough	-10260
▁monit	-10261
▁opera	-10262
▁valid	-10263
▁walks	-10264
▁weigh	-10265
-4.org/	-10266
▁Cancer	-10267
▁Coming	-10268
▁Toyota	-10269
▁ranked	-10270
▁shadow	-10271
▁sunday	-10272
▁volunt	-10273
▁Harvard	-10274
▁Typhoon	-10275
▁crashed	-10276
▁females	-10277
▁forests	-10278
▁reserve	-10279
▁shelter	-10280
▁smokers	-10281
▁therapy	-10282
▁Kanagawa	-10283
▁abundant	-10284
▁gambling	-10285
▁operates	-10286
▁overlook	-10287
▁troubled	-10288
▁writting	-10289
▁consuming	-10290
▁luxurious	-10291
▁practices	-10292
▁selection	-10293
▁unhealthy	-10294
▁Disneyland	-10295
▁identified	-10296
▁incredibly	-10297
▁repeatedly	-10298
▁strawberry	-10299
▁accessories	-10300
▁destruction	-10301
▁meaningless	-10302
▁refrigerators	-10303
48	-10304
66	-10305
OC	-10306
YS	-10307
ITH	-10308
yer	-10309
anas	-10310
etch	-10311
oved	-10312
rait	-10313
rics	-10314
▁pud	-10315
▁Five	-10316
▁Less	-10317
▁Mich	-10318
▁carp	-10319
▁lens	-10320
▁Above	-10321
▁Break	-10322
▁Texas	-10323
▁bench	-10324
▁lingu	-10325
▁lonel	-10326
▁preca	-10327
▁sixth	-10328
▁stere	-10329
ctional	-10330
▁Concer	-10331
▁astron	-10332
▁ginger	-10333
▁Special	-10334
▁Straits	-10335
▁defence	-10336
▁printer	-10337
▁skipped	-10338
▁weekday	-10339
▁conflict	-10340
▁disclose	-10341
▁shouting	-10342
▁supplies	-10343
▁universe	-10344
▁contacted	-10345
▁societies	-10346
▁categories	-10347
▁traditions	-10348
.com/article	-10349
▁celebrating	-10350
▁residential	-10351
▁instructions	-10352
▁intelligence	-10353
high-temperature	-10354
.m	-10355
77	-10356
TA	-10357
izu	-10358
jin	-10359
▁TR	-10360
▁fo	-10361
hara	-10362
ints	-10363
jima	-10364
rael	-10365
semb	-10366
viet	-10367
▁Bob	-10368
▁LOL	-10369
▁Ter	-10370
▁Ven	-10371
▁cuc	-10372
▁fur	-10373
adequ	-10374
clock	-10375
erman	-10376
maker	-10377
▁Disc	-10378
▁Stan	-10379
▁Sumo	-10380
▁dull	-10381
▁edit	-10382
▁stir	-10383
▁tune	-10384
/index	-10385
ainted	-10386
amples	-10387
clipse	-10388
▁Brown	-10389
▁Greek	-10390
▁crash	-10391
▁jewel	-10392
▁piety	-10393
▁prote	-10394
▁shake	-10395
▁snows	-10396
▁sorts	-10397
▁sucks	-10398
ivalent	-10399
natural	-10400
▁Castle	-10401
▁Issues	-10402
▁chorus	-10403
▁christ	-10404
▁cockro	-10405
▁indoor	-10406
▁parade	-10407
▁Airport	-10408
▁Grammar	-10409
▁Kingdom	-10410
▁Playing	-10411
▁affairs	-10412
▁chronic	-10413
▁distant	-10414
▁engaged	-10415
▁existed	-10416
▁gardens	-10417
▁mixture	-10418
▁recruit	-10419
▁settled	-10420
imes.com/	-10421
▁Nagasaki	-10422
▁corrects	-10423
▁dramatic	-10424
▁facility	-10425
▁imported	-10426
▁centuries	-10427
▁cosmetics	-10428
▁impatient	-10429
▁involving	-10430
▁passenger	-10431
▁permanent	-10432
▁petroleum	-10433
▁facilitate	-10434
▁inevitably	-10435
▁punishment	-10436
▁Considering	-10437
▁backgrounds	-10438
▁distributed	-10439
▁concentrated	-10440
▁sodium-cooled	-10441
▁considerations	-10442
.j	-10443
IY	-10444
pf	-10445
uo	-10446
eic	-10447
eto	-10448
iga	-10449
▁62	-10450
2007	-10451
arer	-10452
▁Don	-10453
▁End	-10454
▁Wel	-10455
▁aer	-10456
▁ray	-10457
field	-10458
▁1979	-10459
▁Asak	-10460
▁Keep	-10461
▁Wish	-10462
▁acid	-10463
▁diam	-10464
▁folk	-10465
▁kidn	-10466
▁trig	-10467
▁unav	-10468
ensity	-10469
imming	-10470
▁Anime	-10471
▁Ginza	-10472
▁Girls	-10473
▁aimed	-10474
▁bombs	-10475
▁coord	-10476
▁micro	-10477
▁tires	-10478
English	-10479
▁Israel	-10480
▁Market	-10481
▁Middle	-10482
▁enjoys	-10483
▁finals	-10484
▁joyful	-10485
▁oppose	-10486
▁poster	-10487
▁thrill	-10488
▁titles	-10489
▁writes	-10490
-powered	-10491
▁Academy	-10492
▁Ireland	-10493
▁Network	-10494
▁dilemma	-10495
▁edition	-10496
▁focuses	-10497
▁licence	-10498
▁penalty	-10499
▁stepped	-10500
▁crossing	-10501
▁failures	-10502
▁insisted	-10503
▁lifetime	-10504
▁modified	-10505
▁promises	-10506
▁Certainly	-10507
▁alcoholic	-10508
▁bilingual	-10509
▁initially	-10510
▁memorized	-10511
▁retrieved	-10512
▁shrinking	-10513
▁unpredict	-10514
▁Earthquake	-10515
▁Management	-10516
▁medication	-10517
▁organizing	-10518
▁sandwiches	-10519
▁thoroughly	-10520
▁interpreter	-10521
▁remembering	-10522
▁unexpectedly	-10523
▁globalization	-10524
▁misunderstood	-10525
▁sustainability	-10526
1N	-10527
.st	-10528
afe	-10529
▁48	-10530
▁CV	-10531
▁EV	-10532
▁om	-10533
.cfm	-10534
icts	-10535
nuts	-10536
omin	-10537
▁BEC	-10538
▁Hat	-10539
▁Jud	-10540
▁Xia	-10541
▁sty	-10542
ambod	-10543
arden	-10544
lying	-10545
omore	-10546
ukuro	-10547
▁HAVE	-10548
▁Ichi	-10549
▁Soft	-10550
▁Tomo	-10551
▁Trad	-10552
▁aids	-10553
▁bake	-10554
▁belt	-10555
▁dism	-10556
▁hunt	-10557
▁inha	-10558
▁ours	-10559
▁rope	-10560
▁snee	-10561
▁stew	-10562
▁tidy	-10563
igraph	-10564
system	-10565
▁alpha	-10566
▁angel	-10567
▁cares	-10568
▁knife	-10569
▁queue	-10570
▁steel	-10571
atively	-10572
journal	-10573
onymous	-10574
▁Sounds	-10575
▁claims	-10576
▁donate	-10577
▁harmon	-10578
▁microp	-10579
▁murder	-10580
▁onions	-10581
ineering	-10582
▁Studies	-10583
▁crossed	-10584
▁escaped	-10585
▁privile	-10586
▁sunrise	-10587
▁abstract	-10588
▁coverage	-10589
▁darkness	-10590
▁fabulous	-10591
▁reaching	-10592
▁shipping	-10593
▁speeches	-10594
▁Economics	-10595
▁approached	-10596
▁curriculum	-10597
▁discipline	-10598
▁exhausting	-10599
▁highschool	-10600
▁substances	-10601
▁Australians	-10602
▁temporarily	-10603
▁undergraduate	-10604
98	-10605
MB	-10606
tw	-10607
acc	-10608
igo	-10609
▁99	-10610
bean	-10611
osit	-10612
▁CON	-10613
▁Cle	-10614
▁Dog	-10615
▁H1N	-10616
▁Kaw	-10617
▁lag	-10618
▁nan	-10619
▁re-	-10620
▁rig	-10621
cakes	-10622
eling	-10623
gment	-10624
▁18th	-10625
▁Cars	-10626
▁Grad	-10627
▁Imag	-10628
▁blew	-10629
▁lend	-10630
▁lion	-10631
▁nail	-10632
▁tort	-10633
ageing	-10634
anches	-10635
itures	-10636
▁aloud	-10637
▁cable	-10638
▁renov	-10639
igraphy	-10640
▁Direct	-10641
▁Online	-10642
▁chairs	-10643
▁defend	-10644
▁dental	-10645
▁hunger	-10646
▁organs	-10647
▁pencil	-10648
▁rescue	-10649
▁satell	-10650
▁statue	-10651
▁weekly	-10652
cription	-10653
▁Project	-10654
▁Sundays	-10655
▁consent	-10656
▁inadequ	-10657
▁justice	-10658
▁laptops	-10659
▁shrines	-10660
▁unclear	-10661
▁Birthday	-10662
▁Normally	-10663
▁Republic	-10664
▁Somebody	-10665
▁champion	-10666
▁enrolled	-10667
▁theories	-10668
▁Transport	-10669
▁addressed	-10670
▁everytime	-10671
▁goverment	-10672
▁housewife	-10673
▁submitted	-10674
▁Television	-10675
▁accumulate	-10676
▁disclosure	-10677
▁organising	-10678
▁weaknesses	-10679
▁expectation	-10680
▁populations	-10681
-A	-10682
-W	-10683
Te	-10684
cr	-10685
abi	-10686
mar	-10687
ola	-10688
uto	-10689
you	-10690
▁GP	-10691
▁OM	-10692
▁Su	-10693
▁XX	-10694
rows	-10695
▁BTW	-10696
▁NEW	-10697
▁PCs	-10698
▁poo	-10699
▁reb	-10700
books	-10701
otect	-10702
▁30am	-10703
▁30th	-10704
▁Cafe	-10705
▁H1N1	-10706
▁Salt	-10707
▁YOUR	-10708
▁dele	-10709
▁gang	-10710
▁gray	-10711
▁rein	-10712
▁shoe	-10713
▁thir	-10714
▁vice	-10715
mentia	-10716
olitan	-10717
▁Champ	-10718
▁Given	-10719
▁baths	-10720
▁dealt	-10721
▁loose	-10722
▁porce	-10723
▁puppy	-10724
▁shook	-10725
▁spons	-10726
▁winds	-10727
idently	-10728
▁Cambod	-10729
▁Except	-10730
▁Follow	-10731
▁Martin	-10732
▁barber	-10733
▁contam	-10734
▁dances	-10735
▁indisp	-10736
▁locked	-10737
▁Account	-10738
▁Asakusa	-10739
▁Turkish	-10740
▁beliefs	-10741
▁blanket	-10742
▁graphic	-10743
▁haircut	-10744
▁hitting	-10745
▁natives	-10746
▁sincere	-10747
chnology/	-10748
▁Football	-10749
▁database	-10750
▁develops	-10751
▁opposing	-10752
▁recycled	-10753
▁strictly	-10754
▁theaters	-10755
▁Very-High	-10756
▁airplanes	-10757
▁demanding	-10758
▁enjoyment	-10759
▁expanding	-10760
▁favorites	-10761
▁interface	-10762
▁porcelain	-10763
▁principle	-10764
▁resistant	-10765
▁ingredient	-10766
▁lifestyles	-10767
▁loneliness	-10768
▁supporters	-10769
▁aftershocks	-10770
▁devastating	-10771
▁frustrating	-10772
▁accessibility	-10773
/t	-10774
IQ	-10775
fun	-10776
ini	-10777
kai	-10778
▁36	-10779
▁66	-10780
▁Ho	-10781
▁Wa	-10782
iken	-10783
live	-10784
opus	-10785
rine	-10786
that	-10787
tory	-10788
▁120	-10789
▁Die	-10790
▁Ric	-10791
▁TIM	-10792
▁Zac	-10793
▁ali	-10794
▁eel	-10795
iniku	-10796
storm	-10797
▁....	-10798
▁1970	-10799
▁28th	-10800
▁Anim	-10801
▁Base	-10802
▁Find	-10803
▁Jose	-10804
▁Trip	-10805
▁caps	-10806
▁swit	-10807
▁tear	-10808
▁turb	-10809
▁vend	-10810
▁yuan	-10811
ighter	-10812
▁Enjoy	-10813
▁Light	-10814
▁amate	-10815
▁didnt	-10816
▁layer	-10817
▁lunar	-10818
▁meter	-10819
Genetic	-10820
Nuclear	-10821
▁Oxford	-10822
▁gender	-10823
▁gossip	-10824
▁grapes	-10825
▁insert	-10826
▁newest	-10827
▁nostal	-10828
▁purple	-10829
▁sample	-10830
▁suited	-10831
▁vacuum	-10832
▁chapter	-10833
▁congest	-10834
▁monkeys	-10835
▁pushing	-10836
▁simpler	-10837
▁whereby	-10838
opulation	-10839
▁Administ	-10840
▁athletic	-10841
▁attracts	-10842
▁hardship	-10843
▁mornings	-10844
▁welcomed	-10845
▁answering	-10846
▁butterfly	-10847
▁officials	-10848
▁Apparently	-10849
▁corruption	-10850
▁exchanging	-10851
▁occupation	-10852
▁satisfying	-10853
▁accompanied	-10854
▁exhibitions	-10855
-water-cooled	-10856
▁manufacturers	-10857
▁Identification	-10858
▁confidentiality	-10859
ws	-10860
dis	-10861
▁44	-10862
▁cy	-10863
▁kg	-10864
▁o'	-10865
amic	-10866
oves	-10867
▁Dub	-10868
▁Jac	-10869
▁ink	-10870
▁oxy	-10871
▁sib	-10872
ashes	-10873
capes	-10874
cking	-10875
cribe	-10876
elled	-10877
ument	-10878
▁Call	-10879
▁Game	-10880
▁Iran	-10881
▁hook	-10882
▁rebu	-10883
▁saus	-10884
▁vamp	-10885
-based	-10886
▁charm	-10887
▁divor	-10888
▁purse	-10889
▁spark	-10890
lectric	-10891
▁Really	-10892
▁Seeing	-10893
▁bosses	-10894
▁roller	-10895
▁splend	-10896
▁thirst	-10897
▁Article	-10898
▁Council	-10899
▁Izakaya	-10900
▁Niigata	-10901
▁Overall	-10902
▁Welcome	-10903
▁allergy	-10904
▁auction	-10905
▁beautif	-10906
▁closest	-10907
▁disturb	-10908
▁leakage	-10909
▁o'clock	-10910
▁upgrade	-10911
▁approval	-10912
▁artistic	-10913
▁cellular	-10914
▁defeated	-10915
▁homepage	-10916
▁officers	-10917
▁princess	-10918
▁uniforms	-10919
▁analyzing	-10920
▁marvelous	-10921
▁selecting	-10922
▁apologized	-10923
▁approaches	-10924
▁prohibited	-10925
▁congratulate	-10926
▁psychologist	-10927
▁unpredictable	-10928
-F	-10929
/E	-10930
KY	-10931
zz	-10932
/en	-10933
bor	-10934
ett	-10935
hic	-10936
iat	-10937
rey	-10938
▁AD	-10939
▁Fa	-10940
▁ya	-10941
etes	-10942
isha	-10943
▁Ike	-10944
▁Inf	-10945
▁Jin	-10946
▁Nam	-10947
▁Put	-10948
▁Tam	-10949
chede	-10950
dings	-10951
imasu	-10952
▁Bali	-10953
▁Belg	-10954
▁Engl	-10955
▁Full	-10956
▁Hard	-10957
▁Lord	-10958
▁Nort	-10959
▁Song	-10960
▁deer	-10961
▁desu	-10962
▁enab	-10963
▁grey	-10964
▁outf	-10965
▁soba	-10966
ashimi	-10967
carina	-10968
▁Heart	-10969
▁banks	-10970
▁recre	-10971
▁spoon	-10972
▁wides	-10973
ensable	-10974
lements	-10975
▁Corpor	-10976
▁Eating	-10977
▁Ichiro	-10978
▁League	-10979
▁Narita	-10980
▁bakery	-10981
▁blamed	-10982
▁friday	-10983
▁liquor	-10984
▁monkey	-10985
▁mutual	-10986
▁poured	-10987
▁racing	-10988
▁shrimp	-10989
▁solely	-10990
▁tricks	-10991
▁waiter	-10992
▁acceler	-10993
▁amusing	-10994
▁bothers	-10995
▁damages	-10996
▁enemies	-10997
▁praying	-10998
▁slipped	-10999
▁superst	-11000
▁vaccine	-11001
▁Hydrogen	-11002
▁hangover	-11003
▁happiest	-11004
▁sessions	-11005
▁unlikely	-11006
▁achieving	-11007
▁corporate	-11008
▁occurring	-11009
▁postponed	-11010
▁sophomore	-11011
▁astonished	-11012
▁components	-11013
▁conversion	-11014
▁controversy	-11015
▁departments	-11016
▁conservative	-11017
▁considerably	-11018
▁contemporary	-11019
▁organisation	-11020
.com.libproxy1	-11021
▁grammatically	-11022
▁qualifications	-11023
28	-11024
99	-11025
BM	-11026
_R	-11027
_p	-11028
aid	-11029
aze	-11030
bal	-11031
cys	-11032
ram	-11033
ras	-11034
rav	-11035
▁GO	-11036
▁ox	-11037
▁oy	-11038
atal	-11039
brev	-11040
ideo	-11041
oman	-11042
quet	-11043
uros	-11044
▁CAN	-11045
▁COM	-11046
▁NAS	-11047
▁bum	-11048
▁cuz	-11049
▁eve	-11050
▁sin	-11051
▁tab	-11052
▁ves	-11053
olite	-11054
oting	-11055
plays	-11056
pread	-11057
▁Cook	-11058
▁Flor	-11059
▁Mars	-11060
▁Read	-11061
▁Town	-11062
▁dign	-11063
▁fame	-11064
▁guns	-11065
▁neat	-11066
▁pine	-11067
▁puri	-11068
▁rehe	-11069
bukuro	-11070
erials	-11071
opedia	-11072
weight	-11073
▁Yahoo	-11074
▁globe	-11075
▁hired	-11076
▁lifes	-11077
▁sixty	-11078
igation	-11079
▁Surely	-11080
▁U.S.A.	-11081
▁heated	-11082
▁poetry	-11083
▁prayed	-11084
▁salmon	-11085
▁simult	-11086
children	-11087
▁Angeles	-11088
▁careers	-11089
▁convert	-11090
▁kidding	-11091
▁majored	-11092
▁neutron	-11093
▁periods	-11094
▁resting	-11095
▁returns	-11096
▁soldier	-11097
▁spectac	-11098
▁staring	-11099
▁agencies	-11100
▁barriers	-11101
▁branches	-11102
▁eyesight	-11103
▁interval	-11104
▁isolated	-11105
▁splendid	-11106
▁libraries	-11107
▁magnitude	-11108
▁directions	-11109
▁equivalent	-11110
▁interviewer	-11111
▁compositions	-11112
▁constructing	-11113
▁illustration	-11114
▁understandable	-11115
16	-11116
4/	-11117
lo	-11118
URE	-11119
tub	-11120
▁LO	-11121
▁MP	-11122
Book	-11123
city	-11124
ctic	-11125
▁ALL	-11126
▁Cop	-11127
▁MRT	-11128
▁Say	-11129
▁rug	-11130
▁sho	-11131
▁ven	-11132
glass	-11133
hange	-11134
ockey	-11135
tedly	-11136
▁Bull	-11137
▁Near	-11138
▁Shir	-11139
▁Udon	-11140
▁blow	-11141
▁glob	-11142
▁gymn	-11143
▁hits	-11144
▁lung	-11145
▁nest	-11146
▁tale	-11147
▁trop	-11148
ickens	-11149
▁Found	-11150
▁Linux	-11151
▁Ocean	-11152
▁Saint	-11153
▁accom	-11154
▁drain	-11155
▁grasp	-11156
▁lemon	-11157
▁liber	-11158
▁malls	-11159
▁maths	-11160
▁owned	-11161
▁quote	-11162
▁stole	-11163
grading	-11164
▁Soviet	-11165
▁adject	-11166
▁burger	-11167
▁devote	-11168
▁fridge	-11169
▁machin	-11170
▁oxygen	-11171
▁parked	-11172
▁polish	-11173
▁thrown	-11174
▁trends	-11175
/article	-11176
▁Imagine	-11177
▁Perfect	-11178
▁browser	-11179
▁elegant	-11180
▁ocarina	-11181
▁scolded	-11182
▁absorbed	-11183
▁category	-11184
▁convince	-11185
▁decorate	-11186
▁dialogue	-11187
▁incurred	-11188
▁informal	-11189
▁monetary	-11190
▁pensions	-11191
▁persuade	-11192
▁producer	-11193
▁sacrific	-11194
▁sweating	-11195
▁Professor	-11196
▁Saturdays	-11197
▁accompany	-11198
▁complaint	-11199
▁gentleman	-11200
▁stimulate	-11201
▁Restaurant	-11202
▁containing	-11203
▁integrated	-11204
▁ultimately	-11205
▁unemployed	-11206
▁immigration	-11207
▁institution	-11208
▁nationality	-11209
.org/info/inf	-11210
▁Technologies	-11211
▁volunteering	-11212
▁indispensable	-11213
/b	-11214
37	-11215
GL	-11216
nia	-11217
rum	-11218
uta	-11219
▁JP	-11220
gain	-11221
ishi	-11222
otte	-11223
ushu	-11224
▁Bay	-11225
▁Far	-11226
▁KFC	-11227
▁PSP	-11228
▁Tay	-11229
▁fer	-11230
▁obe	-11231
▁pum	-11232
▁ted	-11233
chers	-11234
esity	-11235
hield	-11236
ikido	-11237
lined	-11238
peror	-11239
sians	-11240
uliar	-11241
▁26th	-11242
▁Cath	-11243
▁Half	-11244
▁Leon	-11245
▁Lost	-11246
▁Mont	-11247
▁arom	-11248
▁nons	-11249
cribed	-11250
ilians	-11251
sticks	-11252
▁Chile	-11253
▁Final	-11254
▁Jones	-11255
▁Sally	-11256
▁Sarah	-11257
▁cured	-11258
▁drops	-11259
▁energ	-11260
▁escal	-11261
▁flaws	-11262
▁perse	-11263
▁pound	-11264
iations	-11265
roadmap	-11266
▁Muslim	-11267
▁abbrev	-11268
▁editor	-11269
▁govern	-11270
▁kilogr	-11271
▁terrif	-11272
▁untill	-11273
▁wheels	-11274
oubtedly	-11275
▁//news.	-11276
▁Library	-11277
▁bathtub	-11278
▁broaden	-11279
▁desired	-11280
▁founded	-11281
▁propose	-11282
▁targets	-11283
▁threats	-11284
▁Interest	-11285
▁Mountain	-11286
▁animated	-11287
▁examined	-11288
▁firework	-11289
▁mistaken	-11290
▁salaries	-11291
▁scenario	-11292
▁screamed	-11293
▁typhoons	-11294
/documents	-11295
▁//nuclear	-11296
▁celebrity	-11297
▁conflicts	-11298
▁diverting	-11299
▁economies	-11300
▁screaming	-11301
▁specially	-11302
▁Healthcare	-11303
▁Indonesian	-11304
▁applicants	-11305
▁inspection	-11306
▁penicillin	-11307
▁practising	-11308
▁widespread	-11309
▁accommodate	-11310
▁controlling	-11311
▁drastically	-11312
▁friendships	-11313
▁Organization	-11314
▁conventionally	-11315
07	-11316
AV	-11317
BS	-11318
bbc	-11319
gas	-11320
ila	-11321
web	-11322
▁AK	-11323
▁MO	-11324
-age	-11325
ASHI	-11326
from	-11327
hiko	-11328
itis	-11329
mail	-11330
onda	-11331
rous	-11332
stat	-11333
ulse	-11334
▁Dri	-11335
▁Mis	-11336
▁OMG	-11337
▁cic	-11338
▁pec	-11339
icked	-11340
topic	-11341
▁22nd	-11342
▁31st	-11343
▁Nick	-11344
▁bark	-11345
▁gest	-11346
▁jail	-11347
▁pref	-11348
▁shif	-11349
▁udon	-11350
▁vary	-11351
▁wand	-11352
approp	-11353
atched	-11354
icular	-11355
▁Camer	-11356
▁Fukui	-11357
▁Seven	-11358
▁ambul	-11359
▁asset	-11360
▁fears	-11361
▁pilot	-11362
▁shots	-11363
▁snake	-11364
▁Senior	-11365
▁Silver	-11366
▁Thomas	-11367
▁settle	-11368
▁shapes	-11369
▁tenses	-11370
▁timing	-11371
▁weaker	-11372
appropri	-11373
▁Finance	-11374
▁Hunting	-11375
▁Product	-11376
▁briefly	-11377
▁combine	-11378
▁hottest	-11379
▁packing	-11380
▁perfume	-11381
▁quietly	-11382
▁reunion	-11383
▁scratch	-11384
▁trading	-11385
▁wrapped	-11386
▁Sometime	-11387
▁american	-11388
▁bacteria	-11389
▁generous	-11390
▁landlord	-11391
▁occupied	-11392
▁severely	-11393
▁survived	-11394
▁Different	-11395
▁mushrooms	-11396
▁travelers	-11397
▁Scientists	-11398
▁well-being	-11399
▁Maintenance	-11400
▁observation	-11401
▁advancements	-11402
▁prepositions	-11403
▁extraordinary	-11404
INA	-11405
OOK	-11406
USE	-11407
tan	-11408
.nih	-11409
cell	-11410
izer	-11411
▁900	-11412
▁Ash	-11413
▁Dar	-11414
▁bri	-11415
▁fog	-11416
▁kne	-11417
Japan	-11418
allow	-11419
owers	-11420
▁23rd	-11421
▁Guam	-11422
▁Jobs	-11423
▁Live	-11424
▁Phil	-11425
▁Webs	-11426
▁craw	-11427
▁offs	-11428
▁triv	-11429
onalds	-11430
rating	-11431
▁Think	-11432
▁Titan	-11433
▁belly	-11434
▁bones	-11435
▁cared	-11436
▁fragr	-11437
▁ignor	-11438
▁lacks	-11439
▁nails	-11440
▁sized	-11441
▁toxic	-11442
▁truck	-11443
▁wider	-11444
▁Better	-11445
▁aliens	-11446
▁assets	-11447
▁buffet	-11448
▁exclud	-11449
▁hiring	-11450
▁melted	-11451
▁newcom	-11452
▁poorly	-11453
▁powers	-11454
▁praise	-11455
▁prejud	-11456
▁sitcom	-11457
▁stimul	-11458
▁vessel	-11459
▁visits	-11460
▁Charles	-11461
▁Eastern	-11462
▁Tsunami	-11463
▁amateur	-11464
▁divorce	-11465
▁eastern	-11466
▁knocked	-11467
▁Remember	-11468
▁cheering	-11469
▁divorced	-11470
▁finishes	-11471
▁foremost	-11472
▁obstacle	-11473
▁pressing	-11474
▁Kagoshima	-11475
▁behaviors	-11476
▁emphasize	-11477
▁fortunate	-11478
▁intensive	-11479
▁apparently	-11480
▁landscapes	-11481
▁politician	-11482
▁calligraphy	-11483
▁desperately	-11484
▁enterprises	-11485
▁conditioners	-11486
▁expenditures	-11487
▁strawberries	-11488
▁nationalities	-11489
▁personalities	-11490
▁pronounciation	-11491
09	-11492
51	-11493
LI	-11494
MA	-11495
aa	-11496
-to	-11497
AST	-11498
ERE	-11499
ORE	-11500
ias	-11501
isk	-11502
izz	-11503
▁42	-11504
▁QQ	-11505
avor	-11506
user	-11507
zech	-11508
▁DOE	-11509
▁Del	-11510
▁Got	-11511
▁Ira	-11512
▁Kum	-11513
▁Sal	-11514
▁Way	-11515
▁bug	-11516
▁ske	-11517
▁tub	-11518
-year	-11519
iated	-11520
rency	-11521
ubble	-11522
▁MCYS	-11523
▁Prin	-11524
▁Sand	-11525
▁WITH	-11526
▁Word	-11527
▁damn	-11528
▁desp	-11529
▁eyel	-11530
▁fate	-11531
▁fits	-11532
▁inqu	-11533
▁mort	-11534
▁sink	-11535
▁tech	-11536
▁wrap	-11537
ounder	-11538
▁Charl	-11539
▁Daily	-11540
▁Finan	-11541
▁Jason	-11542
▁Liber	-11543
▁Peace	-11544
▁avail	-11545
▁conce	-11546
▁deals	-11547
▁grace	-11548
▁grant	-11549
▁heads	-11550
▁rehab	-11551
▁Access	-11552
▁Alison	-11553
▁Recent	-11554
▁albums	-11555
▁basics	-11556
▁buried	-11557
▁facial	-11558
▁humble	-11559
▁priest	-11560
▁puzzle	-11561
▁rubber	-11562
▁sleeps	-11563
▁theore	-11564
▁undert	-11565
▁unwill	-11566
▁council	-11567
▁spanish	-11568
▁vending	-11569
▁Cambodia	-11570
▁Practice	-11571
▁coughing	-11572
▁exploded	-11573
▁invasion	-11574
▁peculiar	-11575
▁preserve	-11576
▁sympathy	-11577
▁villages	-11578
▁weddings	-11579
▁associate	-11580
▁conductor	-11581
▁prototype	-11582
▁timetable	-11583
▁Democratic	-11584
▁acceptance	-11585
▁assistants	-11586
▁beforehand	-11587
▁compromise	-11588
▁depressing	-11589
▁specialist	-11590
▁supplement	-11591
▁arrangement	-11592
▁hardworking	-11593
▁neighboring	-11594
▁recognition	-11595
▁Thanksgiving	-11596
▁acquaintance	-11597
-a	-11598
CD	-11599
py	-11600
rc	-11601
cia	-11602
jun	-11603
omo	-11604
▁AR	-11605
▁AV	-11606
▁I'	-11607
▁ot	-11608
▁ts	-11609
imet	-11610
ulpt	-11611
yaki	-11612
▁Bat	-11613
▁Fre	-11614
▁Jew	-11615
▁Leg	-11616
▁Rub	-11617
▁Swe	-11618
▁Ult	-11619
aceut	-11620
hesis	-11621
ierce	-11622
oster	-11623
words	-11624
▁1994	-11625
▁2014	-11626
▁Anne	-11627
▁Hung	-11628
▁Make	-11629
▁Mess	-11630
▁Mong	-11631
▁Prop	-11632
▁pile	-11633
▁stem	-11634
inator	-11635
master	-11636
▁Clear	-11637
▁Eiken	-11638
▁Stand	-11639
▁cashi	-11640
▁chill	-11641
▁haird	-11642
▁roots	-11643
▁rumor	-11644
▁unden	-11645
▁units	-11646
▁wrist	-11647
▁Famous	-11648
▁Prince	-11649
▁dragon	-11650
▁drives	-11651
▁exclus	-11652
▁seller	-11653
▁smoker	-11654
▁Congrat	-11655
▁Express	-11656
▁beating	-11657
▁captain	-11658
▁curtain	-11659
▁desires	-11660
▁devoted	-11661
▁elephan	-11662
▁failing	-11663
▁grabbed	-11664
▁masterp	-11665
▁opposed	-11666
▁prefect	-11667
▁respons	-11668
▁roughly	-11669
▁trivial	-11670
bbc.co.uk	-11671
fficiency	-11672
uccessful	-11673
▁Medicine	-11674
▁Yamagata	-11675
▁avoiding	-11676
▁delicate	-11677
▁displays	-11678
▁ensuring	-11679
▁humanity	-11680
▁muscular	-11681
▁saturday	-11682
▁secretly	-11683
▁stereoty	-11684
▁switched	-11685
▁tropical	-11686
▁Ikebukuro	-11687
▁decreases	-11688
▁describes	-11689
▁policeman	-11690
cys.gov.sg/	-11691
▁hesitation	-11692
▁watermelon	-11693
▁agriculture	-11694
▁connections	-11695
▁handicapped	-11696
▁potentially	-11697
▁preparations	-11698
▁participation	-11699
DA	-11700
PT	-11701
UB	-11702
_s	-11703
_t	-11704
uu	-11705
ERS	-11706
IEC	-11707
IFE	-11708
dog	-11709
eon	-11710
kon	-11711
omi	-11712
ran	-11713
wed	-11714
▁DC	-11715
▁Iv	-11716
APAN	-11717
AUSE	-11718
cued	-11719
erer	-11720
fing	-11721
itro	-11722
lock	-11723
uine	-11724
▁Dev	-11725
▁Fer	-11726
▁Joe	-11727
▁Maj	-11728
▁Mod	-11729
▁hyd	-11730
▁p.m	-11731
▁saf	-11732
▁uni	-11733
▁unw	-11734
/full	-11735
ifies	-11736
issed	-11737
isted	-11738
liest	-11739
otton	-11740
techn	-11741
▁Diff	-11742
▁Hans	-11743
▁Iraq	-11744
▁Kate	-11745
▁Mass	-11746
▁Mixi	-11747
▁NASA	-11748
▁UNIQ	-11749
▁dies	-11750
liness	-11751
plants	-11752
rosion	-11753
rupted	-11754
▁Aichi	-11755
▁Often	-11756
▁Piece	-11757
▁Willi	-11758
▁bears	-11759
▁beers	-11760
▁colon	-11761
▁cooks	-11762
▁defic	-11763
▁fails	-11764
▁hills	-11765
▁invis	-11766
▁metro	-11767
▁natto	-11768
▁noted	-11769
▁poses	-11770
▁vague	-11771
▁vocab	-11772
limited	-11773
▁Basket	-11774
▁Invest	-11775
▁Kimono	-11776
▁Shakes	-11777
▁betray	-11778
▁browse	-11779
▁fertil	-11780
▁modest	-11781
▁monday	-11782
▁noises	-11783
▁panels	-11784
▁ruined	-11785
▁sculpt	-11786
▁sentim	-11787
▁string	-11788
▁theirs	-11789
▁assumed	-11790
▁bananas	-11791
▁bargain	-11792
▁collaps	-11793
▁faculty	-11794
▁firstly	-11795
▁heroine	-11796
▁hurried	-11797
▁obesity	-11798
▁oneself	-11799
▁reconst	-11800
▁regrets	-11801
▁unavoid	-11802
.inl.gov/	-11803
.nih.gov/	-11804
identally	-11805
▁Michigan	-11806
▁Spending	-11807
▁Twilight	-11808
▁boarding	-11809
▁downturn	-11810
▁indicate	-11811
▁podcasts	-11812
▁printing	-11813
▁stopping	-11814
▁terminal	-11815
▁alleviate	-11816
▁ambulance	-11817
▁consisted	-11818
▁expertise	-11819
▁partially	-11820
▁specialty	-11821
Engineering	-11822
▁biological	-11823
▁criticized	-11824
▁evaluation	-11825
▁functional	-11826
▁officially	-11827
▁youngsters	-11828
▁nevertheless	-11829
▁neighbourhood	-11830
▁competitiveness	-11831
47	-11832
AKE	-11833
ELL	-11834
OME	-11835
eda	-11836
rem	-11837
▁--	-11838
▁39	-11839
▁3G	-11840
▁PL	-11841
▁SE	-11842
▁mp	-11843
bell	-11844
emed	-11845
week	-11846
wich	-11847
▁250	-11848
▁Bib	-11849
▁Dam	-11850
▁Lab	-11851
▁Tot	-11852
▁WOR	-11853
▁pin	-11854
▁voc	-11855
ighed	-11856
phony	-11857
▁1960	-11858
▁Gaga	-11859
▁Mach	-11860
▁Scot	-11861
▁Tanz	-11862
▁Yosh	-11863
▁beds	-11864
▁cans	-11865
▁cave	-11866
▁emit	-11867
▁gear	-11868
▁hack	-11869
▁pear	-11870
▁seed	-11871
obiles	-11872
▁Cause	-11873
▁JAPAN	-11874
▁Saudi	-11875
▁boast	-11876
▁conso	-11877
▁hypot	-11878
▁idiom	-11879
▁imper	-11880
▁pairs	-11881
▁pitch	-11882
▁rings	-11883
.com/st	-11884
▁Coffee	-11885
▁Season	-11886
▁Temple	-11887
▁UNIQLO	-11888
▁absorb	-11889
▁boxing	-11890
▁brains	-11891
▁defeat	-11892
▁faults	-11893
▁fights	-11894
▁gloves	-11895
▁hiding	-11896
▁hockey	-11897
▁rolled	-11898
▁strive	-11899
▁sympat	-11900
▁viable	-11901
▁warned	-11902
▁//www.t	-11903
▁BECAUSE	-11904
▁Culture	-11905
▁Somehow	-11906
▁capture	-11907
▁desktop	-11908
▁eagerly	-11909
▁eclipse	-11910
▁magical	-11911
▁studing	-11912
▁Building	-11913
▁Training	-11914
▁Victoria	-11915
▁bachelor	-11916
▁bankrupt	-11917
▁diabetes	-11918
▁impolite	-11919
▁minority	-11920
▁operated	-11921
▁profound	-11922
▁rational	-11923
▁relating	-11924
▁societal	-11925
▁treating	-11926
▁utilized	-11927
▁withdraw	-11928
▁Diffusion	-11929
▁Financial	-11930
▁Guangzhou	-11931
▁McDonalds	-11932
▁Universal	-11933
▁affecting	-11934
▁affection	-11935
▁attendant	-11936
▁campaigns	-11937
▁locations	-11938
▁responded	-11939
▁spiritual	-11940
▁Basketball	-11941
▁Commission	-11942
▁Originally	-11943
▁chopsticks	-11944
▁perception	-11945
▁Okonomiyaki	-11946
▁genetically	-11947
▁disabilities	-11948
▁encouragement	-11949
▁inconvenience	-11950
▁Administration	-11951
/e	-11952
3/	-11953
68	-11954
sn	-11955
ORT	-11956
ads	-11957
ala	-11958
ela	-11959
nut	-11960
▁03	-11961
▁85	-11962
▁CL	-11963
▁CS	-11964
▁FR	-11965
▁SF	-11966
angs	-11967
hant	-11968
iary	-11969
jing	-11970
rick	-11971
text	-11972
tles	-11973
zona	-11974
▁Mao	-11975
▁USD	-11976
▁ank	-11977
▁nod	-11978
heart	-11979
rieve	-11980
uther	-11981
▁Baby	-11982
▁Down	-11983
▁Form	-11984
▁Sent	-11985
▁View	-11986
▁WILL	-11987
▁Walk	-11988
▁loan	-11989
▁slip	-11990
▁span	-11991
elines	-11992
otatsu	-11993
umbers	-11994
visory	-11995
▁Merry	-11996
▁Scott	-11997
▁advis	-11998
▁depth	-11999
▁domin	-12000
▁futon	-12001
▁label	-12002
▁legis	-12003
▁rocks	-12004
▁ships	-12005
▁shore	-12006
▁slide	-12007
▁steep	-12008
▁twins	-12009
▁woken	-12010
oration	-12011
▁Aikido	-12012
▁dancer	-12013
▁hinder	-12014
▁lawyer	-12015
▁notion	-12016
▁skirts	-12017
▁Arizona	-12018
▁Florida	-12019
▁Holland	-12020
▁adapted	-12021
▁ceremon	-12022
▁coaster	-12023
▁confuse	-12024
▁console	-12025
▁destiny	-12026
▁genuine	-12027
▁pudding	-12028
▁rehears	-12029
▁samurai	-12030
▁subsidy	-12031
▁suspect	-12032
▁trapped	-12033
▁trusted	-12034
▁wealthy	-12035
▁whoever	-12036
aceutical	-12037
▁Advisory	-12038
▁accuracy	-12039
▁allergic	-12040
▁approved	-12041
▁blackout	-12042
▁dropping	-12043
▁evenings	-12044
▁handmade	-12045
▁laughter	-12046
▁operator	-12047
▁optional	-12048
▁outgoing	-12049
▁reporter	-12050
▁restroom	-12051
▁upstairs	-12052
▁committee	-12053
▁invisible	-12054
▁strongest	-12055
▁summarize	-12056
▁voluntary	-12057
appropriate	-12058
▁consultant	-12059
▁inadequate	-12060
▁paperbacks	-12061
▁principles	-12062
▁pronounced	-12063
▁intervention	-12064
▁significance	-12065
▁acquaintances	-12066
▁independently	-12067
▁unconsciously	-12068
-S	-12069
.7	-12070
69	-12071
OUN	-12072
cor	-12073
fin	-12074
ika	-12075
▁08	-12076
▁09	-12077
▁HR	-12078
▁Lu	-12079
....	-12080
.stm	-12081
adas	-12082
atha	-12083
educ	-12084
full	-12085
onds	-12086
onna	-12087
oust	-12088
pled	-12089
yoza	-12090
yram	-12091
▁III	-12092
▁Isl	-12093
▁Jen	-12094
▁Key	-12095
▁Ram	-12096
▁Tar	-12097
▁Van	-12098
akana	-12099
enter	-12100
ouses	-12101
peare	-12102
▁1500	-12103
▁1950	-12104
▁Bank	-12105
▁Geor	-12106
▁Qing	-12107
▁TIME	-12108
▁Wars	-12109
▁clip	-12110
▁deaf	-12111
▁encl	-12112
▁irre	-12113
▁knit	-12114
▁pand	-12115
▁pays	-12116
▁rewr	-12117
▁scat	-12118
▁torn	-12119
▁wors	-12120
herent	-12121
▁Honda	-12122
▁Liter	-12123
▁Opera	-12124
▁Short	-12125
▁advoc	-12126
▁folks	-12127
▁frust	-12128
▁masks	-12129
▁salty	-12130
▁shell	-12131
▁stove	-12132
▁twent	-12133
atories	-12134
irement	-12135
veloped	-12136
▁Agatha	-12137
▁Anyone	-12138
▁Consum	-12139
▁Daniel	-12140
▁Junior	-12141
▁Palace	-12142
▁Secret	-12143
▁awhile	-12144
▁bitten	-12145
▁busier	-12146
▁intent	-12147
▁issued	-12148
▁quarre	-12149
ciations	-12150
▁Finland	-12151
▁Graying	-12152
▁Student	-12153
▁arrives	-12154
▁cashier	-12155
▁dignity	-12156
▁envious	-12157
▁inhabit	-12158
▁mosquit	-12159
▁pouring	-12160
▁prolong	-12161
▁smelled	-12162
▁suscept	-12163
▁viewers	-12164
ervations	-12165
▁alphabet	-12166
▁browsing	-12167
▁dementia	-12168
▁finances	-12169
▁manpower	-12170
▁mutation	-12171
▁seasonal	-12172
▁siblings	-12173
▁Beautiful	-12174
▁accepting	-12175
▁addresses	-12176
▁authority	-12177
▁criticize	-12178
▁infection	-12179
▁responses	-12180
▁struggled	-12181
▁animations	-12182
▁equipments	-12183
▁maintained	-12184
▁prosperity	-12185
▁vegetarian	-12186
▁Examination	-12187
▁beautifully	-12188
▁discouraged	-12189
▁identifying	-12190
▁impressions	-12191
▁necessities	-12192
▁restrictions	-12193
▁characteristic	-12194
▁simultaneously	-12195
▁Congratulations	-12196
/v	-12197
FA	-12198
II	-12199
OB	-12200
IES	-12201
IVE	-12202
oco	-12203
oli	-12204
wer	-12205
▁Ay	-12206
▁Az	-12207
▁CA	-12208
▁CR	-12209
▁Ra	-12210
▁pc	-12211
acts	-12212
lick	-12213
rant	-12214
stro	-12215
this	-12216
vere	-12217
▁Luc	-12218
▁Nep	-12219
▁Ros	-12220
▁Wal	-12221
▁goo	-12222
▁rac	-12223
▁wip	-12224
-free	-12225
ayama	-12226
ensus	-12227
ienna	-12228
naire	-12229
▁27th	-12230
▁Auss	-12231
▁Code	-12232
▁Dise	-12233
▁Java	-12234
▁Lisa	-12235
▁Mrs.	-12236
▁Past	-12237
▁Penn	-12238
▁apps	-12239
▁debt	-12240
▁lips	-12241
▁rack	-12242
.com/s	-12243
hedral	-12244
rigami	-12245
▁Czech	-12246
▁Media	-12247
▁Sadly	-12248
▁alien	-12249
▁chess	-12250
▁jelly	-12251
▁overc	-12252
▁pengu	-12253
▁punct	-12254
▁revol	-12255
▁carrot	-12256
▁combat	-12257
▁exceed	-12258
▁excurs	-12259
▁phoned	-12260
▁pillow	-12261
▁raises	-12262
▁spouse	-12263
▁themes	-12264
systems/	-12265
▁Meeting	-12266
▁Physics	-12267
▁assured	-12268
▁beloved	-12269
▁complim	-12270
▁contrad	-12271
▁exhaust	-12272
▁filling	-12273
▁gallery	-12274
▁masters	-12275
▁obliged	-12276
▁rehabil	-12277
▁revenge	-12278
▁reviews	-12279
▁seaside	-12280
▁shuttle	-12281
▁signals	-12282
-4.org/Te	-12283
▁Marathon	-12284
▁meantime	-12285
▁punished	-12286
▁Countries	-12287
▁competing	-12288
▁confusion	-12289
▁countless	-12290
▁evolution	-12291
▁expansion	-12292
▁fashioned	-12293
▁instantly	-12294
▁pretended	-12295
▁reflected	-12296
ogeneration	-12297
▁accurately	-12298
▁combustion	-12299
▁eliminated	-12300
▁publishing	-12301
▁purchasing	-12302
▁substitute	-12303
▁Shakespeare	-12304
▁specialized	-12305
▁unavoidable	-12306
▁corporations	-12307
▁overwhelming	-12308
▁appropriately	-12309
▁communications	-12310
2/	-12311
21	-12312
49	-12313
HT	-12314
KS	-12315
OY	-12316
UD	-12317
HER	-12318
IST	-12319
OST	-12320
ags	-12321
iac	-12322
▁2B	-12323
▁BL	-12324
▁BR	-12325
▁HE	-12326
▁iT	-12327
bank	-12328
mble	-12329
oral	-12330
utan	-12331
▁Dig	-12332
▁Fac	-12333
▁Gos	-12334
▁Ori	-12335
▁Sak	-12336
▁Yen	-12337
▁blo	-12338
▁mp3	-12339
▁nom	-12340
arter	-12341
erver	-12342
fting	-12343
stein	-12344
▁Fant	-12345
▁Iron	-12346
▁crab	-12347
▁dubb	-12348
▁gods	-12349
▁proc	-12350
▁refe	-12351
/topic	-12352
icians	-12353
rained	-12354
unicip	-12355
velope	-12356
▁Const	-12357
▁Irish	-12358
▁Lunch	-12359
▁acute	-12360
▁calor	-12361
▁cockt	-12362
▁infin	-12363
▁naked	-12364
▁neckl	-12365
▁sadly	-12366
▁theft	-12367
▁towel	-12368
▁wings	-12369
▁woods	-12370
.com/sc	-12371
uggling	-12372
▁Mongol	-12373
▁arises	-12374
▁assemb	-12375
▁cruise	-12376
▁detrim	-12377
▁digest	-12378
▁engage	-12379
▁glance	-12380
▁palace	-12381
▁stared	-12382
▁sticky	-12383
▁warmth	-12384
-related	-12385
▁Website	-12386
▁cricket	-12387
▁deposit	-12388
▁halfway	-12389
▁hurting	-12390
▁painter	-12391
▁protest	-12392
▁pumpkin	-12393
▁readily	-12394
▁tattoos	-12395
▁Catholic	-12396
▁Genetics	-12397
▁Manpower	-12398
▁Takoyaki	-12399
▁hardware	-12400
▁steadily	-12401
▁autograph	-12402
▁diagnosis	-12403
▁geography	-12404
▁indicated	-12405
▁substance	-12406
▁unnatural	-12407
▁cellphones	-12408
▁illustrate	-12409
▁journalist	-12410
▁automobiles	-12411
▁civilization	-12412
▁consequently	-12413
▁certification	-12414
▁Supercritical-W	-12415
'T	-12416
/P	-12417
CP	-12418
/hi	-12419
ART	-12420
OGR	-12421
had	-12422
hyd	-12423
kei	-12424
uru	-12425
▁oz	-12426
Asia	-12427
alys	-12428
ayed	-12429
oice	-12430
▁Att	-12431
▁Dai	-12432
▁Hon	-12433
▁Rev	-12434
▁bay	-12435
▁bio	-12436
▁bou	-12437
▁kon	-12438
▁ome	-12439
▁pap	-12440
azawa	-12441
guard	-12442
hours	-12443
opher	-12444
rings	-12445
▁Clin	-12446
▁Taka	-12447
▁Tree	-12448
▁arro	-12449
▁bugs	-12450
▁burd	-12451
▁dive	-12452
▁hers	-12453
▁infl	-12454
▁mang	-12455
▁moms	-12456
▁sigh	-12457
▁sooo	-12458
▁toug	-12459
▁wage	-12460
▁wont	-12461
ceries	-12462
ercise	-12463
ounded	-12464
▁Heath	-12465
▁afflu	-12466
▁antib	-12467
▁freak	-12468
▁genre	-12469
▁loser	-12470
▁scarf	-12471
▁seawe	-12472
▁sword	-12473
ighters	-12474
library	-12475
portant	-12476
ression	-12477
▁Church	-12478
▁Fourth	-12479
▁Peters	-12480
▁Shrine	-12481
▁Tennis	-12482
▁beaten	-12483
▁divide	-12484
▁ethnic	-12485
▁fabric	-12486
▁lessen	-12487
▁pedest	-12488
▁proves	-12489
▁tissue	-12490
▁turtle	-12491
▁//www.h	-12492
▁Archite	-12493
▁carries	-12494
▁carrots	-12495
▁credits	-12496
▁defects	-12497
▁dischar	-12498
▁inspire	-12499
▁jewelry	-12500
▁octopus	-12501
▁runners	-12502
▁covering	-12503
▁lighting	-12504
▁nonsense	-12505
▁oriented	-12506
▁pharmacy	-12507
▁surgeons	-12508
▁ultimate	-12509
▁versions	-12510
▁Following	-12511
▁actresses	-12512
▁chemicals	-12513
▁commented	-12514
▁concluded	-12515
▁drawbacks	-12516
▁monuments	-12517
▁prominent	-12518
▁unlimited	-12519
▁Innovation	-12520
▁challenged	-12521
▁classified	-12522
▁references	-12523
▁coincidence	-12524
▁competitors	-12525
▁constraints	-12526
▁corporation	-12527
▁lead-cooled	-12528
▁resolutions	-12529
▁agricultural	-12530
▁capabilities	-12531
▁entrepreneurs	-12532
/H	-12533
26	-12534
SE	-12535
lv	-12536
▁q	-12537
ALL	-12538
CTV	-12539
END	-12540
_in	-12541
ept	-12542
ulu	-12543
▁Ba	-12544
▁CG	-12545
▁DJ	-12546
/pro	-12547
ders	-12548
llas	-12549
▁Dif	-12550
▁Few	-12551
▁Fle	-12552
▁GRE	-12553
▁Gun	-12554
▁Miz	-12555
▁Pub	-12556
▁Suz	-12557
▁bac	-12558
▁fir	-12559
▁hid	-12560
▁kar	-12561
▁tum	-12562
▁vow	-12563
.inel	-12564
/2/hi	-12565
GLISH	-12566
esthe	-12567
igers	-12568
odate	-12569
omori	-12570
oyama	-12571
ringe	-12572
ystem	-12573
▁CCTV	-12574
▁Gran	-12575
▁Lion	-12576
▁Prep	-12577
▁Sams	-12578
▁Yang	-12579
▁cows	-12580
▁owns	-12581
▁pert	-12582
▁rect	-12583
▁ruin	-12584
▁solo	-12585
▁stab	-12586
astics	-12587
ieties	-12588
okemon	-12589
▁Incre	-12590
▁Louis	-12591
▁Smart	-12592
▁dread	-12593
▁shamp	-12594
▁swear	-12595
▁thier	-12596
▁tiger	-12597
▁unint	-12598
etition	-12599
feature	-12600
▁Altern	-12601
▁Andrew	-12602
▁Kyushu	-12603
▁Native	-12604
▁Rather	-12605
▁Studio	-12606
▁baking	-12607
▁checks	-12608
▁county	-12609
▁diplom	-12610
▁disast	-12611
▁fierce	-12612
▁format	-12613
▁greedy	-12614
▁hosted	-12615
▁immune	-12616
▁naught	-12617
▁neglig	-12618
▁permit	-12619
▁sensor	-12620
aturally	-12621
▁Gallery	-12622
▁Highway	-12623
▁Natural	-12624
▁dynamic	-12625
▁heavier	-12626
▁imposed	-12627
▁outline	-12628
▁ranking	-12629
▁rolling	-12630
▁sashimi	-12631
▁stylish	-12632
▁sunburn	-12633
▁trainer	-12634
▁visible	-12635
▁Advanced	-12636
▁Heritage	-12637
▁referred	-12638
.com/news/	-12639
.inel.gov/	-12640
/topicpage	-12641
▁Computers	-12642
▁Frequency	-12643
▁Programme	-12644
▁competent	-12645
▁groceries	-12646
▁monitored	-12647
▁satellite	-12648
▁schedules	-12649
▁unwilling	-12650
▁violation	-12651
▁waterfall	-12652
▁attributed	-12653
▁connecting	-12654
▁downstairs	-12655
▁guaranteed	-12656
▁profitable	-12657
▁regulation	-12658
▁decorations	-12659
▁demographic	-12660
▁emotionally	-12661
▁girlfriends	-12662
▁preferences	-12663
.com/scitable	-12664
bbc.co.uk/2/hi	-12665
▁20Engineering	-12666
▁architectural	-12667
▁questionnaire	-12668
5/	-12669
ML	-12670
__	-12671
db	-12672
fr	-12673
OUT	-12674
jam	-12675
▁BC	-12676
▁IK	-12677
▁Ve	-12678
▁ka	-12679
vity	-12680
▁Ant	-12681
▁Ess	-12682
▁Ext	-12683
▁Hop	-12684
▁Nin	-12685
▁OUT	-12686
▁Pak	-12687
▁Six	-12688
▁cer	-12689
▁msn	-12690
▁vig	-12691
▁wow	-12692
ained	-12693
ceive	-12694
liked	-12695
plete	-12696
▁Auth	-12697
▁Bern	-12698
▁cuts	-12699
▁maid	-12700
▁muff	-12701
▁pubs	-12702
▁rust	-12703
▁spar	-12704
▁urge	-12705
global	-12706
keeper	-12707
worthy	-12708
▁Andre	-12709
▁Civil	-12710
▁Creat	-12711
▁Meiji	-12712
▁Toeic	-12713
▁Vinci	-12714
▁cheek	-12715
▁emerg	-12716
▁ferry	-12717
▁https	-12718
▁prost	-12719
keeping	-12720
▁Colomb	-12721
▁Contro	-12722
▁Heaven	-12723
▁Karate	-12724
▁Prison	-12725
▁behalf	-12726
▁cookie	-12727
▁kimchi	-12728
▁modify	-12729
▁patent	-12730
▁rating	-12731
▁refuge	-12732
▁richer	-12733
▁surfed	-12734
▁//www.p	-12735
▁Clearly	-12736
▁ENGLISH	-12737
▁Morning	-12738
▁Walking	-12739
▁buttons	-12740
▁debates	-12741
▁drought	-12742
▁elected	-12743
▁flavors	-12744
▁graying	-12745
▁onwards	-12746
▁reaches	-12747
▁ringing	-12748
▁shampoo	-12749
▁tedious	-12750
▁vinegar	-12751
ropolitan	-12752
▁Buddhism	-12753
▁adoption	-12754
▁consumed	-12755
▁determin	-12756
▁guidance	-12757
▁historic	-12758
▁lifespan	-12759
▁measured	-12760
▁reflects	-12761
▁teamwork	-12762
▁Chemistry	-12763
▁Insurance	-12764
▁christmas	-12765
▁exploring	-12766
▁inflation	-12767
▁projected	-12768
▁provision	-12769
▁Wonderland	-12770
▁commitment	-12771
▁describing	-12772
▁disastrous	-12773
▁microphone	-12774
▁paragraphs	-12775
▁relaxation	-12776
▁respective	-12777
▁undergoing	-12778
▁commercials	-12779
▁frustration	-12780
▁furthermore	-12781
▁spectacular	-12782
▁availability	-12783
▁laboratories	-12784
▁consciousness	-12785
▁inappropriate	-12786
▁pronunciations	-12787
87	-12788
HA	-12789
bi	-12790
hl	-12791
oi	-12792
va	-12793
▁°	-12794
-it	-12795
APP	-12796
ATE	-12797
ESS	-12798
agu	-12799
cam	-12800
hia	-12801
lar	-12802
sey	-12803
▁AP	-12804
▁Cy	-12805
▁IC	-12806
enth	-12807
helf	-12808
▁Dom	-12809
▁FRI	-12810
▁McC	-12811
▁SUM	-12812
▁Set	-12813
▁Sex	-12814
▁Tax	-12815
▁Tok	-12816
▁Umm	-12817
▁Val	-12818
▁Ver	-12819
▁Zoo	-12820
▁vet	-12821
anies	-12822
green	-12823
hones	-12824
ourse	-12825
print	-12826
▁Dora	-12827
▁LIFE	-12828
▁dyed	-12829
▁lane	-12830
▁mice	-12831
▁plug	-12832
▁poly	-12833
▁ware	-12834
istant	-12835
orious	-12836
stream	-12837
urches	-12838
verted	-12839
▁Chris	-12840
▁Diego	-12841
▁Doing	-12842
▁Early	-12843
▁Excel	-12844
▁Faith	-12845
▁Henry	-12846
▁blond	-12847
▁booth	-12848
▁cryst	-12849
▁devil	-12850
▁fries	-12851
▁knock	-12852
▁mayor	-12853
▁naive	-12854
▁rival	-12855
▁rugby	-12856
▁uncon	-12857
▁wives	-12858
because	-12859
▁Budget	-12860
▁Custom	-12861
▁Taylor	-12862
▁Vienna	-12863
▁bubble	-12864
▁fixing	-12865
▁prince	-12866
▁relate	-12867
▁tragic	-12868
▁wisely	-12869
▁worthy	-12870
boarding	-12871
▁Goodbye	-12872
▁Samurai	-12873
▁charges	-12874
▁cleared	-12875
▁confess	-12876
▁excuses	-12877
▁feather	-12878
▁fluency	-12879
▁ongoing	-12880
▁samples	-12881
▁thereby	-12882
liography	-12883
▁Engineer	-12884
▁Scotland	-12885
▁Teachers	-12886
▁centimet	-12887
▁cheating	-12888
▁declared	-12889
▁disliked	-12890
▁distress	-12891
▁energies	-12892
▁floating	-12893
▁globally	-12894
▁goldfish	-12895
▁moderate	-12896
▁nutshell	-12897
▁shameful	-12898
▁Everytime	-12899
▁Inception	-12900
▁allowance	-12901
▁collapsed	-12902
▁hairdress	-12903
▁informing	-12904
▁injection	-12905
▁secretary	-12906
▁Foundation	-12907
▁Huntington	-12908
▁attracting	-12909
▁bookstores	-12910
▁ceremonies	-12911
▁consulting	-12912
▁convention	-12913
▁generators	-12914
▁statements	-12915
▁businessmen	-12916
▁demonstrate	-12917
▁orientation	-12918
▁overwhelmed	-12919
▁practically	-12920
▁understands	-12921
▁catastrophic	-12922
▁installation	-12923
▁psychologists	-12924
44	-12925
ii	-12926
APH	-12927
ARA	-12928
RC&	-12929
cgi	-12930
▁56	-12931
▁AF	-12932
▁F.	-12933
▁GW	-12934
▁SA	-12935
▁fm	-12936
▁um	-12937
cano	-12938
hiro	-12939
ucle	-12940
wear	-12941
▁Asa	-12942
▁CIT	-12943
▁Cra	-12944
▁Hol	-12945
▁Jay	-12946
▁Kab	-12947
▁Occ	-12948
▁Rap	-12949
▁Var	-12950
▁tob	-12951
alled	-12952
angel	-12953
arbon	-12954
arent	-12955
essim	-12956
inson	-12957
limin	-12958
undam	-12959
▁Blog	-12960
▁Card	-12961
▁Conf	-12962
▁Dark	-12963
▁E.M.	-12964
▁Shen	-12965
▁Spec	-12966
▁beet	-12967
▁mile	-12968
▁mins	-12969
▁obey	-12970
▁tact	-12971
▁tape	-12972
acious	-12973
ndrome	-12974
▁Blood	-12975
▁Citiz	-12976
▁Disco	-12977
▁Plant	-12978
▁Sleep	-12979
▁Tiger	-12980
▁Words	-12981
▁chase	-12982
▁compr	-12983
▁indul	-12984
▁knees	-12985
▁links	-12986
▁logic	-12987
▁males	-12988
▁mochi	-12989
▁pains	-12990
▁piled	-12991
▁rises	-12992
▁salts	-12993
▁sizes	-12994
▁union	-12995
english	-12996
▁Ethics	-12997
▁Giants	-12998
▁Iphone	-12999
▁Mobile	-13000
▁Resort	-13001
▁addict	-13002
▁calmly	-13003
▁closet	-13004
▁couldn	-13005
▁farmer	-13006
▁funded	-13007
▁garage	-13008
▁heroes	-13009
▁iTunes	-13010
▁incomp	-13011
▁locals	-13012
▁marked	-13013
▁pessim	-13014
▁poorer	-13015
▁sticks	-13016
▁sweaty	-13017
▁taller	-13018
▁treats	-13019
▁turkey	-13020
ensively	-13021
▁Brother	-13022
▁Current	-13023
▁Running	-13024
▁Samsung	-13025
▁accompl	-13026
▁apology	-13027
▁donated	-13028
▁flights	-13029
▁flowing	-13030
▁fucking	-13031
▁lasting	-13032
▁melting	-13033
▁partial	-13034
▁pickled	-13035
▁quicker	-13036
▁seaweed	-13037
▁viruses	-13038
▁//www.ne	-13039
▁Question	-13040
▁Swimming	-13041
▁ambition	-13042
▁comedian	-13043
▁counting	-13044
▁donation	-13045
▁goodness	-13046
▁knitting	-13047
▁merchand	-13048
▁monsters	-13049
▁password	-13050
▁quitting	-13051
▁regional	-13052
▁sneakers	-13053
▁sociable	-13054
employment	-13055
▁calculate	-13056
▁component	-13057
▁exchanges	-13058
▁fulfilled	-13059
▁nostalgic	-13060
▁primarily	-13061
▁redundant	-13062
▁screening	-13063
▁teammates	-13064
▁tiredness	-13065
▁introduces	-13066
▁pretending	-13067
▁priorities	-13068
▁Introducing	-13069
▁accumulated	-13070
▁acknowledge	-13071
▁businessman	-13072
▁flexibility	-13073
▁inefficient	-13074
▁investigate	-13075
▁obligations	-13076
▁supplements	-13077
▁threatening	-13078
▁arrangements	-13079
▁demonstrated	-13080
▁satisfactory	-13081
-R	-13082
55	-13083
D.	-13084
IKE	-13085
TRE	-13086
avy	-13087
col	-13088
eem	-13089
gia	-13090
net	-13091
oda	-13092
▁3M	-13093
▁54	-13094
▁nu	-13095
,200	-13096
-res	-13097
ALLY	-13098
aire	-13099
assy	-13100
mers	-13101
onos	-13102
rail	-13103
stud	-13104
upun	-13105
▁Equ	-13106
▁HAD	-13107
▁Hik	-13108
▁Hit	-13109
▁Kon	-13110
▁MBA	-13111
▁Mai	-13112
▁Sri	-13113
▁Sym	-13114
▁Wak	-13115
▁civ	-13116
▁rus	-13117
▁sar	-13118
erate	-13119
ilder	-13120
iners	-13121
morow	-13122
think	-13123
▁1900	-13124
▁Expo	-13125
▁Line	-13126
▁Obon	-13127
▁Soba	-13128
▁lean	-13129
▁nurt	-13130
▁outs	-13131
▁p.m.	-13132
▁pier	-13133
▁rays	-13134
▁rods	-13135
▁shed	-13136
▁shit	-13137
▁soda	-13138
ancers	-13139
ashing	-13140
ashita	-13141
▁Nepal	-13142
▁aired	-13143
▁breed	-13144
▁incap	-13145
▁nicer	-13146
▁panel	-13147
▁relay	-13148
▁squee	-13149
▁trump	-13150
channel	-13151
▁Buddha	-13152
▁Gossip	-13153
▁Humans	-13154
▁Michel	-13155
▁Naruto	-13156
▁Police	-13157
▁Unless	-13158
▁backup	-13159
▁cotton	-13160
▁delete	-13161
▁fisher	-13162
▁kitten	-13163
▁marine	-13164
▁owning	-13165
▁routes	-13166
▁shares	-13167
▁spends	-13168
▁staffs	-13169
icularly	-13170
ilarious	-13171
newsasia	-13172
unicipal	-13173
▁Titanic	-13174
▁Whereas	-13175
▁analyse	-13176
▁athlete	-13177
▁awarded	-13178
▁emitted	-13179
▁harmony	-13180
▁imitate	-13181
▁inherit	-13182
▁lantern	-13183
▁pollute	-13184
▁steamed	-13185
▁visitor	-13186
▁watashi	-13187
ationally	-13188
▁allocate	-13189
▁brighter	-13190
▁controls	-13191
▁cosmetic	-13192
▁currency	-13193
▁dolphins	-13194
▁flavored	-13195
▁inclined	-13196
▁inviting	-13197
▁musicals	-13198
▁packages	-13199
▁portrait	-13200
▁resigned	-13201
▁reviewed	-13202
▁starving	-13203
▁tommorow	-13204
▁addiction	-13205
▁appliance	-13206
▁dissatisf	-13207
▁fireflies	-13208
▁generates	-13209
▁pertinent	-13210
▁precisely	-13211
▁residence	-13212
▁suspended	-13213
▁tolerance	-13214
urveillance	-13215
▁Literature	-13216
▁allocation	-13217
▁boyfriends	-13218
▁consistent	-13219
▁peacefully	-13220
▁preference	-13221
▁preventive	-13222
▁suspicious	-13223
▁butterflies	-13224
▁catastrophe	-13225
▁circulation	-13226
▁utilization	-13227
▁translations	-13228
▁concentrating	-13229
▁discriminated	-13230
▁pharmaceutical	-13231
&m	-13232
52	-13233
UG	-13234
wh	-13235
.ca	-13236
.nl	-13237
ACK	-13238
AMA	-13239
ask	-13240
hma	-13241
htr	-13242
ico	-13243
nge	-13244
vin	-13245
whe	-13246
▁43	-13247
▁52	-13248
▁HT	-13249
▁hu	-13250
▁yo	-13251
ains	-13252
chin	-13253
ghan	-13254
moon	-13255
olly	-13256
racy	-13257
vell	-13258
walk	-13259
west	-13260
▁Aff	-13261
▁Ger	-13262
▁MAN	-13263
▁Mia	-13264
▁Pir	-13265
▁Sud	-13266
▁Sug	-13267
▁arc	-13268
▁bin	-13269
▁hmm	-13270
▁pip	-13271
aming	-13272
angle	-13273
azine	-13274
oshop	-13275
othes	-13276
proof	-13277
rians	-13278
stats	-13279
ville	-13280
▁Adam	-13281
▁MSRs	-13282
▁Xmas	-13283
▁ants	-13284
▁dumb	-13285
▁elig	-13286
▁pale	-13287
▁porn	-13288
▁toll	-13289
/pdfs/	-13290
aments	-13291
eactor	-13292
forced	-13293
former	-13294
orable	-13295
people	-13296
screen	-13297
▁Cross	-13298
▁Memor	-13299
▁Pizza	-13300
▁Solar	-13301
▁Stone	-13302
▁angle	-13303
▁flute	-13304
▁loses	-13305
▁march	-13306
▁moist	-13307
▁nasty	-13308
▁rolls	-13309
▁scare	-13310
▁thief	-13311
▁unpre	-13312
▁very-	-13313
fection	-13314
station	-13315
▁Edison	-13316
▁Garden	-13317
▁Gundam	-13318
▁Within	-13319
▁guided	-13320
▁hugged	-13321
▁recite	-13322
▁senses	-13323
▁traine	-13324
▁unsafe	-13325
Japanese	-13326
ountable	-13327
security	-13328
▁Belgium	-13329
▁Convers	-13330
▁Keeping	-13331
▁MacBook	-13332
▁Weather	-13333
▁boredom	-13334
▁calorie	-13335
▁exhibit	-13336
▁farming	-13337
▁organis	-13338
▁tracked	-13339
▁Changing	-13340
▁Hakodate	-13341
▁commuter	-13342
▁estimate	-13343
▁freshmen	-13344
▁homesick	-13345
▁recalled	-13346
▁restruct	-13347
▁suitcase	-13348
▁Companies	-13349
▁Photoshop	-13350
▁appealing	-13351
▁astronaut	-13352
▁colourful	-13353
▁compelled	-13354
▁container	-13355
▁converted	-13356
▁greetings	-13357
▁hilarious	-13358
▁minimized	-13359
▁placement	-13360
▁umbrellas	-13361
▁underwear	-13362
▁witnessed	-13363
▁Faithfully	-13364
▁Petersburg	-13365
▁classrooms	-13366
▁developers	-13367
▁occurrence	-13368
▁presenting	-13369
▁Corporation	-13370
▁Traditional	-13371
▁detrimental	-13372
▁highlighted	-13373
▁precautions	-13374
▁preposition	-13375
.com/articles	-13376
▁Bibliography	-13377
▁Christianity	-13378
▁constitution	-13379
▁continuation	-13380
▁experimental	-13381
▁governmental	-13382
▁registration	-13383
-D	-13384
.9	-13385
42	-13386
...	-13387
ARD	-13388
ECT	-13389
MER	-13390
Res	-13391
iva	-13392
run	-13393
▁IF	-13394
▁MA	-13395
▁TS	-13396
▁Wu	-13397
▁cm	-13398
▁fu	-13399
▁ye	-13400
IECE	-13401
acco	-13402
cuss	-13403
iaea	-13404
iana	-13405
inds	-13406
plan	-13407
real	-13408
sylv	-13409
uggy	-13410
vals	-13411
▁Kin	-13412
▁Mer	-13413
▁Sat	-13414
▁XXX	-13415
▁hey	-13416
▁lip	-13417
▁rou	-13418
ieces	-13419
oward	-13420
zards	-13421
▁1993	-13422
▁Bell	-13423
▁Dawn	-13424
▁Dist	-13425
▁Sher	-13426
▁Wang	-13427
▁alar	-13428
▁buys	-13429
▁disl	-13430
▁funn	-13431
▁mock	-13432
▁newb	-13433
▁perm	-13434
▁reap	-13435
hester	-13436
nature	-13437
ometer	-13438
person	-13439
ptions	-13440
upload	-13441
▁Books	-13442
▁Coast	-13443
▁Dance	-13444
▁Motor	-13445
▁Royal	-13446
▁Small	-13447
▁chart	-13448
▁choir	-13449
▁creep	-13450
▁cries	-13451
▁firms	-13452
▁hered	-13453
▁incom	-13454
▁lakes	-13455
▁liver	-13456
▁peach	-13457
▁pills	-13458
▁scent	-13459
▁scoot	-13460
▁self-	-13461
▁tales	-13462
▁tours	-13463
▁wakes	-13464
▁wheat	-13465
▁Aussie	-13466
▁Bridge	-13467
▁Reason	-13468
▁Venice	-13469
▁cooker	-13470
▁planed	-13471
▁sakura	-13472
▁sewing	-13473
▁shorts	-13474
▁spider	-13475
▁superi	-13476
▁tunnel	-13477
▁varied	-13478
▁yelled	-13479
/content	-13480
function	-13481
pectives	-13482
▁Musical	-13483
▁Pokemon	-13484
▁Strange	-13485
▁conquer	-13486
▁deleted	-13487
▁essence	-13488
▁formula	-13489
▁naughty	-13490
▁relying	-13491
▁shelves	-13492
▁swallow	-13493
▁tissues	-13494
▁waiters	-13495
ictionary	-13496
istically	-13497
upuncture	-13498
▁Doraemon	-13499
▁Likewise	-13500
▁acquired	-13501
▁affluent	-13502
▁annually	-13503
▁bullying	-13504
▁charging	-13505
▁clinical	-13506
▁defining	-13507
▁desserts	-13508
▁eighteen	-13509
▁helpless	-13510
▁memorial	-13511
▁prelimin	-13512
▁thirteen	-13513
▁Anonymous	-13514
▁Naturally	-13515
▁blackouts	-13516
▁bookshelf	-13517
▁corrosion	-13518
▁offspring	-13519
▁pacemaker	-13520
▁prospects	-13521
▁repeating	-13522
▁sensation	-13523
▁Penicillin	-13524
▁congestion	-13525
▁destroying	-13526
▁initiative	-13527
▁questioned	-13528
▁smartphone	-13529
▁threatened	-13530
▁undoubtedly	-13531
▁Particularly	-13532
▁accomplished	-13533
▁receptionist	-13534
▁infrastructures	-13535
/D	-13536
_c	-13537
bl	-13538
yy	-13539
ECD	-13540
oqu	-13541
shi	-13542
▁41	-13543
▁Du	-13544
▁Ep	-13545
▁Fi	-13546
▁KN	-13547
▁LE	-13548
▁Oz	-13549
anka	-13550
asen	-13551
asis	-13552
ause	-13553
dles	-13554
emic	-13555
icop	-13556
ione	-13557
onia	-13558
sien	-13559
uten	-13560
▁Dal	-13561
▁Est	-13562
▁FIF	-13563
▁Gar	-13564
▁Lun	-13565
▁MON	-13566
▁MP3	-13567
▁Mie	-13568
▁Nap	-13569
▁PS3	-13570
▁Pod	-13571
▁asp	-13572
▁bee	-13573
▁lav	-13574
▁roy	-13575
▁som	-13576
break	-13577
ellow	-13578
esign	-13579
ical-	-13580
ights	-13581
igiri	-13582
isoba	-13583
otion	-13584
space	-13585
track	-13586
utter	-13587
▁2020	-13588
▁4000	-13589
▁Boys	-13590
▁Gene	-13591
▁Glee	-13592
▁Hara	-13593
▁Ibar	-13594
▁Jeff	-13595
▁Link	-13596
▁Manc	-13597
▁OECD	-13598
▁avoc	-13599
▁bold	-13600
▁clay	-13601
▁gall	-13602
▁iced	-13603
▁mast	-13604
▁wool	-13605
insula	-13606
lights	-13607
oyalty	-13608
riages	-13609
▁19.00	-13610
▁1990s	-13611
▁20000	-13612
▁Hsien	-13613
▁Loong	-13614
▁Movie	-13615
▁Onsen	-13616
▁Polic	-13617
▁Sport	-13618
▁actin	-13619
▁babys	-13620
▁bento	-13621
▁burnt	-13622
▁cents	-13623
▁nerve	-13624
angered	-13625
glasses	-13626
igently	-13627
umbling	-13628
uration	-13629
▁Change	-13630
▁Contin	-13631
▁Hakone	-13632
▁asthma	-13633
▁elabor	-13634
▁exotic	-13635
▁frying	-13636
▁grants	-13637
▁handwr	-13638
▁hectic	-13639
▁joking	-13640
▁landed	-13641
▁louder	-13642
▁median	-13643
▁overhe	-13644
▁radish	-13645
▁rechar	-13646
▁runner	-13647
▁sketch	-13648
▁sliced	-13649
▁stalls	-13650
▁viewed	-13651
cedented	-13652
sylvania	-13653
▁Austria	-13654
▁Fleming	-13655
▁Further	-13656
▁Hearing	-13657
▁Nanjing	-13658
▁Regards	-13659
▁Uranium	-13660
▁arguing	-13661
▁chasing	-13662
▁cicadas	-13663
▁dancers	-13664
▁ensured	-13665
▁estates	-13666
▁explode	-13667
▁helicop	-13668
▁protein	-13669
▁puzzled	-13670
▁removal	-13671
▁romance	-13672
▁spoiled	-13673
▁tasting	-13674
▁thieves	-13675
▁thirsty	-13676
▁trumpet	-13677
▁venture	-13678
▁Princess	-13679
▁Problems	-13680
▁begining	-13681
▁comedies	-13682
▁detected	-13683
▁earliest	-13684
▁husbands	-13685
▁instinct	-13686
▁mosquito	-13687
▁pancakes	-13688
▁reliance	-13689
▁reserves	-13690
▁takoyaki	-13691
▁vitamins	-13692
oh.gov.sg/	-13693
▁Afterward	-13694
▁Economist	-13695
▁afterward	-13696
▁believing	-13697
▁bothering	-13698
▁desirable	-13699
▁exercised	-13700
▁extension	-13701
▁lightning	-13702
▁pressures	-13703
▁strengths	-13704
▁adventures	-13705
▁decoration	-13706
▁dependence	-13707
▁negatively	-13708
▁undeniable	-13709
▁inhabitants	-13710
▁prefectures	-13711
▁Pennsylvania	-13712
▁hospitalized	-13713
▁administrative	-13714
▁rehabilitation	-13715
/B	-13716
/W	-13717
UE	-13718
ez	-13719
zo	-13720
AYS	-13721
boy	-13722
bra	-13723
eor	-13724
imb	-13725
iro	-13726
isb	-13727
moh	-13728
won	-13729
▁46	-13730
▁49	-13731
▁DP	-13732
▁FF	-13733
▁Gy	-13734
▁Kh	-13735
▁Ut	-13736
-the	-13737
amel	-13738
asal	-13739
away	-13740
bert	-13741
rong	-13742
tech	-13743
▁//d	-13744
▁000	-13745
▁101	-13746
▁Hay	-13747
▁MAR	-13748
▁MIT	-13749
▁Sib	-13750
▁Win	-13751
▁coz	-13752
▁cub	-13753
▁cul	-13754
▁hem	-13755
▁hir	-13756
▁irr	-13757
▁lap	-13758
▁por	-13759
▁vom	-13760
-reli	-13761
/2007	-13762
/2008	-13763
achel	-13764
hibli	-13765
paper	-13766
press	-13767
thics	-13768
▁//in	-13769
▁Carl	-13770
▁Days	-13771
▁Jean	-13772
▁Stop	-13773
▁Term	-13774
▁adds	-13775
▁brid	-13776
▁budd	-13777
▁cage	-13778
▁clar	-13779
▁ende	-13780
▁lamp	-13781
▁mere	-13782
▁nabe	-13783
▁semi	-13784
▁suck	-13785
▁terr	-13786
▁vain	-13787
OGRAPH	-13788
mohcor	-13789
oguchi	-13790
orized	-13791
pecial	-13792
perate	-13793
▁10.00	-13794
▁Asahi	-13795
▁Iwate	-13796
▁Milan	-13797
▁PIECE	-13798
▁Phill	-13799
▁Trade	-13800
▁Video	-13801
▁ankle	-13802
▁clips	-13803
▁crush	-13804
▁desks	-13805
▁loads	-13806
▁monop	-13807
▁muggy	-13808
▁sauna	-13809
&parent	-13810
liament	-13811
▁Afghan	-13812
▁Anyhow	-13813
▁Arabia	-13814
▁Justin	-13815
▁Plants	-13816
▁Yukata	-13817
▁deadly	-13818
▁deemed	-13819
▁ethics	-13820
▁feared	-13821
▁fiance	-13822
▁floods	-13823
▁insult	-13824
▁kicked	-13825
▁kissed	-13826
▁majors	-13827
▁nerves	-13828
▁prizes	-13829
▁queues	-13830
▁resemb	-13831
▁tablet	-13832
-Testing	-13833
_reactor	-13834
▁Formula	-13835
▁Richard	-13836
▁Swedish	-13837
▁behaved	-13838
▁burdens	-13839
▁circuit	-13840
▁clearer	-13841
▁dieting	-13842
▁leaking	-13843
▁longing	-13844
▁marvell	-13845
▁midterm	-13846
▁pancake	-13847
▁stretch	-13848
▁tempura	-13849
▁tightly	-13850
▁trigger	-13851
▁workout	-13852
▁Teaching	-13853
▁apparent	-13854
▁churches	-13855
▁elephant	-13856
▁literacy	-13857
▁paradise	-13858
▁pursuing	-13859
▁releases	-13860
▁salesman	-13861
▁writings	-13862
▁//www.sci	-13863
▁Greenwich	-13864
▁adjective	-13865
▁cockroach	-13866
▁diversity	-13867
▁excursion	-13868
▁forbidden	-13869
▁rehearsal	-13870
▁//www.iaea	-13871
▁//www.rfid	-13872
▁Challenger	-13873
▁Regardless	-13874
▁accidental	-13875
▁simplified	-13876
▁anticipated	-13877
▁tremendously	-13878
▁Environmental	-13879
▁determination	-13880
Genetic-Testing	-13881
oh.gov.sg/mohcor	-13882
▁technologically	-13883
/3	-13884
BT	-13885
HS	-13886
/10	-13887
ann	-13888
ape	-13889
chu	-13890
see	-13891
▁47	-13892
▁67	-13893
▁Bh	-13894
▁Ip	-13895
▁RP	-13896
▁UF	-13897
ENDS	-13898
enda	-13899
iche	-13900
olis	-13901
orns	-13902
orse	-13903
▁//g	-13904
▁DIS	-13905
▁Enc	-13906
▁Fif	-13907
▁Ill	-13908
▁Jam	-13909
▁LCD	-13910
▁Mir	-13911
▁NUS	-13912
▁Suk	-13913
▁Tib	-13914
▁WBC	-13915
▁fox	-13916
▁lob	-13917
▁rul	-13918
apple	-13919
beans	-13920
iment	-13921
ollen	-13922
omnia	-13923
rates	-13924
ushes	-13925
▁Brad	-13926
▁Dead	-13927
▁EVER	-13928
▁Fair	-13929
▁Fuel	-13930
▁LOVE	-13931
▁Meet	-13932
▁Pers	-13933
▁Pict	-13934
▁Roll	-13935
▁Team	-13936
▁anch	-13937
▁deck	-13938
▁lied	-13939
▁pics	-13940
▁pp.1	-13941
▁ties	-13942
▁warn	-13943
aholic	-13944
ailing	-13945
ancies	-13946
aneous	-13947
ernity	-13948
ersion	-13949
ittens	-13950
rticle	-13951
umbled	-13952
▁Otaku	-13953
▁Train	-13954
▁gross	-13955
▁kills	-13956
▁manip	-13957
▁merit	-13958
▁peers	-13959
▁pyram	-13960
▁sends	-13961
▁undes	-13962
▁wiped	-13963
agnetic	-13964
itating	-13965
ulatory	-13966
▁Active	-13967
▁Ghibli	-13968
▁Haneda	-13969
▁Heroes	-13970
▁Shinto	-13971
▁Soccer	-13972
▁Theory	-13973
▁assure	-13974
▁clerks	-13975
▁dreamt	-13976
▁intrig	-13977
▁learns	-13978
▁slices	-13979
▁slides	-13980
▁subord	-13981
▁traits	-13982
▁unsure	-13983
electric	-13984
ifically	-13985
singstat	-13986
▁Finding	-13987
▁Knowing	-13988
▁Protect	-13989
▁admired	-13990
▁blocked	-13991
▁compact	-13992
▁deliber	-13993
▁earnest	-13994
▁enabled	-13995
▁enforce	-13996
▁fathers	-13997
▁furious	-13998
▁interfe	-13999
▁kotatsu	-14000
▁planing	-14001
▁pressed	-14002
▁renting	-14003
▁rescued	-14004
▁revised	-14005
▁sixteen	-14006
▁teenage	-14007
▁toilets	-14008
▁turbine	-14009
▁Baseball	-14010
▁citation	-14011
▁contacts	-14012
▁converse	-14013
▁forehead	-14014
▁juggling	-14015
▁maximize	-14016
▁necklace	-14017
▁recieved	-14018
▁vocalist	-14019
▁Malaysian	-14020
▁Materials	-14021
▁allergies	-14022
▁educating	-14023
▁gardening	-14024
▁hazardous	-14025
▁maternity	-14026
▁preserved	-14027
▁prevalent	-14028
▁reviewing	-14029
▁strangely	-14030
▁universal	-14031
▁wrestlers	-14032
▁Conclusion	-14033
▁designated	-14034
▁emphasized	-14035
▁endangered	-14036
▁fulfilling	-14037
▁guidelines	-14038
▁stretching	-14039
▁exaggerated	-14040
▁ineffective	-14041
▁influential	-14042
▁smartphones	-14043
▁susceptible	-14044
▁Architecture	-14045
channelnewsasia	-14046
.6	-14047
/M	-14048
hr	-14049
ml	-14050
/09	-14051
651	-14052
AND	-14053
CFR	-14054
ECH	-14055
Ins	-14056
OSS	-14057
UST	-14058
cho	-14059
ede	-14060
law	-14061
ogo	-14062
▁05	-14063
▁CM	-14064
▁Ol	-14065
▁ji	-14066
▁ko	-14067
▁xx	-14068
----	-14069
2006	-14070
file	-14071
hana	-14072
just	-14073
mary	-14074
orow	-14075
pace	-14076
pher	-14077
▁CAM	-14078
▁HOW	-14079
▁Kou	-14080
▁Shu	-14081
▁TED	-14082
▁Ted	-14083
▁Vac	-14084
▁apt	-14085
▁cel	-14086
▁hyp	-14087
▁kin	-14088
ensed	-14089
inity	-14090
isite	-14091
istor	-14092
reens	-14093
▁1987	-14094
▁Auck	-14095
▁Band	-14096
▁FIFA	-14097
▁None	-14098
▁Poor	-14099
▁Want	-14100
▁bins	-14101
▁carn	-14102
▁cozy	-14103
▁dose	-14104
▁drow	-14105
▁inch	-14106
▁lawn	-14107
▁lent	-14108
▁myth	-14109
▁punk	-14110
▁seal	-14111
▁unim	-14112
-aging	-14113
/news/	-14114
airies	-14115
ciated	-14116
icking	-14117
unting	-14118
vation	-14119
▁aerob	-14120
▁dimin	-14121
▁handy	-14122
▁idiot	-14123
▁meats	-14124
▁restr	-14125
▁scuba	-14126
▁tokyo	-14127
▁tones	-14128
▁Berlin	-14129
▁Steven	-14130
▁Valley	-14131
▁antibi	-14132
▁merits	-14133
▁prayer	-14134
▁robber	-14135
▁thread	-14136
/genetic	-14137
enditure	-14138
▁Eschede	-14139
▁FRIENDS	-14140
▁Forrest	-14141
▁Hanshin	-14142
▁confron	-14143
▁doubted	-14144
▁grounds	-14145
▁iPhone4	-14146
▁listens	-14147
▁loyalty	-14148
▁mineral	-14149
▁nowhere	-14150
▁pottery	-14151
▁reverse	-14152
▁roasted	-14153
▁russian	-14154
▁servant	-14155
▁surgeon	-14156
▁symptom	-14157
▁worship	-14158
yclopedia	-14159
▁Auckland	-14160
▁Congress	-14161
▁Policies	-14162
▁accessed	-14163
▁adopting	-14164
▁adorable	-14165
▁analyzed	-14166
▁arrogant	-14167
▁attempts	-14168
▁declined	-14169
▁drawings	-14170
▁earrings	-14171
▁envelope	-14172
▁hiragana	-14173
▁humorous	-14174
▁needless	-14175
▁protagon	-14176
▁sciences	-14177
▁upgraded	-14178
▁Traveling	-14179
▁audiences	-14180
▁belonging	-14181
▁birthdays	-14182
▁comedians	-14183
▁enhancing	-14184
▁expresses	-14185
▁inventing	-14186
▁processed	-14187
▁realizing	-14188
▁suspected	-14189
▁varieties	-14190
▁welcoming	-14191
▁Concerning	-14192
▁Throughout	-14193
▁ecological	-14194
▁harmonious	-14195
▁institutes	-14196
▁objectives	-14197
▁originated	-14198
▁hairdresser	-14199
▁instruction	-14200
▁circumstance	-14201
▁compensation	-14202
▁grandchildren	-14203
88	-14204
CC	-14205
OA	-14206
iw	-14207
jy	-14208
-20	-14209
.10	-14210
100	-14211
Pro	-14212
bud	-14213
ete	-14214
fam	-14215
i10	-14216
uda	-14217
ugo	-14218
uko	-14219
weg	-14220
▁AG	-14221
▁Xi	-14222
▁Yo	-14223
.doe	-14224
ador	-14225
alsa	-14226
ault	-14227
gary	-14228
iden	-14229
umin	-14230
▁//m	-14231
▁ARE	-14232
▁Dr.	-14233
▁Gay	-14234
▁Him	-14235
▁ICE	-14236
▁Kit	-14237
▁Lar	-14238
▁Pos	-14239
▁SAT	-14240
▁Sem	-14241
▁Sus	-14242
▁Yan	-14243
▁abo	-14244
▁esp	-14245
andal	-14246
aseda	-14247
ether	-14248
matic	-14249
ochem	-14250
organ	-14251
quest	-14252
renew	-14253
▁00AM	-14254
▁Dome	-14255
▁Golf	-14256
▁Nabe	-14257
▁Peru	-14258
▁Prom	-14259
▁Triv	-14260
▁chir	-14261
▁dirt	-14262
▁feat	-14263
▁impr	-14264
▁mold	-14265
▁peel	-14266
▁pigs	-14267
▁stam	-14268
▁tram	-14269
hentic	-14270
igrate	-14271
ocracy	-14272
ortune	-14273
uality	-14274
uating	-14275
▁Fresh	-14276
▁Lucky	-14277
▁Lunar	-14278
▁chaos	-14279
▁chili	-14280
▁inton	-14281
▁loyal	-14282
▁risky	-14283
▁timer	-14284
▁versa	-14285
▁wages	-14286
OGRAPHY	-14287
aration	-14288
bitious	-14289
ersonal	-14290
ignific	-14291
isition	-14292
istical	-14293
regular	-14294
▁Helium	-14295
▁SUMMER	-14296
▁Yellow	-14297
▁awards	-14298
▁backst	-14299
▁commod	-14300
▁deploy	-14301
▁firmly	-14302
▁guides	-14303
▁harass	-14304
▁layers	-14305
▁leaked	-14306
▁losses	-14307
▁orphan	-14308
▁pollut	-14309
▁scarce	-14310
▁snakes	-14311
▁spices	-14312
▁stocks	-14313
▁worlds	-14314
asonable	-14315
▁Roadmap	-14316
▁arising	-14317
▁bathing	-14318
▁brushed	-14319
▁budgets	-14320
▁cabinet	-14321
▁candles	-14322
▁feeding	-14323
▁harness	-14324
▁immense	-14325
▁leaning	-14326
▁lightly	-14327
▁pharmac	-14328
▁placing	-14329
▁seventh	-14330
▁wishing	-14331
▁CITATION	-14332
▁Northern	-14333
▁Yakiniku	-14334
▁adjusted	-14335
▁backache	-14336
▁captured	-14337
▁deprived	-14338
▁dressing	-14339
▁featured	-14340
▁fruitful	-14341
▁mainland	-14342
▁mushroom	-14343
▁obsessed	-14344
▁painters	-14345
▁planting	-14346
▁postcard	-14347
▁scarcity	-14348
▁sequence	-14349
▁spectrum	-14350
▁sympathi	-14351
▁thriller	-14352
/singapore	-14353
m.nih.gov/	-14354
▁Canadians	-14355
▁Southeast	-14356
▁acquiring	-14357
▁financing	-14358
▁guitarist	-14359
▁honeymoon	-14360
▁imaginary	-14361
▁mastering	-14362
▁pregnancy	-14363
▁prejudice	-14364
▁soooooooo	-14365
otechnology	-14366
▁Manchester	-14367
▁acquainted	-14368
▁hereditary	-14369
▁installing	-14370
▁intentions	-14371
▁marvellous	-14372
▁mosquitoes	-14373
▁spectators	-14374
▁Photography	-14375
▁centimeters	-14376
▁initiatives	-14377
▁operational	-14378
▁progressive	-14379
▁Incidentally	-14380
▁Specifically	-14381
▁appointments	-14382
▁establishing	-14383
▁prescription	-14384
▁illustrations	-14385
▁unprecedented	-14386
/N	-14387
01	-14388
24	-14389
GB	-14390
NY	-14391
PL	-14392
PR	-14393
AGE	-14394
ATS	-14395
ONG	-14396
OUR	-14397
hea	-14398
nie	-14399
oni	-14400
ova	-14401
ubs	-14402
▁Au	-14403
▁HK	-14404
▁IP	-14405
▁ML	-14406
▁WR	-14407
aily	-14408
ends	-14409
eter	-14410
find	-14411
ihon	-14412
isen	-14413
▁Ans	-14414
▁BIB	-14415
▁BIG	-14416
▁Bow	-14417
▁Ele	-14418
▁Hai	-14419
▁Pic	-14420
▁VOA	-14421
▁sax	-14422
▁thr	-14423
afety	-14424
atomy	-14425
farin	-14426
rived	-14427
ureau	-14428
▁30pm	-14429
▁Core	-14430
▁Dest	-14431
▁Haya	-14432
▁Maca	-14433
▁Mill	-14434
▁Much	-14435
▁OVER	-14436
▁RAIN	-14437
▁Resp	-14438
▁Shan	-14439
▁caut	-14440
▁cogn	-14441
▁coke	-14442
▁ecos	-14443
▁fart	-14444
▁holy	-14445
▁skys	-14446
▁soak	-14447
6.html	-14448
alysis	-14449
ankind	-14450
iguous	-14451
online	-14452
stroke	-14453
▁30000	-14454
▁Curry	-14455
▁Entry	-14456
▁Miami	-14457
▁aches	-14458
▁alike	-14459
▁bacon	-14460
▁basil	-14461
▁colds	-14462
▁embed	-14463
▁kitty	-14464
▁nouns	-14465
▁outer	-14466
▁overt	-14467
▁owing	-14468
▁purif	-14469
▁ruins	-14470
▁souls	-14471
▁spong	-14472
▁squid	-14473
▁thats	-14474
edical-	-14475
ivities	-14476
ocation	-14477
▁Effect	-14478
▁Intell	-14479
▁Jewish	-14480
▁Norway	-14481
▁Rachel	-14482
▁Resear	-14483
▁Waseda	-14484
▁copies	-14485
▁fulfil	-14486
▁hooked	-14487
▁jogged	-14488
▁mailed	-14489
▁medals	-14490
▁quoted	-14491
▁tracks	-14492
▁worsen	-14493
▁Calgary	-14494
▁Defense	-14495
▁Develop	-14496
▁Disease	-14497
▁Mondays	-14498
▁Okayama	-14499
▁Tourism	-14500
▁applies	-14501
▁canteen	-14502
▁density	-14503
▁dispute	-14504
▁evolved	-14505
▁headset	-14506
▁healing	-14507
▁pianist	-14508
▁pockets	-14509
▁posture	-14510
▁ranging	-14511
▁rebuild	-14512
▁screens	-14513
▁sweater	-14514
▁vampire	-14515
.doe.gov/	-14516
▁Hiragana	-14517
▁Kumamoto	-14518
▁duration	-14519
▁findings	-14520
▁fountain	-14521
▁murderer	-14522
▁randomly	-14523
▁recorder	-14524
▁removing	-14525
▁stealing	-14526
▁stresses	-14527
▁threaten	-14528
▁Accidents	-14529
▁Europeans	-14530
▁Upgrading	-14531
▁authentic	-14532
▁cucumbers	-14533
▁defective	-14534
▁detective	-14535
▁ecosystem	-14536
▁extracted	-14537
▁favorable	-14538
▁fragrance	-14539
▁incapable	-14540
▁interfere	-14541
▁interrupt	-14542
▁irregular	-14543
▁kilograms	-14544
▁municipal	-14545
▁organizer	-14546
▁particles	-14547
▁releasing	-14548
▁rewarding	-14549
▁scattered	-14550
▁thrilling	-14551
▁Christians	-14552
▁conducting	-14553
▁diligently	-14554
▁overweight	-14555
▁acupuncture	-14556
▁compromised	-14557
▁considerate	-14558
▁continually	-14559
▁discovering	-14560
▁frightening	-14561
▁linguistics	-14562
▁okonomiyaki	-14563
▁pessimistic	-14564
▁preliminary	-14565
▁wheelchairs	-14566
▁manufacturer	-14567
▁employability	-14568
▁//www.scienced	-14569
▁interpretation	-14570
▁organizational	-14571
singstat.gov.sg/	-14572
/d	-14573
41	-14574
59	-14575
IO	-14576
TV	-14577
dd	-14578
ARS	-14579
FER	-14580
ICE	-14581
TIS	-14582
_id	-14583
fan	-14584
isu	-14585
oki	-14586
ums	-14587
ysi	-14588
▁63	-14589
▁95	-14590
▁Ku	-14591
▁OV	-14592
▁PH	-14593
▁Py	-14594
▁Sn	-14595
▁ba	-14596
▁si	-14597
▁uk	-14598
-car	-14599
IGHT	-14600
Page	-14601
USHI	-14602
free	-14603
greg	-14604
hips	-14605
iscu	-14606
list	-14607
otha	-14608
oven	-14609
owed	-14610
rock	-14611
▁ABC	-14612
▁DON	-14613
▁DPJ	-14614
▁Doc	-14615
▁EIK	-14616
▁Ell	-14617
▁Hem	-14618
▁Kid	-14619
▁Pho	-14620
▁RED	-14621
▁Run	-14622
▁Tre	-14623
▁Vir	-14624
▁WHO	-14625
▁gaz	-14626
arded	-14627
asive	-14628
comes	-14629
ifest	-14630
inear	-14631
lders	-14632
ppers	-14633
▁Emma	-14634
▁Eric	-14635
▁Room	-14636
▁SHOW	-14637
▁Shar	-14638
▁Soph	-14639
▁Tian	-14640
▁Were	-14641
▁disk	-14642
▁duck	-14643
▁exit	-14644
▁palm	-14645
▁pant	-14646
▁pipe	-14647
▁shin	-14648
▁sits	-14649
▁synt	-14650
▁twin	-14651
-power	-14652
hattan	-14653
isbane	-14654
ports/	-14655
prints	-14656
▁1980s	-14657
▁Anton	-14658
▁Avril	-14659
▁BIBLI	-14660
▁Beach	-14661
▁Carol	-14662
▁Hayao	-14663
▁Rainy	-14664
▁Simps	-14665
▁adver	-14666
▁alumn	-14667
▁diarr	-14668
▁exert	-14669
▁fract	-14670
▁guilt	-14671
▁hydro	-14672
▁lined	-14673
▁livel	-14674
▁panda	-14675
▁pools	-14676
▁prest	-14677
▁queen	-14678
▁royal	-14679
▁screw	-14680
▁spoil	-14681
▁taxis	-14682
-energy	-14683
/Ethics	-14684
inction	-14685
lishing	-14686
science	-14687
tically	-14688
versely	-14689
▁Bhutan	-14690
▁Bright	-14691
▁Danish	-14692
▁Hanami	-14693
▁Inside	-14694
▁affair	-14695
▁column	-14696
▁corrid	-14697
▁crafts	-14698
▁foward	-14699
▁judges	-14700
▁laying	-14701
▁locate	-14702
▁metaph	-14703
▁mining	-14704
▁operas	-14705
▁reflex	-14706
▁skyscr	-14707
▁slopes	-14708
▁unreal	-14709
▁utmost	-14710
▁//www.g	-14711
▁//www.w	-14712
▁Muslims	-14713
▁blessed	-14714
▁counted	-14715
▁diploma	-14716
▁flooded	-14717
▁founder	-14718
▁indoors	-14719
▁rewrite	-14720
▁statues	-14721
▁suburbs	-14722
developed	-14723
▁Director	-14724
▁Together	-14725
▁balloons	-14726
▁cautious	-14727
▁creature	-14728
▁definite	-14729
▁hesitant	-14730
▁inferior	-14731
▁inherent	-14732
▁inserted	-14733
▁newcomer	-14734
▁performs	-14735
▁sausages	-14736
▁seminars	-14737
▁silently	-14738
▁skillful	-14739
▁twenties	-14740
▁updating	-14741
▁Discovery	-14742
▁advancing	-14743
▁ambitious	-14744
▁computing	-14745
▁depletion	-14746
▁messenger	-14747
▁obtaining	-14748
▁patiently	-14749
▁terrified	-14750
▁territory	-14751
/Ethics-of-	-14752
▁distribute	-14753
▁separately	-14754
▁separation	-14755
▁sleepiness	-14756
▁soundtrack	-14757
▁subsidized	-14758
▁merchandise	-14759
▁restriction	-14760
▁technically	-14761
▁BIBLIOGRAPHY	-14762
▁carelessness	-14763
▁individually	-14764
▁perspectives	-14765
▁Sodium-Cooled	-14766
▁comprehensive	-14767
▁corresponding	-14768
08	-14769
43	-14770
CH	-14771
IE	-14772
_1	-14773
_C	-14774
cd	-14775
&id	-14776
CER	-14777
INE	-14778
Ret	-14779
ati	-14780
emo	-14781
ifu	-14782
ipt	-14783
nan	-14784
sle	-14785
urd	-14786
▁ER	-14787
▁KL	-14788
▁ps	-14789
[...]
